{
  "version": "1.0",
  "truncation": null,
  "padding": null,
  "added_tokens": [
    {
      "id": 0,
      "content": "<s>",
      "single_word": false,
      "lstrip": false,
      "rstrip": false,
      "normalized": false,
      "special": true
    },
    {
      "id": 1,
      "content": "</s>",
      "single_word": false,
      "lstrip": false,
      "rstrip": false,
      "normalized": false,
      "special": true
    },
    {
      "id": 2,
      "content": "<unk>",
      "single_word": false,
      "lstrip": false,
      "rstrip": false,
      "normalized": false,
      "special": true
    },
    {
      "id": 3,
      "content": "<pad>",
      "single_word": false,
      "lstrip": false,
      "rstrip": false,
      "normalized": false,
      "special": true
    }
  ],
  "normalizer": {
    "type": "Sequence",
    "normalizers": [
      {
        "type": "NFD"
      },
      {
        "type": "Lowercase"
      },
      {
        "type": "StripAccents"
      }
    ]
  },
  "pre_tokenizer": {
    "type": "Whitespace"
  },
  "post_processor": null,
  "decoder": null,
  "model": {
    "type": "BPE",
    "dropout": null,
    "unk_token": null,
    "continuing_subword_prefix": null,
    "end_of_word_suffix": null,
    "fuse_unk": false,
    "byte_fallback": false,
    "ignore_merges": false,
    "vocab": {
      "<s>": 0,
      "</s>": 1,
      "<unk>": 2,
      "<pad>": 3,
      "!": 4,
      "\"": 5,
      "$": 6,
      "%": 7,
      "&": 8,
      "'": 9,
      "(": 10,
      ")": 11,
      "+": 12,
      ",": 13,
      "-": 14,
      ".": 15,
      "/": 16,
      "0": 17,
      "1": 18,
      "2": 19,
      "3": 20,
      "4": 21,
      "5": 22,
      "6": 23,
      "7": 24,
      "8": 25,
      "9": 26,
      ":": 27,
      ";": 28,
      "?": 29,
      "a": 30,
      "b": 31,
      "c": 32,
      "d": 33,
      "e": 34,
      "f": 35,
      "g": 36,
      "h": 37,
      "i": 38,
      "j": 39,
      "k": 40,
      "l": 41,
      "m": 42,
      "n": 43,
      "o": 44,
      "p": 45,
      "q": 46,
      "r": 47,
      "s": 48,
      "t": 49,
      "u": 50,
      "v": 51,
      "w": 52,
      "x": 53,
      "y": 54,
      "z": 55,
      "«": 56,
      "­": 57,
      "º": 58,
      "»": 59,
      "œ": 60,
      "а": 61,
      "с": 62,
      "​": 63,
      "–": 64,
      "—": 65,
      "‘": 66,
      "’": 67,
      "…": 68,
      "‽": 69,
      "₂": 70,
      "€": 71,
      "ou": 72,
      "re": 73,
      "es": 74,
      "on": 75,
      "ai": 76,
      "en": 77,
      "th": 78,
      "er": 79,
      "to": 80,
      "an": 81,
      "le": 82,
      "in": 83,
      "is": 84,
      "de": 85,
      "as": 86,
      "qu": 87,
      "te": 88,
      "you": 89,
      "ne": 90,
      "me": 91,
      "at": 92,
      "ar": 93,
      "ve": 94,
      "je": 95,
      "the": 96,
      "se": 97,
      "il": 98,
      "ous": 99,
      "he": 100,
      "ce": 101,
      "it": 102,
      "que": 103,
      "or": 104,
      "ent": 105,
      "la": 106,
      "est": 107,
      "et": 108,
      "al": 109,
      "tom": 110,
      "ing": 111,
      "pas": 112,
      "ais": 113,
      "ch": 114,
      "vous": 115,
      "au": 116,
      "no": 117,
      "tu": 118,
      "ro": 119,
      "ie": 120,
      "un": 121,
      "our": 122,
      "su": 123,
      "do": 124,
      "co": 125,
      "pe": 126,
      "be": 127,
      "ave": 128,
      "ait": 129,
      "us": 130,
      "di": 131,
      "ant": 132,
      "res": 133,
      "oi": 134,
      "wh": 135,
      "we": 136,
      "li": 137,
      "ri": 138,
      "ver": 139,
      "av": 140,
      "that": 141,
      "les": 142,
      "ke": 143,
      "ay": 144,
      "tr": 145,
      "ment": 146,
      "of": 147,
      "ion": 148,
      "out": 149,
      "so": 150,
      "ap": 151,
      "don": 152,
      "mp": 153,
      "all": 154,
      "are": 155,
      "ux": 156,
      "el": 157,
      "go": 158,
      "con": 159,
      "par": 160,
      "ld": 161,
      "ho": 162,
      "nous": 163,
      "lo": 164,
      "am": 165,
      "pour": 166,
      "for": 167,
      "ti": 168,
      "ac": 169,
      "st": 170,
      "une": 171,
      "si": 172,
      "son": 173,
      "this": 174,
      "ter": 175,
      "ge": 176,
      "ab": 177,
      "ain": 178,
      "ren": 179,
      "ci": 180,
      "was": 181,
      "have": 182,
      "ur": 183,
      "and": 184,
      "ad": 185,
      "pl": 186,
      "ll": 187,
      "gh": 188,
      "pen": 189,
      "can": 190,
      "tre": 191,
      "my": 192,
      "mon": 193,
      "ca": 194,
      "mo": 195,
      "what": 196,
      "du": 197,
      "po": 198,
      "now": 199,
      "ut": 200,
      "your": 201,
      "aire": 202,
      "ma": 203,
      "fe": 204,
      "ans": 205,
      "pro": 206,
      "ir": 207,
      "ould": 208,
      "vo": 209,
      "des": 210,
      "com": 211,
      "did": 212,
      "suis": 213,
      "elle": 214,
      "ons": 215,
      "mar": 216,
      "one": 217,
      "ght": 218,
      "man": 219,
      "ien": 220,
      "want": 221,
      "wi": 222,
      "bo": 223,
      "faire": 224,
      "she": 225,
      "ed": 226,
      "per": 227,
      "not": 228,
      "ten": 229,
      "oir": 230,
      "hi": 231,
      "know": 232,
      "quel": 233,
      "qui": 234,
      "very": 235,
      "thing": 236,
      "der": 237,
      "mes": 238,
      "like": 239,
      "here": 240,
      "pre": 241,
      "with": 242,
      "ure": 243,
      "che": 244,
      "ex": 245,
      "ser": 246,
      "ly": 247,
      "tout": 248,
      "ta": 249,
      "ink": 250,
      "ill": 251,
      "ble": 252,
      "dans": 253,
      "ok": 254,
      "plus": 255,
      "cu": 256,
      "ted": 257,
      "sur": 258,
      "ag": 259,
      "lu": 260,
      "fait": 261,
      "his": 262,
      "ther": 263,
      "dre": 264,
      "cho": 265,
      "how": 266,
      "fi": 267,
      "they": 268,
      "sa": 269,
      "pr": 270,
      "cou": 271,
      "jour": 272,
      "veux": 273,
      "vr": 274,
      "moi": 275,
      "ple": 276,
      "day": 277,
      "ven": 278,
      "think": 279,
      "ille": 280,
      "jus": 281,
      "etre": 282,
      "any": 283,
      "some": 284,
      "wor": 285,
      "get": 286,
      "vi": 287,
      "fo": 288,
      "quoi": 289,
      "dis": 290,
      "him": 291,
      "etait": 292,
      "etes": 293,
      "ard": 294,
      "avec": 295,
      "comp": 296,
      "cet": 297,
      "end": 298,
      "there": 299,
      "sh": 300,
      "ation": 301,
      "see": 302,
      "dit": 303,
      "sais": 304,
      "mer": 305,
      "tres": 306,
      "mary": 307,
      "ils": 308,
      "avez": 309,
      "ong": 310,
      "lle": 311,
      "ine": 312,
      "bien": 313,
      "temp": 314,
      "pu": 315,
      "let": 316,
      "time": 317,
      "ue": 318,
      "ses": 319,
      "od": 320,
      "age": 321,
      "if": 322,
      "ouve": 323,
      "gr": 324,
      "iez": 325,
      "pense": 326,
      "ts": 327,
      "about": 328,
      "ate": 329,
      "able": 330,
      "temps": 331,
      "vou": 332,
      "sont": 333,
      "mb": 334,
      "por": 335,
      "her": 336,
      "ig": 337,
      "dr": 338,
      "didn": 339,
      "ck": 340,
      "mis": 341,
      "ces": 342,
      "cette": 343,
      "ite": 344,
      "up": 345,
      "use": 346,
      "ont": 347,
      "mais": 348,
      "tro": 349,
      "were": 350,
      "ally": 351,
      "ct": 352,
      "way": 353,
      "ni": 354,
      "lui": 355,
      "ul": 356,
      "ici": 357,
      "fr": 358,
      "will": 359,
      "main": 360,
      "ger": 361,
      "say": 362,
      "fin": 363,
      "ete": 364,
      "hap": 365,
      "toi": 366,
      "had": 367,
      "lais": 368,
      "every": 369,
      "peux": 370,
      "ouv": 371,
      "votre": 372,
      "has": 373,
      "ye": 374,
      "cela": 375,
      "would": 376,
      "tes": 377,
      "why": 378,
      "tou": 379,
      "ase": 380,
      "person": 381,
      "vrai": 382,
      "just": 383,
      "who": 384,
      "pourquoi": 385,
      "chan": 386,
      "going": 387,
      "arri": 388,
      "should": 389,
      "cher": 390,
      "ton": 391,
      "need": 392,
      "beau": 393,
      "avoir": 394,
      "could": 395,
      "imp": 396,
      "ds": 397,
      "fro": 398,
      "lie": 399,
      "ler": 400,
      "jam": 401,
      "min": 402,
      "air": 403,
      "come": 404,
      "bon": 405,
      "hel": 406,
      "chose": 407,
      "avai": 408,
      "mi": 409,
      "tell": 410,
      "pris": 411,
      "long": 412,
      "good": 413,
      "pi": 414,
      "iere": 415,
      "ked": 416,
      "pla": 417,
      "work": 418,
      "where": 419,
      "fer": 420,
      "alk": 421,
      "ner": 422,
      "look": 423,
      "pren": 424,
      "las": 425,
      "jamais": 426,
      "ry": 427,
      "coup": 428,
      "pres": 429,
      "jo": 430,
      "dire": 431,
      "car": 432,
      "read": 433,
      "comment": 434,
      "men": 435,
      "aime": 436,
      "travai": 437,
      "vie": 438,
      "more": 439,
      "fri": 440,
      "ions": 441,
      "dent": 442,
      "ied": 443,
      "does": 444,
      "gar": 445,
      "voir": 446,
      "help": 447,
      "gu": 448,
      "avons": 449,
      "dy": 450,
      "gi": 451,
      "ep": 452,
      "by": 453,
      "sor": 454,
      "rais": 455,
      "when": 456,
      "take": 457,
      "ssi": 458,
      "gent": 459,
      "got": 460,
      "ought": 461,
      "vraiment": 462,
      "sto": 463,
      "aller": 464,
      "than": 465,
      "mmes": 466,
      "cer": 467,
      "red": 468,
      "new": 469,
      "part": 470,
      "mme": 471,
      "train": 472,
      "pare": 473,
      "really": 474,
      "jours": 475,
      "from": 476,
      "ide": 477,
      "br": 478,
      "af": 479,
      "bes": 480,
      "ree": 481,
      "cr": 482,
      "aid": 483,
      "ens": 484,
      "cro": 485,
      "quelque": 486,
      "asse": 487,
      "heure": 488,
      "nu": 489,
      "aut": 490,
      "proble": 491,
      "stu": 492,
      "ak": 493,
      "ret": 494,
      "puis": 495,
      "hu": 496,
      "please": 497,
      "vis": 498,
      "dif": 499,
      "arrive": 500,
      "sure": 501,
      "tous": 502,
      "but": 503,
      "sou": 504,
      "lis": 505,
      "ache": 506,
      "been": 507,
      "spe": 508,
      "personne": 509,
      "friend": 510,
      "mus": 511,
      "mu": 512,
      "oin": 513,
      "never": 514,
      "besoin": 515,
      "elles": 516,
      "liv": 517,
      "sel": 518,
      "beaucoup": 519,
      "wn": 520,
      "appe": 521,
      "talk": 522,
      "ance": 523,
      "vais": 524,
      "ack": 525,
      "peu": 526,
      "aine": 527,
      "bu": 528,
      "peut": 529,
      "va": 530,
      "too": 531,
      "bus": 532,
      "pere": 533,
      "ors": 534,
      "cour": 535,
      "lit": 536,
      "bre": 537,
      "something": 538,
      "rent": 539,
      "ey": 540,
      "fa": 541,
      "mor": 542,
      "lement": 543,
      "sed": 544,
      "sommes": 545,
      "mat": 546,
      "alle": 547,
      "happen": 548,
      "devr": 549,
      "home": 550,
      "cle": 551,
      "ting": 552,
      "avais": 553,
      "sem": 554,
      "parler": 555,
      "quest": 556,
      "iture": 557,
      "etais": 558,
      "aux": 559,
      "eat": 560,
      "rien": 561,
      "quelqu": 562,
      "fais": 563,
      "ph": 564,
      "much": 565,
      "sent": 566,
      "right": 567,
      "ise": 568,
      "make": 569,
      "avait": 570,
      "oun": 571,
      "ire": 572,
      "inte": 573,
      "comme": 574,
      "oc": 575,
      "lot": 576,
      "ol": 577,
      "won": 578,
      "atten": 579,
      "avant": 580,
      "int": 581,
      "book": 582,
      "maison": 583,
      "conn": 584,
      "mal": 585,
      "parti": 586,
      "trop": 587,
      "ty": 588,
      "cor": 589,
      "deux": 590,
      "pouv": 591,
      "row": 592,
      "ants": 593,
      "self": 594,
      "ded": 595,
      "toujours": 596,
      "try": 597,
      "aimer": 598,
      "ins": 599,
      "wo": 600,
      "fu": 601,
      "leur": 602,
      "meme": 603,
      "body": 604,
      "core": 605,
      "met": 606,
      "feel": 607,
      "money": 608,
      "nouve": 609,
      "argent": 610,
      "bet": 611,
      "quand": 612,
      "thought": 613,
      "vien": 614,
      "encore": 615,
      "last": 616,
      "back": 617,
      "fois": 618,
      "om": 619,
      "monde": 620,
      "sit": 621,
      "give": 622,
      "ieux": 623,
      "sup": 624,
      "pet": 625,
      "enf": 626,
      "porte": 627,
      "anc": 628,
      "anything": 629,
      "care": 630,
      "tot": 631,
      "wat": 632,
      "passe": 633,
      "ful": 634,
      "pay": 635,
      "jou": 636,
      "mande": 637,
      "other": 638,
      "vu": 639,
      "love": 640,
      "dois": 641,
      "ic": 642,
      "prendre": 643,
      "told": 644,
      "dev": 645,
      "under": 646,
      "plan": 647,
      "ang": 648,
      "tor": 649,
      "ars": 650,
      "ame": 651,
      "ston": 652,
      "ess": 653,
      "ers": 654,
      "ouse": 655,
      "autre": 656,
      "ild": 657,
      "py": 658,
      "stand": 659,
      "doesn": 660,
      "boston": 661,
      "quelle": 662,
      "str": 663,
      "ish": 664,
      "soit": 665,
      "again": 666,
      "ra": 667,
      "ough": 668,
      "nee": 669,
      "faut": 670,
      "ople": 671,
      "people": 672,
      "fore": 673,
      "voiture": 674,
      "aimerais": 675,
      "ning": 676,
      "tement": 677,
      "ction": 678,
      "eu": 679,
      "travail": 680,
      "cau": 681,
      "must": 682,
      "off": 683,
      "tent": 684,
      "lez": 685,
      "clo": 686,
      "room": 687,
      "arre": 688,
      "mainten": 689,
      "pri": 690,
      "tle": 691,
      "ese": 692,
      "stay": 693,
      "made": 694,
      "old": 695,
      "tele": 696,
      "speak": 697,
      "chez": 698,
      "ound": 699,
      "entre": 700,
      "impor": 701,
      "today": 702,
      "maintenant": 703,
      "ves": 704,
      "aussi": 705,
      "combien": 706,
      "pose": 707,
      "ready": 708,
      "aider": 709,
      "cole": 710,
      "may": 711,
      "many": 712,
      "hui": 713,
      "laisse": 714,
      "interes": 715,
      "ceci": 716,
      "said": 717,
      "venir": 718,
      "essay": 719,
      "aujour": 720,
      "belie": 721,
      "aujourd": 722,
      "went": 723,
      "ence": 724,
      "play": 725,
      "demande": 726,
      "happy": 727,
      "aient": 728,
      "paren": 729,
      "wr": 730,
      "pon": 731,
      "ach": 732,
      "ante": 733,
      "sion": 734,
      "still": 735,
      "doing": 736,
      "ways": 737,
      "diffi": 738,
      "hier": 739,
      "ind": 740,
      "emp": 741,
      "ouvez": 742,
      "aur": 743,
      "cre": 744,
      "enten": 745,
      "grand": 746,
      "port": 747,
      "fam": 748,
      "night": 749,
      "only": 750,
      "tur": 751,
      "juste": 752,
      "connais": 753,
      "house": 754,
      "better": 755,
      "plait": 756,
      "donne": 757,
      "bro": 758,
      "franc": 759,
      "believe": 760,
      "always": 761,
      "tez": 762,
      "pend": 763,
      "din": 764,
      "rench": 765,
      "french": 766,
      "pouvez": 767,
      "isn": 768,
      "cri": 769,
      "sho": 770,
      "kes": 771,
      "semble": 772,
      "cert": 773,
      "ek": 774,
      "tant": 775,
      "stop": 776,
      "fai": 777,
      "ouver": 778,
      "hab": 779,
      "pt": 780,
      "reg": 781,
      "etu": 782,
      "over": 783,
      "phone": 784,
      "gen": 785,
      "them": 786,
      "put": 787,
      "orrow": 788,
      "parents": 789,
      "week": 790,
      "ati": 791,
      "child": 792,
      "leave": 793,
      "francais": 794,
      "jap": 795,
      "ask": 796,
      "before": 797,
      "job": 798,
      "ob": 799,
      "after": 800,
      "scho": 801,
      "ja": 802,
      "ures": 803,
      "occu": 804,
      "father": 805,
      "school": 806,
      "wait": 807,
      "seu": 808,
      "apres": 809,
      "ile": 810,
      "down": 811,
      "mber": 812,
      "change": 813,
      "dec": 814,
      "marie": 815,
      "simp": 816,
      "livre": 817,
      "question": 818,
      "cha": 819,
      "moment": 820,
      "trouve": 821,
      "mag": 822,
      "appre": 823,
      "little": 824,
      "seul": 825,
      "well": 826,
      "pensais": 827,
      "toutes": 828,
      "sis": 829,
      "hav": 830,
      "ange": 831,
      "cie": 832,
      "deja": 833,
      "regar": 834,
      "anger": 835,
      "commen": 836,
      "anted": 837,
      "ester": 838,
      "ft": 839,
      "problem": 840,
      "aide": 841,
      "auc": 842,
      "pie": 843,
      "sp": 844,
      "contre": 845,
      "voul": 846,
      "everything": 847,
      "assez": 848,
      "hand": 849,
      "star": 850,
      "sait": 851,
      "act": 852,
      "nes": 853,
      "notre": 854,
      "hear": 855,
      "dog": 856,
      "wanted": 857,
      "demain": 858,
      "bonne": 859,
      "understand": 860,
      "trois": 861,
      "mieux": 862,
      "ned": 863,
      "late": 864,
      "call": 865,
      "tomorrow": 866,
      "voulez": 867,
      "parle": 868,
      "rendre": 869,
      "oub": 870,
      "ole": 871,
      "chien": 872,
      "ense": 873,
      "ture": 874,
      "live": 875,
      "urs": 876,
      "tru": 877,
      "yester": 878,
      "yesterday": 879,
      "sans": 880,
      "fas": 881,
      "cul": 882,
      "hur": 883,
      "hard": 884,
      "ique": 885,
      "table": 886,
      "mand": 887,
      "leep": 888,
      "devrais": 889,
      "left": 890,
      "ear": 891,
      "ever": 892,
      "alone": 893,
      "three": 894,
      "find": 895,
      "surpris": 896,
      "place": 897,
      "buy": 898,
      "pourr": 899,
      "poli": 900,
      "happened": 901,
      "ecole": 902,
      "gre": 903,
      "sing": 904,
      "keep": 905,
      "probleme": 906,
      "venu": 907,
      "yez": 908,
      "fir": 909,
      "two": 910,
      "wer": 911,
      "most": 912,
      "manger": 913,
      "tea": 914,
      "king": 915,
      "vent": 916,
      "enough": 917,
      "deci": 918,
      "ali": 919,
      "cont": 920,
      "hed": 921,
      "meet": 922,
      "cus": 923,
      "drink": 924,
      "done": 925,
      "diffe": 926,
      "these": 927,
      "asked": 928,
      "vers": 929,
      "xt": 930,
      "came": 931,
      "cat": 932,
      "vre": 933,
      "pos": 934,
      "ez": 935,
      "enfants": 936,
      "rest": 937,
      "mbre": 938,
      "bed": 939,
      "non": 940,
      "saw": 941,
      "used": 942,
      "vit": 943,
      "win": 944,
      "friends": 945,
      "savoir": 946,
      "gens": 947,
      "fre": 948,
      "fut": 949,
      "nothing": 950,
      "tra": 951,
      "into": 952,
      "toute": 953,
      "mine": 954,
      "ris": 955,
      "cent": 956,
      "cident": 957,
      "eng": 958,
      "ped": 959,
      "soir": 960,
      "heures": 961,
      "mere": 962,
      "souv": 963,
      "ity": 964,
      "homme": 965,
      "cause": 966,
      "bou": 967,
      "chance": 968,
      "reme": 969,
      "nuit": 970,
      "ail": 971,
      "petit": 972,
      "erre": 973,
      "next": 974,
      "habit": 975,
      "ami": 976,
      "even": 977,
      "hope": 978,
      "sens": 979,
      "ssible": 980,
      "ager": 981,
      "sorry": 982,
      "seem": 983,
      "partir": 984,
      "accident": 985,
      "ru": 986,
      "ried": 987,
      "low": 988,
      "dern": 989,
      "gir": 990,
      "lors": 991,
      "ref": 992,
      "repon": 993,
      "point": 994,
      "etudi": 995,
      "mother": 996,
      "vos": 997,
      "occupe": 998,
      "mange": 999,
      "ary": 1000,
      "ze": 1001,
      "side": 1002,
      "simplement": 1003,
      "girl": 1004,
      "aurais": 1005,
      "fac": 1006,
      "desole": 1007,
      "chau": 1008,
      "plu": 1009,
      "quelques": 1010,
      "pret": 1011,
      "rite": 1012,
      "busy": 1013,
      "fat": 1014,
      "voy": 1015,
      "fun": 1016,
      "ffe": 1017,
      "ince": 1018,
      "fel": 1019,
      "rer": 1020,
      "run": 1021,
      "wrong": 1022,
      "away": 1023,
      "dres": 1024,
      "demand": 1025,
      "jet": 1026,
      "voulais": 1027,
      "door": 1028,
      "lun": 1029,
      "idee": 1030,
      "ele": 1031,
      "life": 1032,
      "dro": 1033,
      "ign": 1034,
      "everyone": 1035,
      "heureux": 1036,
      "sleep": 1037,
      "choses": 1038,
      "pho": 1039,
      "ier": 1040,
      "things": 1041,
      "bor": 1042,
      "mil": 1043,
      "rester": 1044,
      "first": 1045,
      "cas": 1046,
      "ight": 1047,
      "fil": 1048,
      "inter": 1049,
      "ose": 1050,
      "montre": 1051,
      "derniere": 1052,
      "voudr": 1053,
      "lic": 1054,
      "amer": 1055,
      "idea": 1056,
      "watch": 1057,
      "wasn": 1058,
      "cess": 1059,
      "ado": 1060,
      "cal": 1061,
      "pain": 1062,
      "teur": 1063,
      "cap": 1064,
      "ff": 1065,
      "rez": 1066,
      "espere": 1067,
      "viens": 1068,
      "rou": 1069,
      "veut": 1070,
      "remember": 1071,
      "ved": 1072,
      "photo": 1073,
      "name": 1074,
      "die": 1075,
      "kind": 1076,
      "op": 1077,
      "bi": 1078,
      "gave": 1079,
      "aise": 1080,
      "mind": 1081,
      "soon": 1082,
      "open": 1083,
      "tri": 1084,
      "tired": 1085,
      "anyone": 1086,
      "took": 1087,
      "without": 1088,
      "coun": 1089,
      "bles": 1090,
      "being": 1091,
      "quit": 1092,
      "prob": 1093,
      "children": 1094,
      "dou": 1095,
      "wed": 1096,
      "prof": 1097,
      "bad": 1098,
      "questions": 1099,
      "looking": 1100,
      "show": 1101,
      "condu": 1102,
      "years": 1103,
      "dor": 1104,
      "already": 1105,
      "teacher": 1106,
      "dri": 1107,
      "faites": 1108,
      "nouveau": 1109,
      "trouver": 1110,
      "entendu": 1111,
      "police": 1112,
      "jeun": 1113,
      "big": 1114,
      "rencontre": 1115,
      "important": 1116,
      "same": 1117,
      "yet": 1118,
      "their": 1119,
      "vite": 1120,
      "couldn": 1121,
      "fille": 1122,
      "knew": 1123,
      "nom": 1124,
      "reste": 1125,
      "sat": 1126,
      "gla": 1127,
      "morning": 1128,
      "mit": 1129,
      "ller": 1130,
      "peur": 1131,
      "depuis": 1132,
      "rain": 1133,
      "raison": 1134,
      "œur": 1135,
      "vez": 1136,
      "sorti": 1137,
      "conse": 1138,
      "mau": 1139,
      "ros": 1140,
      "accor": 1141,
      "certain": 1142,
      "ches": 1143,
      "dur": 1144,
      "ki": 1145,
      "attent": 1146,
      "heard": 1147,
      "utes": 1148,
      "telephone": 1149,
      "lear": 1150,
      "sol": 1151,
      "amis": 1152,
      "best": 1153,
      "ot": 1154,
      "croire": 1155,
      "water": 1156,
      "ats": 1157,
      "boy": 1158,
      "lish": 1159,
      "pendant": 1160,
      "cile": 1161,
      "seen": 1162,
      "bit": 1163,
      "cham": 1164,
      "emb": 1165,
      "sig": 1166,
      "ande": 1167,
      "sec": 1168,
      "pic": 1169,
      "aren": 1170,
      "tel": 1171,
      "clas": 1172,
      "seule": 1173,
      "haven": 1174,
      "piece": 1175,
      "meille": 1176,
      "ily": 1177,
      "igno": 1178,
      "vois": 1179,
      "semaine": 1180,
      "found": 1181,
      "cons": 1182,
      "lost": 1183,
      "produ": 1184,
      "achete": 1185,
      "donner": 1186,
      "difficile": 1187,
      "dez": 1188,
      "minutes": 1189,
      "fort": 1190,
      "often": 1191,
      "prie": 1192,
      "lar": 1193,
      "walk": 1194,
      "eau": 1195,
      "uit": 1196,
      "exp": 1197,
      "ju": 1198,
      "ques": 1199,
      "present": 1200,
      "wish": 1201,
      "ath": 1202,
      "ale": 1203,
      "boi": 1204,
      "eas": 1205,
      "soyez": 1206,
      "answer": 1207,
      "prefe": 1208,
      "ies": 1209,
      "beg": 1210,
      "fatig": 1211,
      "war": 1212,
      "sois": 1213,
      "turn": 1214,
      "quer": 1215,
      "acheter": 1216,
      "savais": 1217,
      "rap": 1218,
      "pourrais": 1219,
      "ital": 1220,
      "study": 1221,
      "chambre": 1222,
      "doc": 1223,
      "sera": 1224,
      "souvent": 1225,
      "telle": 1226,
      "aper": 1227,
      "jusqu": 1228,
      "crois": 1229,
      "light": 1230,
      "afr": 1231,
      "days": 1232,
      "afraid": 1233,
      "cl": 1234,
      "hon": 1235,
      "acce": 1236,
      "pouvons": 1237,
      "youn": 1238,
      "proch": 1239,
      "merci": 1240,
      "mettre": 1241,
      "dra": 1242,
      "lles": 1243,
      "ber": 1244,
      "promis": 1245,
      "else": 1246,
      "compren": 1247,
      "sister": 1248,
      "bla": 1249,
      "lan": 1250,
      "yourself": 1251,
      "femme": 1252,
      "cold": 1253,
      "someone": 1254,
      "possible": 1255,
      "few": 1256,
      "reve": 1257,
      "times": 1258,
      "uille": 1259,
      "nez": 1260,
      "matin": 1261,
      "ky": 1262,
      "gry": 1263,
      "japan": 1264,
      "longtemps": 1265,
      "japon": 1266,
      "rions": 1267,
      "stupi": 1268,
      "thank": 1269,
      "party": 1270,
      "suppose": 1271,
      "great": 1272,
      "crit": 1273,
      "led": 1274,
      "english": 1275,
      "ecri": 1276,
      "fon": 1277,
      "brother": 1278,
      "bat": 1279,
      "em": 1280,
      "while": 1281,
      "sau": 1282,
      "etr": 1283,
      "penses": 1284,
      "accord": 1285,
      "az": 1286,
      "perdu": 1287,
      "fast": 1288,
      "hour": 1289,
      "ations": 1290,
      "dejeun": 1291,
      "uses": 1292,
      "fatigue": 1293,
      "swi": 1294,
      "myself": 1295,
      "choi": 1296,
      "suc": 1297,
      "gare": 1298,
      "nombre": 1299,
      "swim": 1300,
      "anglais": 1301,
      "val": 1302,
      "difficul": 1303,
      "ving": 1304,
      "tour": 1305,
      "lire": 1306,
      "commence": 1307,
      "ated": 1308,
      "tard": 1309,
      "talking": 1310,
      "glad": 1311,
      "sy": 1312,
      "student": 1313,
      "fau": 1314,
      "lat": 1315,
      "travaille": 1316,
      "getting": 1317,
      "coute": 1318,
      "comple": 1319,
      "matter": 1320,
      "oublie": 1321,
      "bought": 1322,
      "den": 1323,
      "year": 1324,
      "iste": 1325,
      "food": 1326,
      "aucun": 1327,
      "dejeuner": 1328,
      "hor": 1329,
      "etaient": 1330,
      "moins": 1331,
      "gg": 1332,
      "jouer": 1333,
      "miere": 1334,
      "indre": 1335,
      "imag": 1336,
      "nei": 1337,
      "form": 1338,
      "nice": 1339,
      "jeune": 1340,
      "both": 1341,
      "wants": 1342,
      "listen": 1343,
      "gag": 1344,
      "mir": 1345,
      "illes": 1346,
      "letter": 1347,
      "once": 1348,
      "around": 1349,
      "fete": 1350,
      "appreci": 1351,
      "ef": 1352,
      "leurs": 1353,
      "secret": 1354,
      "ras": 1355,
      "ville": 1356,
      "might": 1357,
      "married": 1358,
      "aucune": 1359,
      "danger": 1360,
      "ken": 1361,
      "contin": 1362,
      "aie": 1363,
      "util": 1364,
      "vol": 1365,
      "expe": 1366,
      "travailler": 1367,
      "attention": 1368,
      "far": 1369,
      "true": 1370,
      "devons": 1371,
      "early": 1372,
      "rappe": 1373,
      "char": 1374,
      "less": 1375,
      "mala": 1376,
      "break": 1377,
      "lorsque": 1378,
      "pourrait": 1379,
      "ball": 1380,
      "gros": 1381,
      "retard": 1382,
      "arrete": 1383,
      "since": 1384,
      "ished": 1385,
      "everybody": 1386,
      "dont": 1387,
      "retour": 1388,
      "bas": 1389,
      "because": 1390,
      "whi": 1391,
      "confi": 1392,
      "cted": 1393,
      "knows": 1394,
      "vient": 1395,
      "sortir": 1396,
      "another": 1397,
      "coming": 1398,
      "na": 1399,
      "hate": 1400,
      "those": 1401,
      "etiez": 1402,
      "uni": 1403,
      "dites": 1404,
      "looks": 1405,
      "habitu": 1406,
      "ious": 1407,
      "voi": 1408,
      "sons": 1409,
      "wonder": 1410,
      "adore": 1411,
      "sant": 1412,
      "set": 1413,
      "impres": 1414,
      "presque": 1415,
      "ignore": 1416,
      "ste": 1417,
      "ages": 1418,
      "heureuse": 1419,
      "nour": 1420,
      "vas": 1421,
      "such": 1422,
      "passer": 1423,
      "tried": 1424,
      "joy": 1425,
      "nouvelle": 1426,
      "young": 1427,
      "hun": 1428,
      "veuille": 1429,
      "mort": 1430,
      "ban": 1431,
      "regarde": 1432,
      "bar": 1433,
      "died": 1434,
      "sujet": 1435,
      "wouldn": 1436,
      "beauti": 1437,
      "enfant": 1438,
      "frere": 1439,
      "write": 1440,
      "toire": 1441,
      "00": 1442,
      "necess": 1443,
      "rentre": 1444,
      "cket": 1445,
      "decis": 1446,
      "inst": 1447,
      "hurt": 1448,
      "meeting": 1449,
      "nis": 1450,
      "doit": 1451,
      "beautiful": 1452,
      "cafe": 1453,
      "almost": 1454,
      "autres": 1455,
      "sui": 1456,
      "anymore": 1457,
      "avantage": 1458,
      "real": 1459,
      "verite": 1460,
      "exam": 1461,
      "face": 1462,
      "doctor": 1463,
      "apprecie": 1464,
      "yer": 1465,
      "vice": 1466,
      "grande": 1467,
      "devriez": 1468,
      "full": 1469,
      "ani": 1470,
      "mot": 1471,
      "plain": 1472,
      "pensez": 1473,
      "attendre": 1474,
      "arriver": 1475,
      "which": 1476,
      "sun": 1477,
      "truth": 1478,
      "differen": 1479,
      "sul": 1480,
      "enjoy": 1481,
      "doll": 1482,
      "journee": 1483,
      "voudrais": 1484,
      "its": 1485,
      "imme": 1486,
      "vac": 1487,
      "coffe": 1488,
      "attend": 1489,
      "alement": 1490,
      "allez": 1491,
      "ges": 1492,
      "ute": 1493,
      "art": 1494,
      "chant": 1495,
      "station": 1496,
      "books": 1497,
      "savez": 1498,
      "mean": 1499,
      "allons": 1500,
      "semb": 1501,
      "exper": 1502,
      "dinner": 1503,
      "coffee": 1504,
      "prepare": 1505,
      "lettre": 1506,
      "shouldn": 1507,
      "ist": 1508,
      "essaye": 1509,
      "word": 1510,
      "chaque": 1511,
      "velo": 1512,
      "ding": 1513,
      "own": 1514,
      "writ": 1515,
      "davantage": 1516,
      "cours": 1517,
      "essayer": 1518,
      "aw": 1519,
      "serai": 1520,
      "smo": 1521,
      "bir": 1522,
      "sœur": 1523,
      "austr": 1524,
      "mauvais": 1525,
      "fall": 1526,
      "tennis": 1527,
      "hotel": 1528,
      "film": 1529,
      "famille": 1530,
      "esse": 1531,
      "conv": 1532,
      "ferme": 1533,
      "prends": 1534,
      "situ": 1535,
      "petite": 1536,
      "joue": 1537,
      "entendre": 1538,
      "bure": 1539,
      "dio": 1540,
      "partie": 1541,
      "each": 1542,
      "hors": 1543,
      "head": 1544,
      "dix": 1545,
      "sal": 1546,
      "devez": 1547,
      "yeux": 1548,
      "decision": 1549,
      "sus": 1550,
      "waiting": 1551,
      "bureau": 1552,
      "pat": 1553,
      "sante": 1554,
      "key": 1555,
      "porter": 1556,
      "sous": 1557,
      "forget": 1558,
      "tonight": 1559,
      "veuillez": 1560,
      "toge": 1561,
      "devoir": 1562,
      "sez": 1563,
      "family": 1564,
      "together": 1565,
      "cout": 1566,
      "det": 1567,
      "tete": 1568,
      "offi": 1569,
      "histoire": 1570,
      "cut": 1571,
      "nobody": 1572,
      "ments": 1573,
      "ience": 1574,
      "luck": 1575,
      "careful": 1576,
      "fol": 1577,
      "avor": 1578,
      "serait": 1579,
      "prison": 1580,
      "livres": 1581,
      "ech": 1582,
      "oked": 1583,
      "working": 1584,
      "restaur": 1585,
      "gne": 1586,
      "usu": 1587,
      "six": 1588,
      "different": 1589,
      "tellement": 1590,
      "cuis": 1591,
      "satis": 1592,
      "prefere": 1593,
      "favor": 1594,
      "gue": 1595,
      "chat": 1596,
      "trus": 1597,
      "sage": 1598,
      "decide": 1599,
      "world": 1600,
      "voulait": 1601,
      "cin": 1602,
      "id": 1603,
      "iser": 1604,
      "suppo": 1605,
      "tenir": 1606,
      "fini": 1607,
      "wear": 1608,
      "likes": 1609,
      "trying": 1610,
      "diate": 1611,
      "vivre": 1612,
      "lait": 1613,
      "aille": 1614,
      "med": 1615,
      "vue": 1616,
      "lier": 1617,
      "demander": 1618,
      "arreter": 1619,
      "laissez": 1620,
      "felt": 1621,
      "sour": 1622,
      "lon": 1623,
      "sm": 1624,
      "minute": 1625,
      "atient": 1626,
      "immediate": 1627,
      "envie": 1628,
      "marche": 1629,
      "oud": 1630,
      "visit": 1631,
      "seems": 1632,
      "cook": 1633,
      "conque": 1634,
      "longer": 1635,
      "pouvoir": 1636,
      "kyo": 1637,
      "situation": 1638,
      "union": 1639,
      "easy": 1640,
      "tee": 1641,
      "learn": 1642,
      "tal": 1643,
      "dress": 1644,
      "dir": 1645,
      "diction": 1646,
      "bag": 1647,
      "secon": 1648,
      "fier": 1649,
      "annee": 1650,
      "souh": 1651,
      "pretty": 1652,
      "nager": 1653,
      "dow": 1654,
      "ather": 1655,
      "soi": 1656,
      "restaurant": 1657,
      "soun": 1658,
      "sick": 1659,
      "guy": 1660,
      "turned": 1661,
      "feu": 1662,
      "takes": 1663,
      "assis": 1664,
      "langu": 1665,
      "wife": 1666,
      "spend": 1667,
      "alors": 1668,
      "propos": 1669,
      "window": 1670,
      "ced": 1671,
      "celui": 1672,
      "high": 1673,
      "ateau": 1674,
      "derni": 1675,
      "exact": 1676,
      "mission": 1677,
      "devrions": 1678,
      "probable": 1679,
      "comprends": 1680,
      "xi": 1681,
      "start": 1682,
      "started": 1683,
      "medi": 1684,
      "serais": 1685,
      "vieux": 1686,
      "senti": 1687,
      "illa": 1688,
      "endro": 1689,
      "pub": 1690,
      "finished": 1691,
      "devrait": 1692,
      "icy": 1693,
      "teste": 1694,
      "dollars": 1695,
      "eg": 1696,
      "nat": 1697,
      "connait": 1698,
      "erreur": 1699,
      "bout": 1700,
      "gone": 1701,
      "loi": 1702,
      "apprendre": 1703,
      "termine": 1704,
      "close": 1705,
      "seulement": 1706,
      "reunion": 1707,
      "ensemble": 1708,
      "lau": 1709,
      "trou": 1710,
      "mois": 1711,
      "fen": 1712,
      "reux": 1713,
      "fire": 1714,
      "midi": 1715,
      "fils": 1716,
      "sive": 1717,
      "ferais": 1718,
      "drive": 1719,
      "sort": 1720,
      "surprised": 1721,
      "nourr": 1722,
      "30": 1723,
      "malade": 1724,
      "bicy": 1725,
      "ente": 1726,
      "vision": 1727,
      "difficult": 1728,
      "ace": 1729,
      "aite": 1730,
      "enne": 1731,
      "cote": 1732,
      "personnes": 1733,
      "free": 1734,
      "medec": 1735,
      "nos": 1736,
      "tive": 1737,
      "agree": 1738,
      "pru": 1739,
      "comprendre": 1740,
      "colere": 1741,
      "conduire": 1742,
      "ecrire": 1743,
      "ecrit": 1744,
      "fish": 1745,
      "nor": 1746,
      "mier": 1747,
      "cur": 1748,
      "ps": 1749,
      "ran": 1750,
      "thir": 1751,
      "pass": 1752,
      "allo": 1753,
      "looked": 1754,
      "quite": 1755,
      "til": 1756,
      "ason": 1757,
      "poser": 1758,
      "cli": 1759,
      "deteste": 1760,
      "noon": 1761,
      "ussi": 1762,
      "impo": 1763,
      "sil": 1764,
      "ordin": 1765,
      "exac": 1766,
      "anybody": 1767,
      "pian": 1768,
      "lunch": 1769,
      "amie": 1770,
      "garcon": 1771,
      "accep": 1772,
      "four": 1773,
      "facile": 1774,
      "voyage": 1775,
      "nourriture": 1776,
      "contr": 1777,
      "forgot": 1778,
      "quiet": 1779,
      "mistake": 1780,
      "froid": 1781,
      "net": 1782,
      "sures": 1783,
      "colle": 1784,
      "meilleur": 1785,
      "app": 1786,
      "terri": 1787,
      "ained": 1788,
      "intent": 1789,
      "boire": 1790,
      "lli": 1791,
      "ward": 1792,
      "corre": 1793,
      "having": 1794,
      "regarder": 1795,
      "ene": 1796,
      "inform": 1797,
      "near": 1798,
      "mets": 1799,
      "month": 1800,
      "journ": 1801,
      "ances": 1802,
      "until": 1803,
      "fig": 1804,
      "endroit": 1805,
      "importe": 1806,
      "pourriez": 1807,
      "movie": 1808,
      "ateur": 1809,
      "iness": 1810,
      "office": 1811,
      "hair": 1812,
      "belle": 1813,
      "lique": 1814,
      "actu": 1815,
      "reading": 1816,
      "autant": 1817,
      "reponse": 1818,
      "opin": 1819,
      "mpe": 1820,
      "weather": 1821,
      "plais": 1822,
      "yours": 1823,
      "col": 1824,
      "content": 1825,
      "maniere": 1826,
      "cuse": 1827,
      "story": 1828,
      "pays": 1829,
      "har": 1830,
      "ener": 1831,
      "compte": 1832,
      "spo": 1833,
      "respe": 1834,
      "super": 1835,
      "premier": 1836,
      "figure": 1837,
      "makes": 1838,
      "dispose": 1839,
      "ake": 1840,
      "posit": 1841,
      "television": 1842,
      "fit": 1843,
      "worry": 1844,
      "drai": 1845,
      "supposed": 1846,
      "tance": 1847,
      "bientot": 1848,
      "impression": 1849,
      "ago": 1850,
      "bois": 1851,
      "eyes": 1852,
      "vin": 1853,
      "laisser": 1854,
      "cine": 1855,
      "cked": 1856,
      "tombe": 1857,
      "ghter": 1858,
      "serious": 1859,
      "discu": 1860,
      "rapide": 1861,
      "confiance": 1862,
      "trust": 1863,
      "small": 1864,
      "tv": 1865,
      "town": 1866,
      "alth": 1867,
      "music": 1868,
      "aurait": 1869,
      "bl": 1870,
      "mour": 1871,
      "trouv": 1872,
      "ainsi": 1873,
      "chemin": 1874,
      "guess": 1875,
      "hours": 1876,
      "fou": 1877,
      "kis": 1878,
      "attr": 1879,
      "mari": 1880,
      "professe": 1881,
      "ennu": 1882,
      "ating": 1883,
      "law": 1884,
      "road": 1885,
      "ames": 1886,
      "ably": 1887,
      "venue": 1888,
      "visite": 1889,
      "dormir": 1890,
      "stupid": 1891,
      "glas": 1892,
      "mas": 1893,
      "ellement": 1894,
      "playing": 1895,
      "exactement": 1896,
      "piano": 1897,
      "bur": 1898,
      "ss": 1899,
      "reussi": 1900,
      "angry": 1901,
      "olo": 1902,
      "trans": 1903,
      "ables": 1904,
      "advis": 1905,
      "etudier": 1906,
      "vir": 1907,
      "bring": 1908,
      "broke": 1909,
      "dernier": 1910,
      "rough": 1911,
      "aban": 1912,
      "lives": 1913,
      "intention": 1914,
      "iller": 1915,
      "clean": 1916,
      "diner": 1917,
      "sign": 1918,
      "usually": 1919,
      "hat": 1920,
      "tic": 1921,
      "penser": 1922,
      "iens": 1923,
      "says": 1924,
      "alled": 1925,
      "chaus": 1926,
      "ade": 1927,
      "reason": 1928,
      "ieur": 1929,
      "ticket": 1930,
      "class": 1931,
      "exactly": 1932,
      "advice": 1933,
      "discus": 1934,
      "prix": 1935,
      "regret": 1936,
      "students": 1937,
      "trouble": 1938,
      "hop": 1939,
      "himself": 1940,
      "ative": 1941,
      "hurry": 1942,
      "picture": 1943,
      "riere": 1944,
      "cial": 1945,
      "ident": 1946,
      "zed": 1947,
      "recu": 1948,
      "rir": 1949,
      "song": 1950,
      "feeling": 1951,
      "called": 1952,
      "suff": 1953,
      "expect": 1954,
      "leve": 1955,
      "iner": 1956,
      "box": 1957,
      "excus": 1958,
      "afternoon": 1959,
      "zz": 1960,
      "appro": 1961,
      "terre": 1962,
      "decided": 1963,
      "equi": 1964,
      "musique": 1965,
      "eating": 1966,
      "caught": 1967,
      "country": 1968,
      "medecin": 1969,
      "sum": 1970,
      "park": 1971,
      "cana": 1972,
      "obli": 1973,
      "aires": 1974,
      "pouvais": 1975,
      "interested": 1976,
      "fell": 1977,
      "loin": 1978,
      "prit": 1979,
      "probablement": 1980,
      "opinion": 1981,
      "dau": 1982,
      "ecout": 1983,
      "uf": 1984,
      "quiconque": 1985,
      "cry": 1986,
      "rece": 1987,
      "verre": 1988,
      "hot": 1989,
      "guit": 1990,
      "regard": 1991,
      "probably": 1992,
      "prochaine": 1993,
      "ny": 1994,
      "aimes": 1995,
      "dessus": 1996,
      "refle": 1997,
      "pap": 1998,
      "sac": 1999,
      "weren": 2000,
      "exce": 2001,
      "dream": 2002,
      "radio": 2003,
      "genre": 2004,
      "boulot": 2005,
      "contro": 2006,
      "poin": 2007,
      "chine": 2008,
      "amment": 2009,
      "fic": 2010,
      "mains": 2011,
      "lieu": 2012,
      "interesting": 2013,
      "shor": 2014,
      "affaire": 2015,
      "professeur": 2016,
      "vant": 2017,
      "chi": 2018,
      "pleure": 2019,
      "foot": 2020,
      "mise": 2021,
      "gener": 2022,
      "cs": 2023,
      "vert": 2024,
      "cient": 2025,
      "premiere": 2026,
      "proud": 2027,
      "miss": 2028,
      "desolee": 2029,
      "plutot": 2030,
      "capable": 2031,
      "anne": 2032,
      "dom": 2033,
      "pois": 2034,
      "cheveux": 2035,
      "vide": 2036,
      "pons": 2037,
      "manque": 2038,
      "fix": 2039,
      "puisse": 2040,
      "arrived": 2041,
      "ameri": 2042,
      "bil": 2043,
      "resul": 2044,
      "dead": 2045,
      "prete": 2046,
      "chois": 2047,
      "bicycle": 2048,
      "test": 2049,
      "rich": 2050,
      "thinking": 2051,
      "cost": 2052,
      "dehors": 2053,
      "tely": 2054,
      "appris": 2055,
      "number": 2056,
      "payer": 2057,
      "catch": 2058,
      "experience": 2059,
      "journal": 2060,
      "chanter": 2061,
      "leav": 2062,
      "game": 2063,
      "popu": 2064,
      "safe": 2065,
      "news": 2066,
      "fenetre": 2067,
      "bab": 2068,
      "flo": 2069,
      "land": 2070,
      "ron": 2071,
      "changer": 2072,
      "through": 2073,
      "surprise": 2074,
      "case": 2075,
      "tokyo": 2076,
      "aupar": 2077,
      "accomp": 2078,
      "finish": 2079,
      "entrer": 2080,
      "promise": 2081,
      "auparavant": 2082,
      "daughter": 2083,
      "snow": 2084,
      "quick": 2085,
      "born": 2086,
      "resse": 2087,
      "concert": 2088,
      "homework": 2089,
      "faim": 2090,
      "fonction": 2091,
      "ites": 2092,
      "force": 2093,
      "ends": 2094,
      "peuvent": 2095,
      "japanese": 2096,
      "choix": 2097,
      "later": 2098,
      "esp": 2099,
      "message": 2100,
      "blesse": 2101,
      "continu": 2102,
      "ution": 2103,
      "intelli": 2104,
      "advised": 2105,
      "uter": 2106,
      "pecher": 2107,
      "tire": 2108,
      "hip": 2109,
      "pleu": 2110,
      "shop": 2111,
      "rencontrer": 2112,
      ".\"": 2113,
      "city": 2114,
      "ive": 2115,
      "pes": 2116,
      "arm": 2117,
      "agre": 2118,
      "cherche": 2119,
      "business": 2120,
      "courage": 2121,
      "maybe": 2122,
      "favorite": 2123,
      "information": 2124,
      "indi": 2125,
      "deli": 2126,
      "ains": 2127,
      "prote": 2128,
      "front": 2129,
      "saying": 2130,
      "living": 2131,
      "attends": 2132,
      "type": 2133,
      "against": 2134,
      "emploi": 2135,
      "habitude": 2136,
      "cinq": 2137,
      "eux": 2138,
      "patient": 2139,
      "site": 2140,
      "marcher": 2141,
      "curite": 2142,
      "appreciate": 2143,
      "follow": 2144,
      "position": 2145,
      "clu": 2146,
      "lang": 2147,
      "etions": 2148,
      "agit": 2149,
      "appeler": 2150,
      "difference": 2151,
      "ming": 2152,
      "sk": 2153,
      "lio": 2154,
      "somme": 2155,
      "begin": 2156,
      "baby": 2157,
      "then": 2158,
      "outside": 2159,
      "ched": 2160,
      "etrange": 2161,
      "discuter": 2162,
      "invit": 2163,
      "chin": 2164,
      "amus": 2165,
      "taking": 2166,
      "computer": 2167,
      "emplo": 2168,
      "hands": 2169,
      "etranger": 2170,
      "meur": 2171,
      "ition": 2172,
      "sugg": 2173,
      "trave": 2174,
      "tree": 2175,
      "large": 2176,
      "summer": 2177,
      "grow": 2178,
      "pau": 2179,
      "wine": 2180,
      "atre": 2181,
      "tun": 2182,
      "sty": 2183,
      "prochain": 2184,
      "impossible": 2185,
      "ient": 2186,
      "nent": 2187,
      "poi": 2188,
      "health": 2189,
      "celle": 2190,
      "rope": 2191,
      "problemes": 2192,
      "chaud": 2193,
      "hosp": 2194,
      "stre": 2195,
      "appele": 2196,
      "utiliser": 2197,
      "scare": 2198,
      "fect": 2199,
      "strong": 2200,
      "convain": 2201,
      "devoirs": 2202,
      "invite": 2203,
      "peau": 2204,
      "kept": 2205,
      "five": 2206,
      "prin": 2207,
      "needs": 2208,
      "pouvait": 2209,
      "nouvelles": 2210,
      "rasse": 2211,
      "vont": 2212,
      "beh": 2213,
      "become": 2214,
      "lose": 2215,
      "shoes": 2216,
      "occupee": 2217,
      "immediatement": 2218,
      "thes": 2219,
      "hold": 2220,
      "chercher": 2221,
      "suffis": 2222,
      "dance": 2223,
      "ling": 2224,
      "save": 2225,
      "parce": 2226,
      "cade": 2227,
      "making": 2228,
      "venez": 2229,
      "compl": 2230,
      "build": 2231,
      "repondre": 2232,
      "hungry": 2233,
      "rai": 2234,
      "wal": 2235,
      "perdre": 2236,
      "excuse": 2237,
      "girlfriend": 2238,
      "trip": 2239,
      "equipe": 2240,
      "base": 2241,
      "date": 2242,
      "ttes": 2243,
      "moy": 2244,
      "commencer": 2245,
      "behind": 2246,
      "len": 2247,
      "reco": 2248,
      "deal": 2249,
      "prenez": 2250,
      "ifie": 2251,
      "fumer": 2252,
      "ignor": 2253,
      "lou": 2254,
      "unk": 2255,
      "suit": 2256,
      "boite": 2257,
      "lucky": 2258,
      "dar": 2259,
      "pa": 2260,
      "ises": 2261,
      "team": 2262,
      "teach": 2263,
      "suite": 2264,
      "works": 2265,
      "univer": 2266,
      "repare": 2267,
      "leg": 2268,
      "securite": 2269,
      "peine": 2270,
      "amou": 2271,
      "older": 2272,
      "hospital": 2273,
      "fus": 2274,
      "ls": 2275,
      "sen": 2276,
      "arti": 2277,
      "respon": 2278,
      "airs": 2279,
      "garde": 2280,
      "band": 2281,
      "cy": 2282,
      "ctu": 2283,
      "org": 2284,
      "order": 2285,
      "autor": 2286,
      "illed": 2287,
      "necessaire": 2288,
      "chaussures": 2289,
      "hes": 2290,
      "prefer": 2291,
      "classe": 2292,
      "instant": 2293,
      "pou": 2294,
      "ping": 2295,
      "sav": 2296,
      "savait": 2297,
      "rid": 2298,
      "riche": 2299,
      "tente": 2300,
      "explain": 2301,
      "woman": 2302,
      "gagne": 2303,
      "gagner": 2304,
      "birth": 2305,
      "oblige": 2306,
      "blo": 2307,
      "hit": 2308,
      "obe": 2309,
      "paid": 2310,
      "revoir": 2311,
      "perfect": 2312,
      "taxi": 2313,
      "numer": 2314,
      "appelle": 2315,
      "clear": 2316,
      "produit": 2317,
      "continue": 2318,
      "fully": 2319,
      "swe": 2320,
      "company": 2321,
      "cru": 2322,
      "needed": 2323,
      "magas": 2324,
      "choice": 2325,
      "ieuse": 2326,
      "somebody": 2327,
      "stayed": 2328,
      "lundi": 2329,
      "laugh": 2330,
      "street": 2331,
      "anni": 2332,
      "arme": 2333,
      "avion": 2334,
      "apolo": 2335,
      "sider": 2336,
      "ferai": 2337,
      "eaten": 2338,
      "mien": 2339,
      "att": 2340,
      "veille": 2341,
      "tomber": 2342,
      "rendu": 2343,
      "prend": 2344,
      "faisons": 2345,
      "etudie": 2346,
      "breakfast": 2347,
      "langue": 2348,
      "lune": 2349,
      "propre": 2350,
      "check": 2351,
      "garder": 2352,
      "enseign": 2353,
      "nombreux": 2354,
      "completement": 2355,
      "rappelle": 2356,
      "short": 2357,
      "cte": 2358,
      "hau": 2359,
      "ank": 2360,
      "ination": 2361,
      "respons": 2362,
      "comes": 2363,
      "paye": 2364,
      "simple": 2365,
      "hal": 2366,
      "aies": 2367,
      "consider": 2368,
      "deser": 2369,
      "taken": 2370,
      "clothes": 2371,
      "kid": 2372,
      "dark": 2373,
      "remar": 2374,
      "dition": 2375,
      "clock": 2376,
      "voulons": 2377,
      "charge": 2378,
      "rentrer": 2379,
      "gun": 2380,
      "whe": 2381,
      "machine": 2382,
      "chanson": 2383,
      "imagine": 2384,
      "public": 2385,
      "lent": 2386,
      "mait": 2387,
      "reconnais": 2388,
      "ast": 2389,
      "ieres": 2390,
      "conside": 2391,
      "touch": 2392,
      "certaine": 2393,
      "prudent": 2394,
      "dest": 2395,
      "pun": 2396,
      "laquelle": 2397,
      "ween": 2398,
      "polit": 2399,
      "desor": 2400,
      "comm": 2401,
      "expen": 2402,
      "disap": 2403,
      "fruit": 2404,
      "bruit": 2405,
      "neige": 2406,
      "tren": 2407,
      "devenir": 2408,
      "itu": 2409,
      "beer": 2410,
      "offer": 2411,
      "craz": 2412,
      "croy": 2413,
      "honne": 2414,
      "austral": 2415,
      "sound": 2416,
      "expensive": 2417,
      "trente": 2418,
      "cœur": 2419,
      "rend": 2420,
      "derriere": 2421,
      "changed": 2422,
      "funny": 2423,
      "accept": 2424,
      "ordinateur": 2425,
      "invi": 2426,
      "forme": 2427,
      "grou": 2428,
      "store": 2429,
      "plane": 2430,
      "australi": 2431,
      "quickly": 2432,
      "ass": 2433,
      "sub": 2434,
      "tenu": 2435,
      "prise": 2436,
      "lorsqu": 2437,
      "refuse": 2438,
      "count": 2439,
      "smoking": 2440,
      "rapidement": 2441,
      "numero": 2442,
      "crazy": 2443,
      "biere": 2444,
      "smar": 2445,
      "worth": 2446,
      "expli": 2447,
      "mur": 2448,
      "teau": 2449,
      "sole": 2450,
      "vole": 2451,
      "facon": 2452,
      "interessant": 2453,
      "etudiants": 2454,
      "watching": 2455,
      "kids": 2456,
      "ette": 2457,
      "ayez": 2458,
      "manche": 2459,
      "souviens": 2460,
      "building": 2461,
      "invited": 2462,
      "amp": 2463,
      "pous": 2464,
      "ines": 2465,
      "decou": 2466,
      "death": 2467,
      "monday": 2468,
      "move": 2469,
      "preten": 2470,
      "viol": 2471,
      "endor": 2472,
      "chante": 2473,
      "affai": 2474,
      "essaie": 2475,
      "vacances": 2476,
      "australie": 2477,
      "australia": 2478,
      "mou": 2479,
      "arbre": 2480,
      "bebe": 2481,
      "rice": 2482,
      "conven": 2483,
      "dispo": 2484,
      "join": 2485,
      "special": 2486,
      "donnez": 2487,
      "wearing": 2488,
      "naire": 2489,
      "asleep": 2490,
      "coin": 2491,
      "gram": 2492,
      "aimez": 2493,
      "vouloir": 2494,
      "correct": 2495,
      "annivers": 2496,
      "gy": 2497,
      "ared": 2498,
      "result": 2499,
      "idi": 2500,
      "vaise": 2501,
      "envir": 2502,
      "fight": 2503,
      "mauvaise": 2504,
      "embar": 2505,
      "scared": 2506,
      "lation": 2507,
      "tures": 2508,
      "ush": 2509,
      "sometimes": 2510,
      "president": 2511,
      "route": 2512,
      "consci": 2513,
      "cuisine": 2514,
      "magasin": 2515,
      "ecoute": 2516,
      "robe": 2517,
      "mage": 2518,
      "ulent": 2519,
      "tort": 2520,
      "montrer": 2521,
      "second": 2522,
      "affaires": 2523,
      "cit": 2524,
      "paper": 2525,
      "donc": 2526,
      "words": 2527,
      "sorte": 2528,
      "list": 2529,
      "milk": 2530,
      "animal": 2531,
      "hopital": 2532,
      "cen": 2533,
      "gard": 2534,
      "kill": 2535,
      "quatre": 2536,
      "vetement": 2537,
      "cannot": 2538,
      "cup": 2539,
      "whole": 2540,
      "between": 2541,
      "viendra": 2542,
      "spent": 2543,
      "half": 2544,
      "font": 2545,
      "rue": 2546,
      "tall": 2547,
      "um": 2548,
      "inno": 2549,
      "ater": 2550,
      "conf": 2551,
      "plein": 2552,
      "worried": 2553,
      "finir": 2554,
      "devant": 2555,
      "rouge": 2556,
      "neigh": 2557,
      "canadi": 2558,
      "suggest": 2559,
      "ceux": 2560,
      "post": 2561,
      "guerre": 2562,
      "chapeau": 2563,
      "droit": 2564,
      "began": 2565,
      "stupide": 2566,
      "language": 2567,
      "tas": 2568,
      "aig": 2569,
      "div": 2570,
      "trad": 2571,
      "goes": 2572,
      "wash": 2573,
      "known": 2574,
      "lived": 2575,
      "traver": 2576,
      "tain": 2577,
      "itie": 2578,
      "wel": 2579,
      "river": 2580,
      "concer": 2581,
      "loves": 2582,
      "mid": 2583,
      "racon": 2584,
      "problems": 2585,
      "heart": 2586,
      "poste": 2587,
      "japonais": 2588,
      "allowed": 2589,
      "pointed": 2590,
      "apologi": 2591,
      "dence": 2592,
      "became": 2593,
      "telling": 2594,
      "others": 2595,
      "earth": 2596,
      "netto": 2597,
      "reflech": 2598,
      "cadeau": 2599,
      "19": 2600,
      "fasse": 2601,
      "rare": 2602,
      "tte": 2603,
      "œil": 2604,
      "rote": 2605,
      "soin": 2606,
      "termin": 2607,
      "extre": 2608,
      "drunk": 2609,
      "pire": 2610,
      "emprun": 2611,
      "handle": 2612,
      "studying": 2613,
      "terrible": 2614,
      "anniversaire": 2615,
      "line": 2616,
      "pied": 2617,
      "remp": 2618,
      "dece": 2619,
      "coat": 2620,
      "absent": 2621,
      "cake": 2622,
      "possi": 2623,
      "liked": 2624,
      "pleas": 2625,
      "worked": 2626,
      "faisait": 2627,
      "necessary": 2628,
      "vetements": 2629,
      "camer": 2630,
      "pped": 2631,
      "ug": 2632,
      "chris": 2633,
      "boss": 2634,
      "thanks": 2635,
      "oper": 2636,
      "oise": 2637,
      "siez": 2638,
      "wrote": 2639,
      "ates": 2640,
      "veulent": 2641,
      "ject": 2642,
      "solu": 2643,
      "parc": 2644,
      "missed": 2645,
      "bras": 2646,
      "occas": 2647,
      "speaking": 2648,
      "weekend": 2649,
      "milli": 2650,
      "voudriez": 2651,
      "thirty": 2652,
      "soleil": 2653,
      "idiot": 2654,
      "fied": 2655,
      "envo": 2656,
      "libre": 2657,
      "viv": 2658,
      "carte": 2659,
      "souci": 2660,
      "interesse": 2661,
      "annees": 2662,
      "extreme": 2663,
      "cise": 2664,
      "killed": 2665,
      "sense": 2666,
      "sud": 2667,
      "closed": 2668,
      "amies": 2669,
      "detail": 2670,
      "report": 2671,
      "esca": 2672,
      "trait": 2673,
      "tice": 2674,
      "vieille": 2675,
      "rather": 2676,
      "excuses": 2677,
      "birthday": 2678,
      "rela": 2679,
      "lever": 2680,
      "parfois": 2681,
      "cir": 2682,
      "bot": 2683,
      "voulu": 2684,
      "mistakes": 2685,
      "finally": 2686,
      "ption": 2687,
      "nombreuses": 2688,
      "plaisir": 2689,
      "fine": 2690,
      "absolu": 2691,
      "irt": 2692,
      "stopped": 2693,
      "effr": 2694,
      "complain": 2695,
      "cles": 2696,
      "fie": 2697,
      "ieurs": 2698,
      "libr": 2699,
      "allu": 2700,
      "shot": 2701,
      "conseil": 2702,
      "illage": 2703,
      "pleurer": 2704,
      "desormais": 2705,
      "card": 2706,
      "ei": 2707,
      "fur": 2708,
      "esper": 2709,
      "assure": 2710,
      "cele": 2711,
      "dimanche": 2712,
      "weight": 2713,
      "exer": 2714,
      "strange": 2715,
      "symp": 2716,
      "talked": 2717,
      "casse": 2718,
      "gge": 2719,
      "reser": 2720,
      "forward": 2721,
      "lumiere": 2722,
      "gets": 2723,
      "helped": 2724,
      "happening": 2725,
      "meilleure": 2726,
      "black": 2727,
      "teen": 2728,
      "tue": 2729,
      "traite": 2730,
      "appare": 2731,
      "camp": 2732,
      "liste": 2733,
      "dogs": 2734,
      "examen": 2735,
      "actually": 2736,
      "dange": 2737,
      "gout": 2738,
      "gateau": 2739,
      "jard": 2740,
      "noel": 2741,
      "sold": 2742,
      "parlez": 2743,
      "abo": 2744,
      "cip": 2745,
      "promen": 2746,
      "ira": 2747,
      "europe": 2748,
      "intelligent": 2749,
      "econ": 2750,
      "fair": 2751,
      "gie": 2752,
      "sme": 2753,
      "tory": 2754,
      "sell": 2755,
      "commande": 2756,
      "lying": 2757,
      "agne": 2758,
      "mettez": 2759,
      "filles": 2760,
      "honest": 2761,
      "dangerous": 2762,
      "mad": 2763,
      "lequel": 2764,
      "along": 2765,
      "dons": 2766,
      "plans": 2767,
      "mesure": 2768,
      "shut": 2769,
      "pick": 2770,
      "broken": 2771,
      "enseig": 2772,
      "success": 2773,
      "expliquer": 2774,
      "noir": 2775,
      "antes": 2776,
      "resou": 2777,
      "appar": 2778,
      "mots": 2779,
      "bib": 2780,
      "mourir": 2781,
      "fonctionne": 2782,
      "whether": 2783,
      "camera": 2784,
      "hn": 2785,
      "mment": 2786,
      "rire": 2787,
      "cue": 2788,
      "upset": 2789,
      "ouvrir": 2790,
      "viendr": 2791,
      "evening": 2792,
      "rapport": 2793,
      "suffisamment": 2794,
      "flu": 2795,
      "gres": 2796,
      "beach": 2797,
      "john": 2798,
      "figured": 2799,
      "attraper": 2800,
      "poids": 2801,
      "flow": 2802,
      "seat": 2803,
      "derange": 2804,
      "stood": 2805,
      "stru": 2806,
      "speaks": 2807,
      "pluie": 2808,
      "succes": 2809,
      "swimming": 2810,
      "expected": 2811,
      "llent": 2812,
      "plage": 2813,
      "brought": 2814,
      "courir": 2815,
      "future": 2816,
      "embras": 2817,
      "faute": 2818,
      "jardin": 2819,
      "sc": 2820,
      "hommes": 2821,
      "manteau": 2822,
      "dormi": 2823,
      "voici": 2824,
      "convince": 2825,
      "occasion": 2826,
      "resoudre": 2827,
      "fle": 2828,
      "rav": 2829,
      "nove": 2830,
      "whate": 2831,
      "lies": 2832,
      "apporte": 2833,
      "moindre": 2834,
      "plusieurs": 2835,
      "seeing": 2836,
      "running": 2837,
      "demanda": 2838,
      "solution": 2839,
      "succe": 2840,
      "patron": 2841,
      "dictionary": 2842,
      "dictionnaire": 2843,
      "respect": 2844,
      "divor": 2845,
      "whatever": 2846,
      "10": 2847,
      "hy": 2848,
      "ness": 2849,
      "tmas": 2850,
      "vaut": 2851,
      "least": 2852,
      "note": 2853,
      "riv": 2854,
      "ride": 2855,
      "irai": 2856,
      "venus": 2857,
      "happens": 2858,
      "photos": 2859,
      "emmen": 2860,
      "completely": 2861,
      "souhait": 2862,
      "souhaite": 2863,
      "ecouter": 2864,
      "leaving": 2865,
      "christmas": 2866,
      "ice": 2867,
      "lf": 2868,
      "lt": 2869,
      "tasse": 2870,
      "atte": 2871,
      "connu": 2872,
      "abil": 2873,
      "grap": 2874,
      "finalement": 2875,
      "avaient": 2876,
      "octo": 2877,
      "attendu": 2878,
      "nature": 2879,
      "reti": 2880,
      "likely": 2881,
      "court": 2882,
      "furent": 2883,
      "explo": 2884,
      "writing": 2885,
      "american": 2886,
      "slow": 2887,
      "ork": 2888,
      "amour": 2889,
      "sible": 2890,
      "compris": 2891,
      "occuper": 2892,
      "disappointed": 2893,
      "cense": 2894,
      "ecr": 2895,
      "fleurs": 2896,
      "os": 2897,
      "devenu": 2898,
      "sever": 2899,
      "rendez": 2900,
      "chiens": 2901,
      "drinking": 2902,
      "biz": 2903,
      "walked": 2904,
      "gas": 2905,
      "lla": 2906,
      "york": 2907,
      "jeu": 2908,
      "donna": 2909,
      "tile": 2910,
      "seriez": 2911,
      "compor": 2912,
      "famous": 2913,
      "crime": 2914,
      "written": 2915,
      "reparer": 2916,
      "bres": 2917,
      "sions": 2918,
      "ski": 2919,
      "intro": 2920,
      "attra": 2921,
      "confe": 2922,
      "persu": 2923,
      "environ": 2924,
      "garden": 2925,
      "riviere": 2926,
      "ba": 2927,
      "tie": 2928,
      "dered": 2929,
      "tif": 2930,
      "voit": 2931,
      "match": 2932,
      "quitter": 2933,
      "conseille": 2934,
      "convenient": 2935,
      "cation": 2936,
      "iques": 2937,
      "reali": 2938,
      "noise": 2939,
      "cop": 2940,
      "adresse": 2941,
      "proche": 2942,
      "feriez": 2943,
      "habitue": 2944,
      "reveille": 2945,
      "bank": 2946,
      "liothe": 2947,
      "bibliothe": 2948,
      "attrape": 2949,
      "ore": 2950,
      "sle": 2951,
      "ues": 2952,
      "alles": 2953,
      "aviez": 2954,
      "parap": 2955,
      "vienne": 2956,
      "rules": 2957,
      "smell": 2958,
      "rejou": 2959,
      "avoc": 2960,
      "ply": 2961,
      "preter": 2962,
      "allee": 2963,
      "smoke": 2964,
      "guitar": 2965,
      "cam": 2966,
      "eche": 2967,
      "jack": 2968,
      "iles": 2969,
      "choose": 2970,
      "shirt": 2971,
      "obje": 2972,
      "either": 2973,
      "flowers": 2974,
      "ctive": 2975,
      "sand": 2976,
      "sance": 2977,
      "tante": 2978,
      "entr": 2979,
      "als": 2980,
      "quels": 2981,
      "choco": 2982,
      "somewhere": 2983,
      "spect": 2984,
      "sentir": 2985,
      "crying": 2986,
      "bati": 2987,
      "hus": 2988,
      "umbre": 2989,
      "ature": 2990,
      "songe": 2991,
      "hasn": 2992,
      "nervous": 2993,
      "selves": 2994,
      "elect": 2995,
      "learned": 2996,
      "glass": 2997,
      "glasses": 2998,
      "20": 2999,
      "im": 3000,
      "ring": 3001,
      "sad": 3002,
      "serez": 3003,
      "white": 3004,
      "tran": 3005,
      "paris": 3006,
      "amuse": 3007,
      "tique": 3008,
      "stairs": 3009,
      "cite": 3010,
      "france": 3011,
      "erreurs": 3012,
      "poisson": 3013,
      "library": 3014,
      "bateau": 3015,
      "smi": 3016,
      "heav": 3017,
      "romp": 3018,
      "cool": 3019,
      "vies": 3020,
      "visi": 3021,
      "dressed": 3022,
      "blame": 3023,
      "recog": 3024,
      "apologize": 3025,
      "appareil": 3026,
      "bibliotheque": 3027,
      "bill": 3028,
      "blu": 3029,
      "pur": 3030,
      "village": 3031,
      "ane": 3032,
      "const": 3033,
      "waste": 3034,
      "cated": 3035,
      "projet": 3036,
      "bru": 3037,
      "regles": 3038,
      "painting": 3039,
      "grosse": 3040,
      "amoureux": 3041,
      "husband": 3042,
      "maux": 3043,
      "plo": 3044,
      "scre": 3045,
      "œuf": 3046,
      "top": 3047,
      "chair": 3048,
      "avions": 3049,
      "address": 3050,
      "poor": 3051,
      "voyez": 3052,
      "danser": 3053,
      "gentil": 3054,
      "famil": 3055,
      "travers": 3056,
      "plupart": 3057,
      "pleuvoir": 3058,
      "dangereux": 3059,
      "several": 3060,
      "ero": 3061,
      "restez": 3062,
      "allait": 3063,
      "parl": 3064,
      "ford": 3065,
      "permission": 3066,
      "fera": 3067,
      "given": 3068,
      "amed": 3069,
      "auriez": 3070,
      "alive": 3071,
      "quitte": 3072,
      "college": 3073,
      "kiss": 3074,
      "floor": 3075,
      "bizarre": 3076,
      "introdu": 3077,
      "bais": 3078,
      "mail": 3079,
      "itch": 3080,
      "tuer": 3081,
      "sucre": 3082,
      "visage": 3083,
      "during": 3084,
      "sudden": 3085,
      "effray": 3086,
      "bons": 3087,
      "evi": 3088,
      "repas": 3089,
      "ash": 3090,
      "femmes": 3091,
      "luie": 3092,
      "pizz": 3093,
      "autour": 3094,
      "arretez": 3095,
      "habite": 3096,
      "girls": 3097,
      "attendais": 3098,
      "keys": 3099,
      "connaitre": 3100,
      "article": 3101,
      "possibil": 3102,
      "parapluie": 3103,
      "umbrella": 3104,
      "cend": 3105,
      "cts": 3106,
      "nation": 3107,
      "ouvr": 3108,
      "lac": 3109,
      "servi": 3110,
      "vendre": 3111,
      "regardez": 3112,
      "contact": 3113,
      "solve": 3114,
      "shopping": 3115,
      "rejouis": 3116,
      "bath": 3117,
      "gif": 3118,
      "jure": 3119,
      "ket": 3120,
      "nie": 3121,
      "proposition": 3122,
      "fermer": 3123,
      "newsp": 3124,
      "listening": 3125,
      "sunday": 3126,
      "baseball": 3127,
      "lunettes": 3128,
      "cache": 3129,
      "rate": 3130,
      "send": 3131,
      "ship": 3132,
      "memor": 3133,
      "entends": 3134,
      "avis": 3135,
      "couple": 3136,
      "loved": 3137,
      "profon": 3138,
      "guys": 3139,
      "normal": 3140,
      "lawyer": 3141,
      "recogni": 3142,
      "ms": 3143,
      "owe": 3144,
      "salle": 3145,
      "inquiet": 3146,
      "tiens": 3147,
      "pommes": 3148,
      "willing": 3149,
      "sors": 3150,
      "women": 3151,
      "champ": 3152,
      "sleeping": 3153,
      "doute": 3154,
      "fatiguee": 3155,
      "satisfait": 3156,
      "sommeil": 3157,
      "yes": 3158,
      "rep": 3159,
      "oncle": 3160,
      "vecu": 3161,
      "theor": 3162,
      "lave": 3163,
      "uncle": 3164,
      "lock": 3165,
      "ambit": 3166,
      "serieux": 3167,
      "stor": 3168,
      "showed": 3169,
      "risque": 3170,
      "smart": 3171,
      "effe": 3172,
      "moun": 3173,
      "depend": 3174,
      "roman": 3175,
      "coucher": 3176,
      "impro": 3177,
      "presenter": 3178,
      "warm": 3179,
      "horri": 3180,
      "suivre": 3181,
      "econo": 3182,
      "gau": 3183,
      "sang": 3184,
      "aug": 3185,
      "ief": 3186,
      "apart": 3187,
      "tient": 3188,
      "monta": 3189,
      "desk": 3190,
      "bother": 3191,
      "serieuse": 3192,
      "pron": 3193,
      "thinks": 3194,
      "dise": 3195,
      "aged": 3196,
      "asseoir": 3197,
      "ciel": 3198,
      "opened": 3199,
      "autorise": 3200,
      "borrow": 3201,
      "doub": 3202,
      "zo": 3203,
      "ined": 3204,
      "inconvenient": 3205,
      "qual": 3206,
      "nement": 3207,
      "parviens": 3208,
      "fortable": 3209,
      "ouvert": 3210,
      "voyager": 3211,
      "certains": 3212,
      "durant": 3213,
      "vacation": 3214,
      "dirait": 3215,
      "organ": 3216,
      "haut": 3217,
      "rhu": 3218,
      "utile": 3219,
      "neuf": 3220,
      "monte": 3221,
      "sert": 3222,
      "cute": 3223,
      "cks": 3224,
      "rappeler": 3225,
      "prepared": 3226,
      "avocat": 3227,
      "quie": 3228,
      "means": 3229,
      "peche": 3230,
      "cier": 3231,
      "admit": 3232,
      "due": 3233,
      "dure": 3234,
      "promes": 3235,
      "essayez": 3236,
      "seconde": 3237,
      "medicine": 3238,
      "accepter": 3239,
      "cieux": 3240,
      "ial": 3241,
      "sti": 3242,
      "wake": 3243,
      "oui": 3244,
      "esprit": 3245,
      "etage": 3246,
      "seras": 3247,
      "service": 3248,
      "speech": 3249,
      "faite": 3250,
      "lication": 3251,
      "envoye": 3252,
      "electri": 3253,
      "gal": 3254,
      "oue": 3255,
      "inten": 3256,
      "ged": 3257,
      "joindre": 3258,
      "tableau": 3259,
      "nai": 3260,
      "invol": 3261,
      "quis": 3262,
      "ents": 3263,
      "sugge": 3264,
      "mention": 3265,
      "apple": 3266,
      "ely": 3267,
      "rencon": 3268,
      "rends": 3269,
      "coupe": 3270,
      "impatient": 3271,
      "course": 3272,
      "asking": 3273,
      "fond": 3274,
      "horse": 3275,
      "banque": 3276,
      "allow": 3277,
      "page": 3278,
      "yed": 3279,
      "debut": 3280,
      "veget": 3281,
      "ilo": 3282,
      "abroad": 3283,
      "whose": 3284,
      "longue": 3285,
      "courant": 3286,
      "cats": 3287,
      "calme": 3288,
      "oppor": 3289,
      "satisfied": 3290,
      "color": 3291,
      "mariage": 3292,
      "cla": 3293,
      "arret": 3294,
      "ressemble": 3295,
      "lir": 3296,
      "avance": 3297,
      "triste": 3298,
      "mode": 3299,
      "moved": 3300,
      "cheval": 3301,
      "survi": 3302,
      "vic": 3303,
      "vious": 3304,
      "cherch": 3305,
      "bonnes": 3306,
      "joke": 3307,
      "garcons": 3308,
      "entreprise": 3309,
      "empecher": 3310,
      "sounds": 3311,
      "medica": 3312,
      "spoke": 3313,
      "discuss": 3314,
      "dan": 3315,
      "lend": 3316,
      "wai": 3317,
      "magaz": 3318,
      "refus": 3319,
      "etudiant": 3320,
      "conseils": 3321,
      "papier": 3322,
      "football": 3323,
      "espoir": 3324,
      "club": 3325,
      "storm": 3326,
      "era": 3327,
      "deten": 3328,
      "contente": 3329,
      "tage": 3330,
      "boyfriend": 3331,
      "clair": 3332,
      "promised": 3333,
      "innocent": 3334,
      "slept": 3335,
      "pizza": 3336,
      "mite": 3337,
      "rase": 3338,
      "sport": 3339,
      "uve": 3340,
      "quant": 3341,
      "argu": 3342,
      "chats": 3343,
      "stri": 3344,
      "chemise": 3345,
      "compet": 3346,
      "portes": 3347,
      "afford": 3348,
      "driving": 3349,
      "vingt": 3350,
      "utilise": 3351,
      "agreed": 3352,
      "stylo": 3353,
      "enseignant": 3354,
      "rhume": 3355,
      "waited": 3356,
      "bal": 3357,
      "ctement": 3358,
      "eut": 3359,
      "ifier": 3360,
      "native": 3361,
      "tar": 3362,
      "enir": 3363,
      "thre": 3364,
      "accu": 3365,
      "urgent": 3366,
      "cancer": 3367,
      "distance": 3368,
      "frappe": 3369,
      "wood": 3370,
      "supporter": 3371,
      "price": 3372,
      "moyen": 3373,
      "ignorais": 3374,
      "batiment": 3375,
      "none": 3376,
      "nage": 3377,
      "savons": 3378,
      "wall": 3379,
      "erai": 3380,
      "chou": 3381,
      "ries": 3382,
      "condition": 3383,
      "parfait": 3384,
      "accus": 3385,
      "acros": 3386,
      "phon": 3387,
      "pieds": 3388,
      "risk": 3389,
      "pictures": 3390,
      "voix": 3391,
      "immediately": 3392,
      "egalement": 3393,
      "signifie": 3394,
      "relax": 3395,
      "opportun": 3396,
      "across": 3397,
      "cous": 3398,
      "rup": 3399,
      "taille": 3400,
      "yons": 3401,
      "ari": 3402,
      "vered": 3403,
      "power": 3404,
      "cesse": 3405,
      "carry": 3406,
      "huit": 3407,
      "particu": 3408,
      "carefully": 3409,
      "posse": 3410,
      "interieur": 3411,
      "boys": 3412,
      "honte": 3413,
      "battre": 3414,
      "animaux": 3415,
      "amusant": 3416,
      "responsable": 3417,
      "emprunter": 3418,
      "egg": 3419,
      "gro": 3420,
      "ham": 3421,
      "erais": 3422,
      "lake": 3423,
      "belong": 3424,
      "menti": 3425,
      "forts": 3426,
      "maines": 3427,
      "eleve": 3428,
      "tranqu": 3429,
      "aded": 3430,
      "muse": 3431,
      "incre": 3432,
      "tempe": 3433,
      "etats": 3434,
      "unis": 3435,
      "web": 3436,
      "verrou": 3437,
      "conne": 3438,
      "movies": 3439,
      "program": 3440,
      "vote": 3441,
      "couleur": 3442,
      "ctions": 3443,
      "fume": 3444,
      "prime": 3445,
      "played": 3446,
      "shower": 3447,
      "certaines": 3448,
      "harder": 3449,
      "recei": 3450,
      "tempete": 3451,
      "inside": 3452,
      "mons": 3453,
      "promets": 3454,
      "fired": 3455,
      "compre": 3456,
      "douleur": 3457,
      "fault": 3458,
      "sentiment": 3459,
      "travel": 3460,
      "reflechir": 3461,
      "succeed": 3462,
      "involved": 3463,
      "edu": 3464,
      "vest": 3465,
      "sept": 3466,
      "ilt": 3467,
      "trac": 3468,
      "golf": 3469,
      "tir": 3470,
      "acle": 3471,
      "hiver": 3472,
      "lied": 3473,
      "crimin": 3474,
      "jeunes": 3475,
      "guitare": 3476,
      "continuer": 3477,
      "conscience": 3478,
      "bille": 3479,
      "da": 3480,
      "alous": 3481,
      "traf": 3482,
      "sale": 3483,
      "viande": 3484,
      "brou": 3485,
      "instru": 3486,
      "empty": 3487,
      "action": 3488,
      "syste": 3489,
      "retourner": 3490,
      "kyoto": 3491,
      "rencontres": 3492,
      "traffic": 3493,
      "gri": 3494,
      "scient": 3495,
      "thous": 3496,
      "dedans": 3497,
      "atta": 3498,
      "tune": 3499,
      "admi": 3500,
      "worse": 3501,
      "dents": 3502,
      "drole": 3503,
      "kissed": 3504,
      "details": 3505,
      "ahead": 3506,
      "ilement": 3507,
      "twi": 3508,
      "reli": 3509,
      "arch": 3510,
      "semaines": 3511,
      "passee": 3512,
      "chaise": 3513,
      "lions": 3514,
      "marier": 3515,
      "expres": 3516,
      "compter": 3517,
      "staying": 3518,
      "earlier": 3519,
      "amerique": 3520,
      "hundre": 3521,
      "novel": 3522,
      "pai": 3523,
      "aiment": 3524,
      "depen": 3525,
      "meat": 3526,
      "ila": 3527,
      "entend": 3528,
      "dos": 3529,
      "weir": 3530,
      "monter": 3531,
      "prati": 3532,
      "discours": 3533,
      "mbres": 3534,
      "idees": 3535,
      "empor": 3536,
      "facilement": 3537,
      "raining": 3538,
      "imagination": 3539,
      "enjoyed": 3540,
      "sembles": 3541,
      "discussion": 3542,
      "commun": 3543,
      "million": 3544,
      "blue": 3545,
      "twice": 3546,
      "liez": 3547,
      "mig": 3548,
      "ram": 3549,
      "reuse": 3550,
      "arr": 3551,
      "cee": 3552,
      "moitie": 3553,
      "propres": 3554,
      "anywhere": 3555,
      "souvenir": 3556,
      "sitting": 3557,
      "oublier": 3558,
      "winter": 3559,
      "easily": 3560,
      "000": 3561,
      "tradu": 3562,
      "zoo": 3563,
      "aero": 3564,
      "mie": 3565,
      "rac": 3566,
      "ended": 3567,
      "inquie": 3568,
      "held": 3569,
      "parait": 3570,
      "parles": 3571,
      "pleut": 3572,
      "grat": 3573,
      "ately": 3574,
      "vieil": 3575,
      "hardly": 3576,
      "walking": 3577,
      "soiree": 3578,
      "universite": 3579,
      "ghed": 3580,
      "sie": 3581,
      "rel": 3582,
      "lead": 3583,
      "debar": 3584,
      "demission": 3585,
      "enter": 3586,
      "passed": 3587,
      "pocket": 3588,
      "sentence": 3589,
      "foreign": 3590,
      "entretenir": 3591,
      "boute": 3592,
      "driver": 3593,
      "jud": 3594,
      "dente": 3595,
      "contrar": 3596,
      "blanc": 3597,
      "control": 3598,
      "america": 3599,
      "pauvre": 3600,
      "honnete": 3601,
      "welcome": 3602,
      "terminer": 3603,
      "aver": 3604,
      "cure": 3605,
      "kni": 3606,
      "ode": 3607,
      "recent": 3608,
      "throw": 3609,
      "heur": 3610,
      "chac": 3611,
      "docu": 3612,
      "lowed": 3613,
      "permis": 3614,
      "exter": 3615,
      "cule": 3616,
      "fique": 3617,
      "ferait": 3618,
      "semblez": 3619,
      "bord": 3620,
      "fishing": 3621,
      "excellent": 3622,
      "mble": 3623,
      "nav": 3624,
      "debout": 3625,
      "rested": 3626,
      "allais": 3627,
      "convers": 3628,
      "market": 3629,
      "tax": 3630,
      "temper": 3631,
      "weeks": 3632,
      "singing": 3633,
      "docteur": 3634,
      "semblait": 3635,
      "video": 3636,
      "population": 3637,
      "animals": 3638,
      "neighbor": 3639,
      "œufs": 3640,
      "gauche": 3641,
      "conversation": 3642,
      "eye": 3643,
      "hang": 3644,
      "sof": 3645,
      "spr": 3646,
      "ened": 3647,
      "incroy": 3648,
      "seven": 3649,
      "past": 3650,
      "ieme": 3651,
      "parole": 3652,
      "mom": 3653,
      "mate": 3654,
      "descen": 3655,
      "marry": 3656,
      "vivent": 3657,
      "arrives": 3658,
      "airport": 3659,
      "crow": 3660,
      "importance": 3661,
      "connaissez": 3662,
      "vouliez": 3663,
      "signe": 3664,
      "wonderful": 3665,
      "reconnaissant": 3666,
      "sandwi": 3667,
      "heavy": 3668,
      "horrible": 3669,
      "mignon": 3670,
      "bri": 3671,
      "bain": 3672,
      "vain": 3673,
      "rement": 3674,
      "remerci": 3675,
      "enfin": 3676,
      "deb": 3677,
      "liar": 3678,
      "apper": 3679,
      "partout": 3680,
      "boat": 3681,
      "quelles": 3682,
      "mente": 3683,
      "selon": 3684,
      "eleves": 3685,
      "sooner": 3686,
      "douche": 3687,
      "reussir": 3688,
      "groupe": 3689,
      "nettoyer": 3690,
      "celebre": 3691,
      "ffer": 3692,
      "pis": 3693,
      "aimait": 3694,
      "injure": 3695,
      "suici": 3696,
      "merite": 3697,
      "lled": 3698,
      "inee": 3699,
      "presente": 3700,
      "ideas": 3701,
      "lise": 3702,
      "gene": 3703,
      "mariee": 3704,
      "followed": 3705,
      "newspaper": 3706,
      "aeroport": 3707,
      "gence": 3708,
      "pir": 3709,
      "sache": 3710,
      "tau": 3711,
      "redu": 3712,
      "qua": 3713,
      "esti": 3714,
      "also": 3715,
      "sue": 3716,
      "diplo": 3717,
      "apparti": 3718,
      "fortun": 3719,
      "tien": 3720,
      "dule": 3721,
      "comfortable": 3722,
      "curi": 3723,
      "file": 3724,
      "grave": 3725,
      "grad": 3726,
      "gotten": 3727,
      "ics": 3728,
      "ical": 3729,
      "credit": 3730,
      "decider": 3731,
      "refused": 3732,
      "younger": 3733,
      "habituellement": 3734,
      "laughed": 3735,
      "rarement": 3736,
      "injured": 3737,
      "mille": 3738,
      "sse": 3739,
      "sky": 3740,
      "lable": 3741,
      "dies": 3742,
      "hood": 3743,
      "gerer": 3744,
      "prevu": 3745,
      "drank": 3746,
      "epous": 3747,
      "crav": 3748,
      "stuff": 3749,
      "phrase": 3750,
      "seuls": 3751,
      "painted": 3752,
      "apples": 3753,
      "tickets": 3754,
      "beginning": 3755,
      "embrasser": 3756,
      "copine": 3757,
      "mountain": 3758,
      "suggere": 3759,
      "dam": 3760,
      "fing": 3761,
      "fres": 3762,
      "lin": 3763,
      "sugar": 3764,
      "rige": 3765,
      "avenir": 3766,
      "feed": 3767,
      "commit": 3768,
      "serve": 3769,
      "herself": 3770,
      "trompe": 3771,
      "jolie": 3772,
      "attendez": 3773,
      "sity": 3774,
      "prive": 3775,
      "ailles": 3776,
      "impressed": 3777,
      "prefererais": 3778,
      "cooking": 3779,
      "leaves": 3780,
      "invitation": 3781,
      "itude": 3782,
      "gift": 3783,
      "weird": 3784,
      "ga": 3785,
      "inture": 3786,
      "entiere": 3787,
      "ours": 3788,
      "gover": 3789,
      "command": 3790,
      "surance": 3791,
      "crains": 3792,
      "failed": 3793,
      "commenca": 3794,
      "produire": 3795,
      "talent": 3796,
      "convaincu": 3797,
      "bottle": 3798,
      "gouver": 3799,
      "pan": 3800,
      "repe": 3801,
      "demen": 3802,
      "avoi": 3803,
      "timi": 3804,
      "acting": 3805,
      "sight": 3806,
      "duty": 3807,
      "mess": 3808,
      "fiche": 3809,
      "built": 3810,
      "ession": 3811,
      "dieu": 3812,
      "bird": 3813,
      "accepte": 3814,
      "ennuis": 3815,
      "endormi": 3816,
      "suddenly": 3817,
      "profonde": 3818,
      "chacun": 3819,
      "fan": 3820,
      "oux": 3821,
      "anci": 3822,
      "jealous": 3823,
      "enty": 3824,
      "alite": 3825,
      "verifier": 3826,
      "mentir": 3827,
      "socie": 3828,
      "holi": 3829,
      "plenty": 3830,
      "dispu": 3831,
      "ached": 3832,
      "aimeriez": 3833,
      "planning": 3834,
      "importante": 3835,
      "portait": 3836,
      "fail": 3837,
      "obvious": 3838,
      "oubliez": 3839,
      "blague": 3840,
      "tourne": 3841,
      "laughing": 3842,
      "allume": 3843,
      "convinced": 3844,
      "entraine": 3845,
      "tranquille": 3846,
      "cravate": 3847,
      "blan": 3848,
      "brid": 3849,
      "idio": 3850,
      "revenu": 3851,
      "isse": 3852,
      "demar": 3853,
      "nego": 3854,
      "locked": 3855,
      "pomme": 3856,
      "progres": 3857,
      "hid": 3858,
      "affe": 3859,
      "croit": 3860,
      "arrivee": 3861,
      "aurai": 3862,
      "grandfather": 3863,
      "obtenir": 3864,
      "sauve": 3865,
      "silen": 3866,
      "certainement": 3867,
      "sympa": 3868,
      "museum": 3869,
      "exterieur": 3870,
      "remercier": 3871,
      "nant": 3872,
      "vint": 3873,
      "meant": 3874,
      "orig": 3875,
      "pars": 3876,
      "acter": 3877,
      "cigare": 3878,
      "dispar": 3879,
      "compli": 3880,
      "share": 3881,
      "seemed": 3882,
      "merveille": 3883,
      "garage": 3884,
      "soud": 3885,
      "viennent": 3886,
      "offre": 3887,
      "couteau": 3888,
      "silence": 3889,
      "seriously": 3890,
      "employe": 3891,
      "parlons": 3892,
      "accused": 3893,
      "knife": 3894,
      "incroyable": 3895,
      "nons": 3896,
      "sw": 3897,
      "yen": 3898,
      "though": 3899,
      "decu": 3900,
      "secre": 3901,
      "ushed": 3902,
      "simil": 3903,
      "hadn": 3904,
      "pressed": 3905,
      "epouse": 3906,
      "soup": 3907,
      "plays": 3908,
      "pieces": 3909,
      "buying": 3910,
      "glace": 3911,
      "claire": 3912,
      "sauf": 3913,
      "retourne": 3914,
      "usual": 3915,
      "cuisiner": 3916,
      "blood": 3917,
      "recognize": 3918,
      "montagne": 3919,
      "taught": 3920,
      "cab": 3921,
      "fave": 3922,
      "han": 3923,
      "revenir": 3924,
      "onne": 3925,
      "dee": 3926,
      "neg": 3927,
      "constru": 3928,
      "pourrions": 3929,
      "trees": 3930,
      "voila": 3931,
      "exci": 3932,
      "illee": 3933,
      "llement": 3934,
      "pull": 3935,
      "touche": 3936,
      "travaill": 3937,
      "stolen": 3938,
      "cray": 3939,
      "ounded": 3940,
      "americ": 3941,
      "profession": 3942,
      "preparer": 3943,
      "popular": 3944,
      "agreable": 3945,
      "protect": 3946,
      "cruel": 3947,
      "washing": 3948,
      "enseigne": 3949,
      "eggs": 3950,
      "inquiete": 3951,
      "bouteille": 3952,
      "pack": 3953,
      "ror": 3954,
      "invest": 3955,
      "covered": 3956,
      "lots": 3957,
      "fortune": 3958,
      "penc": 3959,
      "desire": 3960,
      "prets": 3961,
      "explan": 3962,
      "disent": 3963,
      "compag": 3964,
      "lette": 3965,
      "frais": 3966,
      "priv": 3967,
      "chanceux": 3968,
      "repondu": 3969,
      "aware": 3970,
      "remarque": 3971,
      "doubt": 3972,
      "faveur": 3973,
      "ffre": 3974,
      "ray": 3975,
      "sche": 3976,
      "envoy": 3977,
      "celles": 3978,
      "beat": 3979,
      "rier": 3980,
      "abs": 3981,
      "rence": 3982,
      "cate": 3983,
      "studied": 3984,
      "amelio": 3985,
      "drop": 3986,
      "wedding": 3987,
      "lights": 3988,
      "feelings": 3989,
      "canape": 3990,
      "mienne": 3991,
      "societe": 3992,
      "kitch": 3993,
      "loud": 3994,
      "tons": 3995,
      "depart": 3996,
      "ased": 3997,
      "ordered": 3998,
      "autom": 3999,
      "history": 4000,
      "personal": 4001,
      "pique": 4002,
      "direction": 4003,
      "morte": 4004,
      "morce": 4005,
      "viendrai": 4006,
      "angle": 4007,
      "conseilla": 4008,
      "embrasse": 4009,
      "warned": 4010,
      "sourire": 4011,
      "cinema": 4012,
      "tombee": 4013,
      "abandonne": 4014,
      "abandonner": 4015,
      "choisir": 4016,
      "proteger": 4017,
      "embarrasse": 4018,
      "oiseau": 4019,
      "ashamed": 4020,
      "hundred": 4021,
      "bly": 4022,
      "bul": 4023,
      "bread": 4024,
      "sout": 4025,
      "return": 4026,
      "reellement": 4027,
      "envers": 4028,
      "apparen": 4029,
      "god": 4030,
      "active": 4031,
      "manquer": 4032,
      "fif": 4033,
      "ports": 4034,
      "view": 4035,
      "gique": 4036,
      "courses": 4037,
      "corps": 4038,
      "obtenu": 4039,
      "calm": 4040,
      "paint": 4041,
      "attentive": 4042,
      "signi": 4043,
      "neither": 4044,
      "efforts": 4045,
      "fallu": 4046,
      "months": 4047,
      "lentement": 4048,
      "deserve": 4049,
      "fruits": 4050,
      "realize": 4051,
      "effraye": 4052,
      "danse": 4053,
      "magazine": 4054,
      "possede": 4055,
      "kitchen": 4056,
      "fact": 4057,
      "gest": 4058,
      "taller": 4059,
      "anche": 4060,
      "laver": 4061,
      "suspect": 4062,
      "fear": 4063,
      "common": 4064,
      "quelconque": 4065,
      "chef": 4066,
      "cars": 4067,
      "heureuses": 4068,
      "soucie": 4069,
      "phy": 4070,
      "feels": 4071,
      "telephon": 4072,
      "cular": 4073,
      "conduit": 4074,
      "learning": 4075,
      "detest": 4076,
      "regrette": 4077,
      "appartement": 4078,
      "smile": 4079,
      "serieusement": 4080,
      "chouette": 4081,
      "contrarie": 4082,
      "govern": 4083,
      "13": 4084,
      "cais": 4085,
      "cture": 4086,
      "fet": 4087,
      "ior": 4088,
      "jok": 4089,
      "mped": 4090,
      "sli": 4091,
      "uer": 4092,
      "ences": 4093,
      "nel": 4094,
      "oig": 4095,
      "acked": 4096,
      "manager": 4097,
      "tenez": 4098,
      "ouvre": 4099,
      "implique": 4100,
      "giving": 4101,
      "cros": 4102,
      "button": 4103,
      "inste": 4104,
      "occupes": 4105,
      "voice": 4106,
      "suivi": 4107,
      "motion": 4108,
      "lonely": 4109,
      "bouton": 4110,
      "actuellement": 4111,
      "pause": 4112,
      "saved": 4113,
      "explosion": 4114,
      "education": 4115,
      "thousand": 4116,
      "temperature": 4117,
      "spring": 4118,
      "bridge": 4119,
      "cteur": 4120,
      "dus": 4121,
      "ize": 4122,
      "jal": 4123,
      "vus": 4124,
      "wind": 4125,
      "retire": 4126,
      "recherche": 4127,
      "istes": 4128,
      "arrested": 4129,
      "chur": 4130,
      "host": 4131,
      "forte": 4132,
      "acquis": 4133,
      "ster": 4134,
      "hide": 4135,
      "deranger": 4136,
      "prevois": 4137,
      "precise": 4138,
      "nerveux": 4139,
      "particular": 4140,
      "grands": 4141,
      "ouverte": 4142,
      "regle": 4143,
      "faster": 4144,
      "cents": 4145,
      "proposal": 4146,
      "responsible": 4147,
      "operation": 4148,
      "promenade": 4149,
      "promesse": 4150,
      "sandwich": 4151,
      "fresh": 4152,
      "afin": 4153,
      "event": 4154,
      "fla": 4155,
      "lant": 4156,
      "deep": 4157,
      "quin": 4158,
      "themat": 4159,
      "noti": 4160,
      "doig": 4161,
      "doors": 4162,
      "trai": 4163,
      "appu": 4164,
      "amaz": 4165,
      "accuse": 4166,
      "mathemat": 4167,
      "board": 4168,
      "prac": 4169,
      "fool": 4170,
      "wered": 4171,
      "toilet": 4172,
      "nerve": 4173,
      "stole": 4174,
      "human": 4175,
      "souff": 4176,
      "mater": 4177,
      "calling": 4178,
      "sleepy": 4179,
      "explique": 4180,
      "awake": 4181,
      "langues": 4182,
      "prudente": 4183,
      "expecting": 4184,
      "moyens": 4185,
      "considered": 4186,
      "embarras": 4187,
      "neighb": 4188,
      "extremement": 4189,
      "apartment": 4190,
      "stick": 4191,
      "cand": 4192,
      "flat": 4193,
      "ks": 4194,
      "lour": 4195,
      "pont": 4196,
      "pair": 4197,
      "aim": 4198,
      "ists": 4199,
      "deg": 4200,
      "memes": 4201,
      "iter": 4202,
      "adul": 4203,
      "feuille": 4204,
      "seront": 4205,
      "pier": 4206,
      "humeur": 4207,
      "musee": 4208,
      "understood": 4209,
      "venues": 4210,
      "maladie": 4211,
      "patience": 4212,
      "echoue": 4213,
      "dirai": 4214,
      "excuser": 4215,
      "regarda": 4216,
      "sweet": 4217,
      "received": 4218,
      "gouvernement": 4219,
      "church": 4220,
      "14": 4221,
      "dad": 4222,
      "fiere": 4223,
      "sci": 4224,
      "vres": 4225,
      "vation": 4226,
      "thom": 4227,
      "devrai": 4228,
      "assu": 4229,
      "meal": 4230,
      "entree": 4231,
      "lap": 4232,
      "laz": 4233,
      "verrai": 4234,
      "soyons": 4235,
      "parfai": 4236,
      "volun": 4237,
      "worst": 4238,
      "missing": 4239,
      "custom": 4240,
      "fallait": 4241,
      "abandon": 4242,
      "generalement": 4243,
      "convaincre": 4244,
      "organi": 4245,
      "canadian": 4246,
      "extremely": 4247,
      "escape": 4248,
      "assurer": 4249,
      "voitures": 4250,
      "debarras": 4251,
      "explanation": 4252,
      "government": 4253,
      "thomas": 4254,
      "parfaitement": 4255,
      "mam": 4256,
      "vase": 4257,
      "espe": 4258,
      "thor": 4259,
      "infor": 4260,
      "tears": 4261,
      "sejour": 4262,
      "etat": 4263,
      "ings": 4264,
      "soc": 4265,
      "forced": 4266,
      "marr": 4267,
      "iente": 4268,
      "permettre": 4269,
      "expl": 4270,
      "excit": 4271,
      "helping": 4272,
      "brise": 4273,
      "appeller": 4274,
      "breath": 4275,
      "auras": 4276,
      "voyons": 4277,
      "boring": 4278,
      "dort": 4279,
      "arrivera": 4280,
      "teeth": 4281,
      "balle": 4282,
      "dle": 4283,
      "ecou": 4284,
      "map": 4285,
      "rang": 4286,
      "wise": 4287,
      "annu": 4288,
      "insul": 4289,
      "sea": 4290,
      "roses": 4291,
      "pensait": 4292,
      "watched": 4293,
      "seules": 4294,
      "green": 4295,
      "institu": 4296,
      "london": 4297,
      "londres": 4298,
      "mouth": 4299,
      "divorce": 4300,
      "slowly": 4301,
      "confection": 4302,
      "jackson": 4303,
      "instituteur": 4304,
      "ctif": 4305,
      "vait": 4306,
      "ya": 4307,
      "requi": 4308,
      "toes": 4309,
      "legu": 4310,
      "ilty": 4311,
      "cell": 4312,
      "aura": 4313,
      "rob": 4314,
      "bell": 4315,
      "restes": 4316,
      "tight": 4317,
      "tirer": 4318,
      "ador": 4319,
      "serons": 4320,
      "illegal": 4321,
      "mbers": 4322,
      "prendra": 4323,
      "guilty": 4324,
      "nulle": 4325,
      "faisais": 4326,
      "freres": 4327,
      "droite": 4328,
      "savent": 4329,
      "decouvert": 4330,
      "octobre": 4331,
      "october": 4332,
      "ecris": 4333,
      "chocolat": 4334,
      "pratique": 4335,
      "appartient": 4336,
      "bour": 4337,
      "eff": 4338,
      "ker": 4339,
      "nap": 4340,
      "ome": 4341,
      "oce": 4342,
      "sain": 4343,
      "aight": 4344,
      "jeter": 4345,
      "verit": 4346,
      "tron": 4347,
      "uts": 4348,
      "proce": 4349,
      "project": 4350,
      "voler": 4351,
      "pretes": 4352,
      "faits": 4353,
      "pleine": 4354,
      "ards": 4355,
      "tromp": 4356,
      "support": 4357,
      "straight": 4358,
      "ptions": 4359,
      "adop": 4360,
      "capit": 4361,
      "tries": 4362,
      "soldi": 4363,
      "juge": 4364,
      "preferee": 4365,
      "valise": 4366,
      "velop": 4367,
      "languages": 4368,
      "plaisant": 4369,
      "politique": 4370,
      "pleased": 4371,
      "ravi": 4372,
      "famili": 4373,
      "naive": 4374,
      "rupt": 4375,
      "instead": 4376,
      "neighbors": 4377,
      "soccer": 4378,
      "bis": 4379,
      "epo": 4380,
      "faux": 4381,
      "ensuite": 4382,
      "issez": 4383,
      "arbres": 4384,
      "ord": 4385,
      "notice": 4386,
      "role": 4387,
      "cot": 4388,
      "peace": 4389,
      "ridi": 4390,
      "appoint": 4391,
      "conge": 4392,
      "moon": 4393,
      "feet": 4394,
      "perte": 4395,
      "cried": 4396,
      "bum": 4397,
      "cieuse": 4398,
      "truc": 4399,
      "trucs": 4400,
      "grew": 4401,
      "brothers": 4402,
      "heureusement": 4403,
      "eglise": 4404,
      "enemy": 4405,
      "controle": 4406,
      "printemps": 4407,
      "silencieux": 4408,
      "epoque": 4409,
      "50": 4410,
      "epuis": 4411,
      "kno": 4412,
      "yel": 4413,
      "dejeune": 4414,
      "veu": 4415,
      "etres": 4416,
      "auto": 4417,
      "doi": 4418,
      "stone": 4419,
      "ters": 4420,
      "surs": 4421,
      "moire": 4422,
      "prendrai": 4423,
      "mensonge": 4424,
      "gues": 4425,
      "soupe": 4426,
      "woke": 4427,
      "nouveaux": 4428,
      "fasses": 4429,
      "singer": 4430,
      "photograp": 4431,
      "bike": 4432,
      "donnerai": 4433,
      "explication": 4434,
      "clus": 4435,
      "draw": 4436,
      "visiter": 4437,
      "dirty": 4438,
      "absolument": 4439,
      "visited": 4440,
      "augment": 4441,
      "epouser": 4442,
      "private": 4443,
      "bare": 4444,
      "fly": 4445,
      "lance": 4446,
      "rit": 4447,
      "remettre": 4448,
      "onge": 4449,
      "enfu": 4450,
      "unique": 4451,
      "costu": 4452,
      "concent": 4453,
      "treat": 4454,
      "maj": 4455,
      "bored": 4456,
      "sortez": 4457,
      "standing": 4458,
      "prices": 4459,
      "connaissance": 4460,
      "drinks": 4461,
      "bouche": 4462,
      "blessee": 4463,
      "rains": 4464,
      "conscient": 4465,
      "step": 4466,
      "cookies": 4467,
      "correctement": 4468,
      "echecs": 4469,
      "memory": 4470,
      "medicament": 4471,
      "paix": 4472,
      "gradu": 4473,
      "cali": 4474,
      "eight": 4475,
      "gor": 4476,
      "gam": 4477,
      "iment": 4478,
      "ige": 4479,
      "ois": 4480,
      "till": 4481,
      "oule": 4482,
      "reach": 4483,
      "retraite": 4484,
      "ann": 4485,
      "debrou": 4486,
      "assister": 4487,
      "arde": 4488,
      "hey": 4489,
      "pee": 4490,
      "bear": 4491,
      "ligne": 4492,
      "consul": 4493,
      "cious": 4494,
      "math": 4495,
      "notes": 4496,
      "compo": 4497,
      "uler": 4498,
      "impat": 4499,
      "friendly": 4500,
      "commet": 4501,
      "tors": 4502,
      "stranger": 4503,
      "caused": 4504,
      "cloche": 4505,
      "conduis": 4506,
      "bigger": 4507,
      "listened": 4508,
      "sortie": 4509,
      "blind": 4510,
      "choisi": 4511,
      "suitcase": 4512,
      "absolutely": 4513,
      "abilite": 4514,
      "cis": 4515,
      "centre": 4516,
      "oute": 4517,
      "recor": 4518,
      "depressed": 4519,
      "meth": 4520,
      "selle": 4521,
      "search": 4522,
      "orange": 4523,
      "alla": 4524,
      "aurez": 4525,
      "mood": 4526,
      "excu": 4527,
      "exemp": 4528,
      "couper": 4529,
      "shar": 4530,
      "gers": 4531,
      "eteindre": 4532,
      "interessante": 4533,
      "essaya": 4534,
      "keeps": 4535,
      "rule": 4536,
      "rude": 4537,
      "voisins": 4538,
      "consac": 4539,
      "jump": 4540,
      "hates": 4541,
      "following": 4542,
      "hesit": 4543,
      "admire": 4544,
      "crayon": 4545,
      "compagnie": 4546,
      "schedule": 4547,
      "legumes": 4548,
      "familiar": 4549,
      "costume": 4550,
      "ape": 4551,
      "bby": 4552,
      "ible": 4553,
      "psy": 4554,
      "push": 4555,
      "tat": 4556,
      "ney": 4557,
      "lay": 4558,
      "ales": 4559,
      "peint": 4560,
      "forgive": 4561,
      "candid": 4562,
      "hiding": 4563,
      "lycee": 4564,
      "prouve": 4565,
      "gran": 4566,
      "coupable": 4567,
      "brave": 4568,
      "appear": 4569,
      "eats": 4570,
      "parties": 4571,
      "corde": 4572,
      "devait": 4573,
      "starting": 4574,
      "larmes": 4575,
      "effort": 4576,
      "birds": 4577,
      "spoken": 4578,
      "dommage": 4579,
      "princip": 4580,
      "coinci": 4581,
      "effectu": 4582,
      "opportunity": 4583,
      "cousin": 4584,
      "excited": 4585,
      "morceau": 4586,
      "acquisition": 4587,
      "eto": 4588,
      "ji": 4589,
      "nine": 4590,
      "pale": 4591,
      "panne": 4592,
      "tin": 4593,
      "œurs": 4594,
      "ister": 4595,
      "def": 4596,
      "entire": 4597,
      "alent": 4598,
      "nose": 4599,
      "rom": 4600,
      "iel": 4601,
      "dirige": 4602,
      "gold": 4603,
      "pot": 4604,
      "fed": 4605,
      "compare": 4606,
      "prenons": 4607,
      "talks": 4608,
      "couru": 4609,
      "nouvel": 4610,
      "indus": 4611,
      "grandes": 4612,
      "frequ": 4613,
      "comprend": 4614,
      "salt": 4615,
      "windows": 4616,
      "invites": 4617,
      "chinese": 4618,
      "decouv": 4619,
      "raconter": 4620,
      "comprenez": 4621,
      "timide": 4622,
      "pencil": 4623,
      "physi": 4624,
      "science": 4625,
      "ia": 4626,
      "iz": 4627,
      "van": 4628,
      "toy": 4629,
      "anno": 4630,
      "incend": 4631,
      "deprime": 4632,
      "tech": 4633,
      "ities": 4634,
      "rose": 4635,
      "riz": 4636,
      "ury": 4637,
      "cance": 4638,
      "shy": 4639,
      "lettres": 4640,
      "changes": 4641,
      "jambe": 4642,
      "ners": 4643,
      "stuck": 4644,
      "partici": 4645,
      "believed": 4646,
      "decla": 4647,
      "understanding": 4648,
      "ennemi": 4649,
      "nearly": 4650,
      "energie": 4651,
      "general": 4652,
      "healthy": 4653,
      "university": 4654,
      "traverser": 4655,
      "raconte": 4656,
      "earthqu": 4657,
      "complaining": 4658,
      "enseigner": 4659,
      "brule": 4660,
      "particulier": 4661,
      "suicide": 4662,
      "entierement": 4663,
      "precisement": 4664,
      "explained": 4665,
      "appointment": 4666,
      "incendie": 4667,
      "100": 4668,
      "eh": 4669,
      "ow": 4670,
      "rem": 4671,
      "annon": 4672,
      "inven": 4673,
      "isation": 4674,
      "lated": 4675,
      "chess": 4676,
      "roir": 4677,
      "apporter": 4678,
      "partage": 4679,
      "among": 4680,
      "acted": 4681,
      "moque": 4682,
      "dess": 4683,
      "manu": 4684,
      "prendr": 4685,
      "mene": 4686,
      "epau": 4687,
      "croyez": 4688,
      "morts": 4689,
      "totally": 4690,
      "anges": 4691,
      "demandez": 4692,
      "gente": 4693,
      "single": 4694,
      "engage": 4695,
      "milie": 4696,
      "double": 4697,
      "banan": 4698,
      "soient": 4699,
      "assistance": 4700,
      "energy": 4701,
      "considere": 4702,
      "subject": 4703,
      "oiseaux": 4704,
      "further": 4705,
      "scene": 4706,
      "persuade": 4707,
      "billet": 4708,
      "recently": 4709,
      "devraient": 4710,
      "lazy": 4711,
      "doivent": 4712,
      "ka": 4713,
      "raise": 4714,
      "tit": 4715,
      "tache": 4716,
      "twent": 4717,
      "refaire": 4718,
      "returned": 4719,
      "enor": 4720,
      "quar": 4721,
      "dirais": 4722,
      "urgence": 4723,
      "addition": 4724,
      "proje": 4725,
      "march": 4726,
      "chansons": 4727,
      "places": 4728,
      "fright": 4729,
      "gentle": 4730,
      "passez": 4731,
      "player": 4732,
      "shocked": 4733,
      "bedroom": 4734,
      "chaude": 4735,
      "certainly": 4736,
      "picked": 4737,
      "imaginer": 4738,
      "united": 4739,
      "plaindre": 4740,
      "natur": 4741,
      "foule": 4742,
      "songs": 4743,
      "growing": 4744,
      "wallet": 4745,
      "fighting": 4746,
      "taste": 4747,
      "evidence": 4748,
      "vegetables": 4749,
      "curious": 4750,
      "noticed": 4751,
      "ben": 4752,
      "bask": 4753,
      "foi": 4754,
      "flight": 4755,
      "gnes": 4756,
      "iers": 4757,
      "pant": 4758,
      "paire": 4759,
      "remon": 4760,
      "reves": 4761,
      "depe": 4762,
      "memoire": 4763,
      "heat": 4764,
      "audi": 4765,
      "behav": 4766,
      "sombre": 4767,
      "conclus": 4768,
      "amene": 4769,
      "abord": 4770,
      "ghted": 4771,
      "poe": 4772,
      "poem": 4773,
      "perhap": 4774,
      "tenait": 4775,
      "prepar": 4776,
      "preuve": 4777,
      "exhau": 4778,
      "sala": 4779,
      "venait": 4780,
      "vire": 4781,
      "vraie": 4782,
      "guer": 4783,
      "partis": 4784,
      "crain": 4785,
      "matinee": 4786,
      "accidents": 4787,
      "license": 4788,
      "satur": 4789,
      "valent": 4790,
      "salaire": 4791,
      "bagages": 4792,
      "entered": 4793,
      "trouvait": 4794,
      "traverse": 4795,
      "exerci": 4796,
      "gasp": 4797,
      "chocolate": 4798,
      "threat": 4799,
      "fortunately": 4800,
      "origin": 4801,
      "disparu": 4802,
      "major": 4803,
      "basket": 4804,
      "perhaps": 4805,
      "emer": 4806,
      "evit": 4807,
      "kin": 4808,
      "mous": 4809,
      "lage": 4810,
      "lady": 4811,
      "limit": 4812,
      "riches": 4813,
      "soci": 4814,
      "accro": 4815,
      "stamp": 4816,
      "descri": 4817,
      "commis": 4818,
      "maries": 4819,
      "extra": 4820,
      "couver": 4821,
      "complique": 4822,
      "mistaken": 4823,
      "nic": 4824,
      "cartes": 4825,
      "gars": 4826,
      "guest": 4827,
      "brush": 4828,
      "matins": 4829,
      "portable": 4830,
      "mangez": 4831,
      "internet": 4832,
      "countries": 4833,
      "sauver": 4834,
      "meaning": 4835,
      "films": 4836,
      "sentiments": 4837,
      "translate": 4838,
      "skin": 4839,
      "amuser": 4840,
      "obey": 4841,
      "pretend": 4842,
      "confused": 4843,
      "circul": 4844,
      "attentivement": 4845,
      "fill": 4846,
      "flic": 4847,
      "gate": 4848,
      "sœurs": 4849,
      "tw": 4850,
      "vil": 4851,
      "repet": 4852,
      "reached": 4853,
      "istre": 4854,
      "issue": 4855,
      "depense": 4856,
      "detru": 4857,
      "astic": 4858,
      "mel": 4859,
      "ata": 4860,
      "alter": 4861,
      "album": 4862,
      "verse": 4863,
      "states": 4864,
      "aines": 4865,
      "answered": 4866,
      "proper": 4867,
      "combat": 4868,
      "agis": 4869,
      "grab": 4870,
      "german": 4871,
      "cream": 4872,
      "chaleur": 4873,
      "contri": 4874,
      "dropped": 4875,
      "interromp": 4876,
      "capac": 4877,
      "voisin": 4878,
      "japonaise": 4879,
      "batter": 4880,
      "volont": 4881,
      "steal": 4882,
      "mauvaises": 4883,
      "collection": 4884,
      "papa": 4885,
      "dreams": 4886,
      "accompag": 4887,
      "china": 4888,
      "sentez": 4889,
      "conference": 4890,
      "purpose": 4891,
      "instructions": 4892,
      "scienti": 4893,
      "avoid": 4894,
      "holiday": 4895,
      "coincidence": 4896,
      "eveille": 4897,
      "fant": 4898,
      "ging": 4899,
      "kilo": 4900,
      "mbe": 4901,
      "sn": 4902,
      "scar": 4903,
      "lecture": 4904,
      "depour": 4905,
      "ceremon": 4906,
      "passion": 4907,
      "coll": 4908,
      "constr": 4909,
      "confir": 4910,
      "parie": 4911,
      "sibil": 4912,
      "sonne": 4913,
      "plement": 4914,
      "vivant": 4915,
      "chances": 4916,
      "presse": 4917,
      "seldom": 4918,
      "appeared": 4919,
      "vaisselle": 4920,
      "clever": 4921,
      "supplement": 4922,
      "portez": 4923,
      "interessee": 4924,
      "culture": 4925,
      "polite": 4926,
      "vitesse": 4927,
      "engine": 4928,
      "complete": 4929,
      "letters": 4930,
      "confident": 4931,
      "cuisin": 4932,
      "climb": 4933,
      "resultat": 4934,
      "resultats": 4935,
      "concerned": 4936,
      "escaped": 4937,
      "exercise": 4938,
      "realized": 4939,
      "theory": 4940,
      "ocean": 4941,
      "veritable": 4942,
      "clette": 4943,
      "reje": 4944,
      "rely": 4945,
      "inet": 4946,
      "island": 4947,
      "devais": 4948,
      "alco": 4949,
      "belles": 4950,
      "aveug": 4951,
      "parlent": 4952,
      "ties": 4953,
      "acte": 4954,
      "cacher": 4955,
      "saou": 4956,
      "drug": 4957,
      "nique": 4958,
      "toile": 4959,
      "huge": 4960,
      "appel": 4961,
      "appelez": 4962,
      "occur": 4963,
      "portefeuille": 4964,
      "passeport": 4965,
      "magni": 4966,
      "barbe": 4967,
      "semblent": 4968,
      "bicyclette": 4969,
      "passport": 4970,
      "silent": 4971,
      "informations": 4972,
      "impressionne": 4973,
      "amoureuse": 4974,
      "punished": 4975,
      "middle": 4976,
      "cards": 4977,
      "camion": 4978,
      "2013": 4979,
      "handed": 4980,
      "plaisanter": 4981,
      "biscu": 4982,
      "construit": 4983,
      "afri": 4984,
      "fs": 4985,
      "fis": 4986,
      "gain": 4987,
      "laire": 4988,
      "options": 4989,
      "sports": 4990,
      "œu": 4991,
      "relie": 4992,
      "ond": 4993,
      "quet": 4994,
      "rock": 4995,
      "unhappy": 4996,
      "suffer": 4997,
      "peinture": 4998,
      "verifie": 4999,
      "advant": 5000,
      "tremble": 5001,
      "tough": 5002,
      "prises": 5003,
      "direct": 5004,
      "cross": 5005,
      "tooth": 5006,
      "calls": 5007,
      "truck": 5008,
      "opti": 5009,
      "meilleurs": 5010,
      "differente": 5011,
      "ordinaire": 5012,
      "forgotten": 5013,
      "spot": 5014,
      "attractive": 5015,
      "results": 5016,
      "delighted": 5017,
      "traveling": 5018,
      "murder": 5019,
      "pretended": 5020,
      "tastes": 5021,
      "esperons": 5022,
      "fluent": 5023,
      "comporte": 5024,
      "theorie": 5025,
      "siege": 5026,
      "document": 5027,
      "piscine": 5028,
      "debarrasser": 5029,
      "appellerai": 5030,
      "twenty": 5031,
      "names": 5032,
      "oh": 5033,
      "rise": 5034,
      "encourage": 5035,
      "tho": 5036,
      "defin": 5037,
      "ettes": 5038,
      "unless": 5039,
      "beur": 5040,
      "weak": 5041,
      "account": 5042,
      "abri": 5043,
      "rendit": 5044,
      "pensent": 5045,
      "pool": 5046,
      "volu": 5047,
      "voleur": 5048,
      "manage": 5049,
      "dishes": 5050,
      "dry": 5051,
      "miser": 5052,
      "hasard": 5053,
      "gentille": 5054,
      "valeur": 5055,
      "vues": 5056,
      "grandmother": 5057,
      "connaissait": 5058,
      "hearing": 5059,
      "occupees": 5060,
      "querir": 5061,
      "effi": 5062,
      "expert": 5063,
      "prisonni": 5064,
      "chick": 5065,
      "clearly": 5066,
      "sweater": 5067,
      "kidding": 5068,
      "smarter": 5069,
      "argument": 5070,
      "incredi": 5071,
      "diplome": 5072,
      "signific": 5073,
      "marrant": 5074,
      "excusez": 5075,
      "exercice": 5076,
      "bye": 5077,
      "games": 5078,
      "nais": 5079,
      "olu": 5080,
      "osa": 5081,
      "wers": 5082,
      "refri": 5083,
      "reviens": 5084,
      "ented": 5085,
      "tota": 5086,
      "assi": 5087,
      "quo": 5088,
      "metres": 5089,
      "whis": 5090,
      "alliez": 5091,
      "tienne": 5092,
      "acti": 5093,
      "monn": 5094,
      "posa": 5095,
      "shak": 5096,
      "ateurs": 5097,
      "happ": 5098,
      "toucher": 5099,
      "cherches": 5100,
      "goodbye": 5101,
      "presence": 5102,
      "whenever": 5103,
      "lished": 5104,
      "musici": 5105,
      "ancing": 5106,
      "speaker": 5107,
      "veste": 5108,
      "fassiez": 5109,
      "eleph": 5110,
      "montrez": 5111,
      "adoles": 5112,
      "clou": 5113,
      "difficultes": 5114,
      "matters": 5115,
      "miracle": 5116,
      "wards": 5117,
      "disposez": 5118,
      "responsibil": 5119,
      "arrange": 5120,
      "judge": 5121,
      "envoyer": 5122,
      "embarrassed": 5123,
      "maman": 5124,
      "grandi": 5125,
      "exhaus": 5126,
      "bright": 5127,
      "dancing": 5128,
      "gree": 5129,
      "maire": 5130,
      "pil": 5131,
      "rever": 5132,
      "reconnu": 5133,
      "esome": 5134,
      "tex": 5135,
      "text": 5136,
      "lache": 5137,
      "ets": 5138,
      "tues": 5139,
      "diet": 5140,
      "weap": 5141,
      "ayons": 5142,
      "andis": 5143,
      "penetre": 5144,
      "cheap": 5145,
      "bleu": 5146,
      "upstairs": 5147,
      "usement": 5148,
      "menteur": 5149,
      "stock": 5150,
      "speci": 5151,
      "apped": 5152,
      "plante": 5153,
      "forever": 5154,
      "connaisse": 5155,
      "habille": 5156,
      "election": 5157,
      "sauter": 5158,
      "tourner": 5159,
      "realite": 5160,
      "differentes": 5161,
      "harm": 5162,
      "skier": 5163,
      "violence": 5164,
      "campagne": 5165,
      "skiing": 5166,
      "intend": 5167,
      "pockets": 5168,
      "idiote": 5169,
      "secrets": 5170,
      "veuilles": 5171,
      "circulation": 5172,
      "refriger": 5173,
      "cter": 5174,
      "eus": 5175,
      "image": 5176,
      "ns": 5177,
      "nt": 5178,
      "recommande": 5179,
      "jeux": 5180,
      "itive": 5181,
      "author": 5182,
      "nomme": 5183,
      "roi": 5184,
      "dict": 5185,
      "resolu": 5186,
      "ambul": 5187,
      "forces": 5188,
      "washed": 5189,
      "pends": 5190,
      "mars": 5191,
      "oned": 5192,
      "managed": 5193,
      "tenue": 5194,
      "precip": 5195,
      "exige": 5196,
      "agir": 5197,
      "choque": 5198,
      "saches": 5199,
      "hero": 5200,
      "pierre": 5201,
      "allemand": 5202,
      "betray": 5203,
      "prize": 5204,
      "interest": 5205,
      "failli": 5206,
      "samedi": 5207,
      "fermee": 5208,
      "headache": 5209,
      "echapper": 5210,
      "derniers": 5211,
      "boisson": 5212,
      "attitude": 5213,
      "pousser": 5214,
      "suggestion": 5215,
      "above": 5216,
      "objectif": 5217,
      "scream": 5218,
      "organise": 5219,
      "finger": 5220,
      "absence": 5221,
      "organized": 5222,
      "optimis": 5223,
      "osaka": 5224,
      "exhausted": 5225,
      "wet": 5226,
      "thief": 5227,
      "anx": 5228,
      "incapable": 5229,
      "demi": 5230,
      "meu": 5231,
      "arriere": 5232,
      "aurions": 5233,
      "cow": 5234,
      "copy": 5235,
      "losing": 5236,
      "dessert": 5237,
      "marre": 5238,
      "prouver": 5239,
      "distur": 5240,
      "ditions": 5241,
      "everywhere": 5242,
      "gic": 5243,
      "gies": 5244,
      "sentis": 5245,
      "devint": 5246,
      "chauffe": 5247,
      "policeman": 5248,
      "filled": 5249,
      "sisters": 5250,
      "instit": 5251,
      "writer": 5252,
      "awesome": 5253,
      "sortit": 5254,
      "third": 5255,
      "accepted": 5256,
      "discute": 5257,
      "trouves": 5258,
      "indiquer": 5259,
      "paresse": 5260,
      "legs": 5261,
      "saviez": 5262,
      "disposons": 5263,
      "soldats": 5264,
      "amazing": 5265,
      "soldiers": 5266,
      "milieu": 5267,
      "natural": 5268,
      "behavior": 5269,
      "monnaie": 5270,
      "16": 5271,
      "mai": 5272,
      "nuts": 5273,
      "pne": 5274,
      "squ": 5275,
      "scol": 5276,
      "tandis": 5277,
      "ying": 5278,
      "zen": 5279,
      "reur": 5280,
      "regi": 5281,
      "ones": 5282,
      "armes": 5283,
      "vement": 5284,
      "peindre": 5285,
      "bete": 5286,
      "tiend": 5287,
      "ada": 5288,
      "add": 5289,
      "adv": 5290,
      "prove": 5291,
      "pleur": 5292,
      "veniez": 5293,
      "folle": 5294,
      "discut": 5295,
      "ground": 5296,
      "igne": 5297,
      "bonheur": 5298,
      "carried": 5299,
      "guide": 5300,
      "allees": 5301,
      "connue": 5302,
      "paying": 5303,
      "oldest": 5304,
      "aiderai": 5305,
      "achie": 5306,
      "aurons": 5307,
      "geni": 5308,
      "atives": 5309,
      "cash": 5310,
      "teachers": 5311,
      "restee": 5312,
      "sales": 5313,
      "trusted": 5314,
      "spending": 5315,
      "terminee": 5316,
      "poison": 5317,
      "jacket": 5318,
      "introduce": 5319,
      "possibility": 5320,
      "pronon": 5321,
      "relations": 5322,
      "disputer": 5323,
      "similar": 5324,
      "clairement": 5325,
      "souffle": 5326,
      "gorge": 5327,
      "gentleman": 5328,
      "happiness": 5329,
      "chere": 5330,
      "ghost": 5331,
      "jout": 5332,
      "nar": 5333,
      "nait": 5334,
      "rons": 5335,
      "sable": 5336,
      "spends": 5337,
      "tap": 5338,
      "ule": 5339,
      "rele": 5340,
      "repos": 5341,
      "thro": 5342,
      "lace": 5343,
      "passes": 5344,
      "diary": 5345,
      "conce": 5346,
      "local": 5347,
      "plant": 5348,
      "proof": 5349,
      "boit": 5350,
      "expri": 5351,
      "surviv": 5352,
      "anyway": 5353,
      "grace": 5354,
      "maisons": 5355,
      "dying": 5356,
      "butter": 5357,
      "devine": 5358,
      "prior": 5359,
      "essayons": 5360,
      "faible": 5361,
      "policier": 5362,
      "miles": 5363,
      "according": 5364,
      "echappe": 5365,
      "burned": 5366,
      "hoping": 5367,
      "approche": 5368,
      "system": 5369,
      "emporter": 5370,
      "navire": 5371,
      "obviously": 5372,
      "demarrer": 5373,
      "volunte": 5374,
      "epuise": 5375,
      "earthquake": 5376,
      "fache": 5377,
      "paie": 5378,
      "siere": 5379,
      "remb": 5380,
      "remin": 5381,
      "dete": 5382,
      "devenue": 5383,
      "nelle": 5384,
      "mecs": 5385,
      "celi": 5386,
      "alcool": 5387,
      "ourselves": 5388,
      "bel": 5389,
      "convient": 5390,
      "conditions": 5391,
      "pardon": 5392,
      "hobby": 5393,
      "mont": 5394,
      "moving": 5395,
      "poche": 5396,
      "hire": 5397,
      "cheer": 5398,
      "examp": 5399,
      "lum": 5400,
      "dispon": 5401,
      "available": 5402,
      "menace": 5403,
      "cercle": 5404,
      "pareille": 5405,
      "race": 5406,
      "gency": 5407,
      "decida": 5408,
      "rumeur": 5409,
      "capital": 5410,
      "reveiller": 5411,
      "apprecier": 5412,
      "realise": 5413,
      "semblant": 5414,
      "fermez": 5415,
      "egard": 5416,
      "ennuyeux": 5417,
      "style": 5418,
      "teaching": 5419,
      "obligee": 5420,
      "assise": 5421,
      "innoc": 5422,
      "esperais": 5423,
      "reserve": 5424,
      "reservation": 5425,
      "atteint": 5426,
      "demissionner": 5427,
      "demenage": 5428,
      "merveilleux": 5429,
      "eventu": 5430,
      "enorme": 5431,
      "aveugle": 5432,
      "advantage": 5433,
      "celibat": 5434,
      "ick": 5435,
      "ivre": 5436,
      "laid": 5437,
      "nit": 5438,
      "rab": 5439,
      "yens": 5440,
      "remer": 5441,
      "onte": 5442,
      "infir": 5443,
      "devient": 5444,
      "astique": 5445,
      "separ": 5446,
      "unlikely": 5447,
      "dote": 5448,
      "copain": 5449,
      "anti": 5450,
      "limite": 5451,
      "els": 5452,
      "parked": 5453,
      "tiques": 5454,
      "cale": 5455,
      "voie": 5456,
      "permet": 5457,
      "preven": 5458,
      "couch": 5459,
      "couche": 5460,
      "vra": 5461,
      "someday": 5462,
      "disait": 5463,
      "disting": 5464,
      "distri": 5465,
      "frai": 5466,
      "laisserai": 5467,
      "dentiste": 5468,
      "dentist": 5469,
      "gentilles": 5470,
      "lisez": 5471,
      "spell": 5472,
      "malheureusement": 5473,
      "arreta": 5474,
      "posez": 5475,
      "ponctu": 5476,
      "genial": 5477,
      "themselves": 5478,
      "staring": 5479,
      "hurts": 5480,
      "petits": 5481,
      "facts": 5482,
      "blesser": 5483,
      "jume": 5484,
      "easier": 5485,
      "warn": 5486,
      "critique": 5487,
      "dingue": 5488,
      "fenetres": 5489,
      "appa": 5490,
      "enerve": 5491,
      "costs": 5492,
      "fonctionner": 5493,
      "intelligente": 5494,
      "arms": 5495,
      "perfectly": 5496,
      "punctu": 5497,
      "politici": 5498,
      "traiter": 5499,
      "emmener": 5500,
      "echec": 5501,
      "ouvrit": 5502,
      "economi": 5503,
      "programme": 5504,
      "sofa": 5505,
      "angleterre": 5506,
      "jaloux": 5507,
      "doigt": 5508,
      "confectionne": 5509,
      "decouvrir": 5510,
      "blon": 5511,
      "fal": 5512,
      "remain": 5513,
      "reposer": 5514,
      "reply": 5515,
      "escali": 5516,
      "toit": 5517,
      "invent": 5518,
      "dela": 5519,
      "deman": 5520,
      "assurance": 5521,
      "attemp": 5522,
      "roof": 5523,
      "uns": 5524,
      "som": 5525,
      "parta": 5526,
      "tidi": 5527,
      "stat": 5528,
      "iron": 5529,
      "hired": 5530,
      "foo": 5531,
      "complet": 5532,
      "thered": 5533,
      "shall": 5534,
      "ulaire": 5535,
      "toires": 5536,
      "laissa": 5537,
      "gives": 5538,
      "brill": 5539,
      "akes": 5540,
      "bud": 5541,
      "fuji": 5542,
      "supporte": 5543,
      "rumor": 5544,
      "accorde": 5545,
      "solved": 5546,
      "classi": 5547,
      "fatigues": 5548,
      "email": 5549,
      "faudra": 5550,
      "denied": 5551,
      "imagin": 5552,
      "feuilles": 5553,
      "contrat": 5554,
      "chinois": 5555,
      "etrangers": 5556,
      "meurtre": 5557,
      "armee": 5558,
      "group": 5559,
      "pousse": 5560,
      "retirer": 5561,
      "national": 5562,
      "systeme": 5563,
      "crowd": 5564,
      "mignonne": 5565,
      "soudain": 5566,
      "saturday": 5567,
      "biscuits": 5568,
      "regime": 5569,
      "advance": 5570,
      "rembour": 5571,
      "ajout": 5572,
      "ears": 5573,
      "hous": 5574,
      "hie": 5575,
      "hill": 5576,
      "oil": 5577,
      "rained": 5578,
      "vard": 5579,
      "remis": 5580,
      "ested": 5581,
      "enque": 5582,
      "inde": 5583,
      "mec": 5584,
      "arro": 5585,
      "separe": 5586,
      "aler": 5587,
      "unfortunately": 5588,
      "apprends": 5589,
      "conc": 5590,
      "loge": 5591,
      "stres": 5592,
      "size": 5593,
      "mondi": 5594,
      "poll": 5595,
      "male": 5596,
      "deroule": 5597,
      "justice": 5598,
      "dish": 5599,
      "grate": 5600,
      "ouvrez": 5601,
      "jambes": 5602,
      "tells": 5603,
      "guard": 5604,
      "soulage": 5605,
      "personnel": 5606,
      "wore": 5607,
      "viennes": 5608,
      "enfance": 5609,
      "shoot": 5610,
      "voulaient": 5611,
      "fascin": 5612,
      "cassee": 5613,
      "blesses": 5614,
      "rencontree": 5615,
      "preferes": 5616,
      "charger": 5617,
      "naked": 5618,
      "natif": 5619,
      "supermarket": 5620,
      "exception": 5621,
      "points": 5622,
      "etrangere": 5623,
      "suggested": 5624,
      "gunshot": 5625,
      "pleasant": 5626,
      "celebr": 5627,
      "sympath": 5628,
      "viendrait": 5629,
      "atteindre": 5630,
      "improb": 5631,
      "strict": 5632,
      "threw": 5633,
      "complicated": 5634,
      "toilettes": 5635,
      "annule": 5636,
      "projets": 5637,
      "eviter": 5638,
      "repeter": 5639,
      "ambulance": 5640,
      "institut": 5641,
      "ciles": 5642,
      "ecl": 5643,
      "gus": 5644,
      "nur": 5645,
      "pin": 5646,
      "decor": 5647,
      "neig": 5648,
      "veiller": 5649,
      "code": 5650,
      "cope": 5651,
      "plantes": 5652,
      "mob": 5653,
      "answers": 5654,
      "manges": 5655,
      "ienne": 5656,
      "peri": 5657,
      "checked": 5658,
      "couvert": 5659,
      "compro": 5660,
      "arriva": 5661,
      "sentais": 5662,
      "sentie": 5663,
      "omie": 5664,
      "sites": 5665,
      "aussitot": 5666,
      "believes": 5667,
      "jazz": 5668,
      "england": 5669,
      "noms": 5670,
      "ecrivez": 5671,
      "highly": 5672,
      "harvard": 5673,
      "respecte": 5674,
      "supermarche": 5675,
      "suffit": 5676,
      "recemment": 5677,
      "poissons": 5678,
      "fixed": 5679,
      "destro": 5680,
      "croyais": 5681,
      "disposes": 5682,
      "emprunte": 5683,
      "ability": 5684,
      "comportement": 5685,
      "baisse": 5686,
      "attaque": 5687,
      "profondement": 5688,
      "caisse": 5689,
      "quinze": 5690,
      "emergency": 5691,
      "alcoho": 5692,
      "magnifique": 5693,
      "chicken": 5694,
      "quotidi": 5695,
      "punctual": 5696,
      "grateful": 5697,
      "improbable": 5698,
      "18": 5699,
      "cing": 5700,
      "eclair": 5701,
      "jau": 5702,
      "nable": 5703,
      "round": 5704,
      "sla": 5705,
      "thin": 5706,
      "depar": 5707,
      "assit": 5708,
      "entier": 5709,
      "chir": 5710,
      "rome": 5711,
      "cops": 5712,
      "wears": 5713,
      "allonge": 5714,
      "plat": 5715,
      "manqu": 5716,
      "bow": 5717,
      "within": 5718,
      "cheese": 5719,
      "dises": 5720,
      "frank": 5721,
      "shoulder": 5722,
      "aff": 5723,
      "puissions": 5724,
      "vise": 5725,
      "courut": 5726,
      "couramment": 5727,
      "futur": 5728,
      "careless": 5729,
      "joues": 5730,
      "essence": 5731,
      "regul": 5732,
      "downstairs": 5733,
      "changement": 5734,
      "commencons": 5735,
      "bouge": 5736,
      "bouger": 5737,
      "eleva": 5738,
      "resterai": 5739,
      "picnic": 5740,
      "horreur": 5741,
      "examination": 5742,
      "thirsty": 5743,
      "except": 5744,
      "populaire": 5745,
      "sommet": 5746,
      "acceptable": 5747,
      "canadien": 5748,
      "postp": 5749,
      "pleasure": 5750,
      "furn": 5751,
      "promener": 5752,
      "fairly": 5753,
      "hypo": 5754,
      "emmene": 5755,
      "introduced": 5756,
      "survive": 5757,
      "detendre": 5758,
      "woods": 5759,
      "verrouille": 5760,
      "relig": 5761,
      "depends": 5762,
      "gratu": 5763,
      "failure": 5764,
      "practice": 5765,
      "exemple": 5766,
      "pantal": 5767,
      "bue": 5768,
      "bite": 5769,
      "bene": 5770,
      "dating": 5771,
      "mun": 5772,
      "mbed": 5773,
      "sin": 5774,
      "stom": 5775,
      "scr": 5776,
      "repons": 5777,
      "aimais": 5778,
      "tomed": 5779,
      "leva": 5780,
      "insurance": 5781,
      "determin": 5782,
      "depeche": 5783,
      "meals": 5784,
      "section": 5785,
      "ordre": 5786,
      "ordres": 5787,
      "rowed": 5788,
      "using": 5789,
      "usage": 5790,
      "dirent": 5791,
      "liqui": 5792,
      "goal": 5793,
      "loy": 5794,
      "state": 5795,
      "abet": 5796,
      "treated": 5797,
      "moteur": 5798,
      "fever": 5799,
      "descend": 5800,
      "permit": 5801,
      "knowled": 5802,
      "survenu": 5803,
      "vendu": 5804,
      "shape": 5805,
      "session": 5806,
      "cessez": 5807,
      "useful": 5808,
      "chanteur": 5809,
      "cherchez": 5810,
      "pies": 5811,
      "workers": 5812,
      "ferions": 5813,
      "frir": 5814,
      "gardez": 5815,
      "brit": 5816,
      "souffre": 5817,
      "speed": 5818,
      "perer": 5819,
      "interet": 5820,
      "pouviez": 5821,
      "offen": 5822,
      "space": 5823,
      "fash": 5824,
      "drogue": 5825,
      "oppo": 5826,
      "jumped": 5827,
      "garer": 5828,
      "suivant": 5829,
      "artiste": 5830,
      "artist": 5831,
      "soif": 5832,
      "climat": 5833,
      "delicious": 5834,
      "hesite": 5835,
      "attack": 5836,
      "enseignante": 5837,
      "fievre": 5838,
      "americans": 5839,
      "bathroom": 5840,
      "ambition": 5841,
      "competent": 5842,
      "accustomed": 5843,
      "particulie": 5844,
      "traduire": 5845,
      "ancien": 5846,
      "record": 5847,
      "sharp": 5848,
      "remained": 5849,
      "poeme": 5850,
      "kinds": 5851,
      "concentrer": 5852,
      "stomach": 5853,
      "reponses": 5854,
      "aque": 5855,
      "ator": 5856,
      "epar": 5857,
      "gaz": 5858,
      "rus": 5859,
      "remind": 5860,
      "retired": 5861,
      "develop": 5862,
      "ashed": 5863,
      "nea": 5864,
      "choir": 5865,
      "elu": 5866,
      "amitie": 5867,
      "timbres": 5868,
      "accent": 5869,
      "gere": 5870,
      "adap": 5871,
      "proxi": 5872,
      "procure": 5873,
      "voted": 5874,
      "marri": 5875,
      "servir": 5876,
      "ague": 5877,
      "agers": 5878,
      "histoires": 5879,
      "sach": 5880,
      "disposer": 5881,
      "frus": 5882,
      "laissee": 5883,
      "wherever": 5884,
      "malheureux": 5885,
      "essai": 5886,
      "donnees": 5887,
      "contacter": 5888,
      "runs": 5889,
      "borrowed": 5890,
      "rappelez": 5891,
      "nourrir": 5892,
      "joueur": 5893,
      "prisoners": 5894,
      "assistant": 5895,
      "contract": 5896,
      "application": 5897,
      "controler": 5898,
      "flower": 5899,
      "legal": 5900,
      "oreille": 5901,
      "oreilles": 5902,
      "possibilite": 5903,
      "inquieter": 5904,
      "disease": 5905,
      "refusa": 5906,
      "express": 5907,
      "leader": 5908,
      "neighborhood": 5909,
      "ameliore": 5910,
      "mathematiques": 5911,
      "ecoutez": 5912,
      "barely": 5913,
      "frightened": 5914,
      "totalement": 5915,
      "proximite": 5916,
      "dare": 5917,
      "dine": 5918,
      "equ": 5919,
      "eded": 5920,
      "fous": 5921,
      "hall": 5922,
      "jail": 5923,
      "spl": 5924,
      "slight": 5925,
      "recomm": 5926,
      "inutile": 5927,
      "asun": 5928,
      "membre": 5929,
      "etasun": 5930,
      "unable": 5931,
      "cover": 5932,
      "oigne": 5933,
      "donnee": 5934,
      "treize": 5935,
      "desp": 5936,
      "pread": 5937,
      "served": 5938,
      "fiers": 5939,
      "disgus": 5940,
      "pul": 5941,
      "cking": 5942,
      "laisses": 5943,
      "minuit": 5944,
      "micro": 5945,
      "pression": 5946,
      "visa": 5947,
      "supp": 5948,
      "offended": 5949,
      "closer": 5950,
      "mayor": 5951,
      "difficiles": 5952,
      "childhood": 5953,
      "actions": 5954,
      "winning": 5955,
      "voudrait": 5956,
      "capables": 5957,
      "telles": 5958,
      "promises": 5959,
      "gging": 5960,
      "apprecierais": 5961,
      "steak": 5962,
      "salary": 5963,
      "guere": 5964,
      "souris": 5965,
      "talented": 5966,
      "journaux": 5967,
      "master": 5968,
      "orders": 5969,
      "haute": 5970,
      "reconnaissante": 5971,
      "destin": 5972,
      "ugly": 5973,
      "promesses": 5974,
      "belongs": 5975,
      "compreh": 5976,
      "odeur": 5977,
      "cigarette": 5978,
      "negli": 5979,
      "investig": 5980,
      "abandoned": 5981,
      "guests": 5982,
      "capacite": 5983,
      "beurre": 5984,
      "responsibility": 5985,
      "example": 5986,
      "eventually": 5987,
      "remercie": 5988,
      "institutrice": 5989,
      "gren": 5990,
      "oles": 5991,
      "pit": 5992,
      "rin": 5993,
      "recommand": 5994,
      "estom": 5995,
      "ering": 5996,
      "influ": 5997,
      "nees": 5998,
      "membres": 5999,
      "members": 6000,
      "seve": 6001,
      "diam": 6002,
      "resign": 6003,
      "apply": 6004,
      "area": 6005,
      "parmi": 6006,
      "parvenir": 6007,
      "loss": 6008,
      "amen": 6009,
      "stren": 6010,
      "ainted": 6011,
      "wasting": 6012,
      "aired": 6013,
      "perdit": 6014,
      "serre": 6015,
      "illon": 6016,
      "safet": 6017,
      "coutu": 6018,
      "bienvenue": 6019,
      "tempor": 6020,
      "arrivent": 6021,
      "beaux": 6022,
      "hello": 6023,
      "friday": 6024,
      "sortes": 6025,
      "raisons": 6026,
      "brea": 6027,
      "etude": 6028,
      "magne": 6029,
      "aliments": 6030,
      "ails": 6031,
      "facture": 6032,
      "interrupt": 6033,
      "consequ": 6034,
      "embau": 6035,
      "ignorer": 6036,
      "saute": 6037,
      "difficulty": 6038,
      "travaillez": 6039,
      "foods": 6040,
      "enjoying": 6041,
      "souri": 6042,
      "passen": 6043,
      "cleaned": 6044,
      "complained": 6045,
      "responsabilite": 6046,
      "destination": 6047,
      "conscious": 6048,
      "reflechis": 6049,
      "gged": 6050,
      "ravie": 6051,
      "souhaiterais": 6052,
      "smells": 6053,
      "spectacle": 6054,
      "smiled": 6055,
      "vendredi": 6056,
      "repair": 6057,
      "arguing": 6058,
      "blanche": 6059,
      "negoti": 6060,
      "jokes": 6061,
      "crossed": 6062,
      "exciting": 6063,
      "saint": 6064,
      "epaule": 6065,
      "accompagner": 6066,
      "occurred": 6067,
      "volume": 6068,
      "betrayed": 6069,
      "houses": 6070,
      "nurse": 6071,
      "furniture": 6072,
      "fashion": 6073,
      "nearest": 6074,
      "safety": 6075,
      "abe": 6076,
      "drow": 6077,
      "dame": 6078,
      "hated": 6079,
      "ox": 6080,
      "pushed": 6081,
      "san": 6082,
      "spread": 6083,
      "redi": 6084,
      "aides": 6085,
      "isent": 6086,
      "del": 6087,
      "determine": 6088,
      "decue": 6089,
      "ascense": 6090,
      "meure": 6091,
      "attir": 6092,
      "iling": 6093,
      "allions": 6094,
      "copie": 6095,
      "coffre": 6096,
      "behave": 6097,
      "lion": 6098,
      "lift": 6099,
      "licite": 6100,
      "consis": 6101,
      "loyer": 6102,
      "myster": 6103,
      "cace": 6104,
      "shelf": 6105,
      "perd": 6106,
      "prevent": 6107,
      "exis": 6108,
      "chosen": 6109,
      "vend": 6110,
      "drait": 6111,
      "mises": 6112,
      "eteint": 6113,
      "pressure": 6114,
      "ssier": 6115,
      "partit": 6116,
      "puissiez": 6117,
      "hug": 6118,
      "courte": 6119,
      "courrier": 6120,
      "corri": 6121,
      "pouvions": 6122,
      "situe": 6123,
      "hurried": 6124,
      "jette": 6125,
      "drives": 6126,
      "nourris": 6127,
      "sundays": 6128,
      "immeu": 6129,
      "smaller": 6130,
      "climbed": 6131,
      "worrying": 6132,
      "suffisant": 6133,
      "raised": 6134,
      "rendue": 6135,
      "prudents": 6136,
      "violon": 6137,
      "succeeded": 6138,
      "divorced": 6139,
      "ouvrage": 6140,
      "recognized": 6141,
      "ambitious": 6142,
      "etagere": 6143,
      "model": 6144,
      "documents": 6145,
      "cigarettes": 6146,
      "soudaine": 6147,
      "impatiente": 6148,
      "annonce": 6149,
      "stamps": 6150,
      "lumieres": 6151,
      "quotidienne": 6152,
      "marriage": 6153,
      "recommend": 6154,
      "ecar": 6155,
      "fleur": 6156,
      "fence": 6157,
      "ides": 6158,
      "pper": 6159,
      "ril": 6160,
      "rure": 6161,
      "tains": 6162,
      "wit": 6163,
      "xe": 6164,
      "revol": 6165,
      "asser": 6166,
      "quante": 6167,
      "armed": 6168,
      "jeans": 6169,
      "queue": 6170,
      "orte": 6171,
      "aison": 6172,
      "chall": 6173,
      "unes": 6174,
      "suspe": 6175,
      "resta": 6176,
      "liber": 6177,
      "lower": 6178,
      "plants": 6179,
      "canada": 6180,
      "cares": 6181,
      "pota": 6182,
      "yourselves": 6183,
      "desir": 6184,
      "bol": 6185,
      "bomb": 6186,
      "pulled": 6187,
      "ified": 6188,
      "grass": 6189,
      "frapper": 6190,
      "touched": 6191,
      "vieilles": 6192,
      "attendons": 6193,
      "fumes": 6194,
      "mette": 6195,
      "jouez": 6196,
      "lovely": 6197,
      "travailles": 6198,
      "empire": 6199,
      "connaissais": 6200,
      "regardes": 6201,
      "friendship": 6202,
      "factory": 6203,
      "eleg": 6204,
      "douce": 6205,
      "dette": 6206,
      "cinquante": 6207,
      "curieux": 6208,
      "clients": 6209,
      "chausset": 6210,
      "classroom": 6211,
      "accompagne": 6212,
      "inviter": 6213,
      "violin": 6214,
      "tradition": 6215,
      "midnight": 6216,
      "decede": 6217,
      "selling": 6218,
      "evident": 6219,
      "serviette": 6220,
      "audience": 6221,
      "flics": 6222,
      "volontaire": 6223,
      "tremblement": 6224,
      "innocence": 6225,
      "celibataire": 6226,
      "partager": 6227,
      "foolish": 6228,
      "mobile": 6229,
      "pantalon": 6230,
      "ares": 6231,
      "ciez": 6232,
      "dors": 6233,
      "eco": 6234,
      "hil": 6235,
      "lines": 6236,
      "pal": 6237,
      "spare": 6238,
      "tait": 6239,
      "usee": 6240,
      "uves": 6241,
      "aimons": 6242,
      "enreg": 6243,
      "informe": 6244,
      "seche": 6245,
      "seats": 6246,
      "tomba": 6247,
      "ingen": 6248,
      "passa": 6249,
      "chic": 6250,
      "bee": 6251,
      "verti": 6252,
      "trous": 6253,
      "ader": 6254,
      "proches": 6255,
      "dessous": 6256,
      "comb": 6257,
      "mangent": 6258,
      "agent": 6259,
      "vided": 6260,
      "ify": 6261,
      "fromage": 6262,
      "mini": 6263,
      "longs": 6264,
      "travaillent": 6265,
      "crie": 6266,
      "particip": 6267,
      "corner": 6268,
      "shoe": 6269,
      "spici": 6270,
      "chanceuse": 6271,
      "petites": 6272,
      "ignit": 6273,
      "lications": 6274,
      "badly": 6275,
      "ignored": 6276,
      "presents": 6277,
      "valu": 6278,
      "hung": 6279,
      "plaint": 6280,
      "ailleurs": 6281,
      "source": 6282,
      "client": 6283,
      "zzy": 6284,
      "dreaming": 6285,
      "vertis": 6286,
      "offert": 6287,
      "habituee": 6288,
      "objection": 6289,
      "rompu": 6290,
      "repaired": 6291,
      "emporte": 6292,
      "descendre": 6293,
      "estime": 6294,
      "damage": 6295,
      "americain": 6296,
      "nerveuse": 6297,
      "augmentation": 6298,
      "saoul": 6299,
      "exprimer": 6300,
      "infirmiere": 6301,
      "estomac": 6302,
      "drowned": 6303,
      "rater": 6304,
      "vons": 6305,
      "replace": 6306,
      "aitez": 6307,
      "tori": 6308,
      "inqui": 6309,
      "depecher": 6310,
      "demie": 6311,
      "atif": 6312,
      "army": 6313,
      "vehi": 6314,
      "enterre": 6315,
      "eten": 6316,
      "eter": 6317,
      "aunt": 6318,
      "coif": 6319,
      "cooper": 6320,
      "dizzy": 6321,
      "ressens": 6322,
      "social": 6323,
      "eloig": 6324,
      "parais": 6325,
      "parfaite": 6326,
      "amoun": 6327,
      "timid": 6328,
      "acquerir": 6329,
      "stars": 6330,
      "durer": 6331,
      "protest": 6332,
      "manif": 6333,
      "forest": 6334,
      "saison": 6335,
      "agee": 6336,
      "heros": 6337,
      "franche": 6338,
      "airplane": 6339,
      "bonjour": 6340,
      "guise": 6341,
      "epais": 6342,
      "bran": 6343,
      "stun": 6344,
      "puisses": 6345,
      "souper": 6346,
      "bulle": 6347,
      "ounds": 6348,
      "intri": 6349,
      "deuxieme": 6350,
      "icked": 6351,
      "planned": 6352,
      "obser": 6353,
      "trouvee": 6354,
      "piege": 6355,
      "lately": 6356,
      "ruined": 6357,
      "conduite": 6358,
      "entendue": 6359,
      "rencontrees": 6360,
      "wondering": 6361,
      "doctors": 6362,
      "souhaitez": 6363,
      "cleaning": 6364,
      "appropri": 6365,
      "sensible": 6366,
      "environs": 6367,
      "concerne": 6368,
      "vivons": 6369,
      "persuaded": 6370,
      "relaxed": 6371,
      "derangerait": 6372,
      "adorable": 6373,
      "yellow": 6374,
      "etoiles": 6375,
      "participer": 6376,
      "elevator": 6377,
      "ascenseur": 6378,
      "banc": 6379,
      "imit": 6380,
      "jury": 6381,
      "pity": 6382,
      "ouer": 6383,
      "rejoindre": 6384,
      "err": 6385,
      "towel": 6386,
      "leger": 6387,
      "demo": 6388,
      "aside": 6389,
      "quarti": 6390,
      "tered": 6391,
      "meas": 6392,
      "veau": 6393,
      "cep": 6394,
      "etant": 6395,
      "passait": 6396,
      "aupres": 6397,
      "suspici": 6398,
      "resist": 6399,
      "mental": 6400,
      "appla": 6401,
      "conser": 6402,
      "pardonner": 6403,
      "loan": 6404,
      "amuses": 6405,
      "tiroir": 6406,
      "terme": 6407,
      "rende": 6408,
      "rencontr": 6409,
      "ciation": 6410,
      "montra": 6411,
      "mos": 6412,
      "poker": 6413,
      "desper": 6414,
      "tendance": 6415,
      "exe": 6416,
      "excite": 6417,
      "illness": 6418,
      "foret": 6419,
      "disiez": 6420,
      "dispos": 6421,
      "disagree": 6422,
      "compared": 6423,
      "puzz": 6424,
      "beauty": 6425,
      "froide": 6426,
      "fermes": 6427,
      "coups": 6428,
      "brief": 6429,
      "craig": 6430,
      "souf": 6431,
      "south": 6432,
      "buvez": 6433,
      "mortes": 6434,
      "attendrai": 6435,
      "auraient": 6436,
      "jobs": 6437,
      "finding": 6438,
      "surprises": 6439,
      "dernieres": 6440,
      "doue": 6441,
      "profit": 6442,
      "difficulte": 6443,
      "farmer": 6444,
      "rappelles": 6445,
      "sincere": 6446,
      "settle": 6447,
      "rentree": 6448,
      "attendait": 6449,
      "fallen": 6450,
      "falling": 6451,
      "chatte": 6452,
      "sources": 6453,
      "bague": 6454,
      "soix": 6455,
      "nord": 6456,
      "attrap": 6457,
      "burst": 6458,
      "reasonable": 6459,
      "continued": 6460,
      "indique": 6461,
      "invitee": 6462,
      "attache": 6463,
      "desert": 6464,
      "communi": 6465,
      "gym": 6466,
      "poster": 6467,
      "monsieur": 6468,
      "piration": 6469,
      "progress": 6470,
      "joking": 6471,
      "capitale": 6472,
      "entirely": 6473,
      "efficace": 6474,
      "anxious": 6475,
      "prevented": 6476,
      "ajouter": 6477,
      "suspicious": 6478,
      "eve": 6479,
      "epi": 6480,
      "fabri": 6481,
      "gon": 6482,
      "nau": 6483,
      "option": 6484,
      "tong": 6485,
      "outr": 6486,
      "reput": 6487,
      "retrouver": 6488,
      "remonter": 6489,
      "este": 6490,
      "onze": 6491,
      "istic": 6492,
      "asons": 6493,
      "neck": 6494,
      "meters": 6495,
      "season": 6496,
      "oranges": 6497,
      "alph": 6498,
      "chu": 6499,
      "auquel": 6500,
      "nois": 6501,
      "coince": 6502,
      "cooked": 6503,
      "wealth": 6504,
      "lia": 6505,
      "lesson": 6506,
      "apers": 6507,
      "parlait": 6508,
      "logi": 6509,
      "tier": 6510,
      "absor": 6511,
      "rendrai": 6512,
      "ades": 6513,
      "plie": 6514,
      "plaig": 6515,
      "poches": 6516,
      "nowhere": 6517,
      "propose": 6518,
      "ders": 6519,
      "prouv": 6520,
      "final": 6521,
      "whoever": 6522,
      "beaute": 6523,
      "press": 6524,
      "menu": 6525,
      "crise": 6526,
      "nuages": 6527,
      "studies": 6528,
      "sentait": 6529,
      "aidez": 6530,
      "etudiante": 6531,
      "funer": 6532,
      "calcu": 6533,
      "aled": 6534,
      "value": 6535,
      "examens": 6536,
      "writes": 6537,
      "suspen": 6538,
      "approach": 6539,
      "ecoutes": 6540,
      "viendras": 6541,
      "reveillee": 6542,
      "visible": 6543,
      "augmente": 6544,
      "fumee": 6545,
      "reliable": 6546,
      "oublierai": 6547,
      "pratiquement": 6548,
      "commettre": 6549,
      "skinny": 6550,
      "pneu": 6551,
      "disponible": 6552,
      "rabbit": 6553,
      "escaliers": 6554,
      "budget": 6555,
      "mondiale": 6556,
      "immeuble": 6557,
      "chaussettes": 6558,
      "applau": 6559,
      "soixante": 6560,
      "tongue": 6561,
      "igh": 6562,
      "pte": 6563,
      "riez": 6564,
      "shi": 6565,
      "tis": 6566,
      "var": 6567,
      "tome": 6568,
      "incident": 6569,
      "inclu": 6570,
      "isme": 6571,
      "dedi": 6572,
      "defe": 6573,
      "decri": 6574,
      "member": 6575,
      "theatre": 6576,
      "eton": 6577,
      "aly": 6578,
      "tomes": 6579,
      "chest": 6580,
      "ieuses": 6581,
      "rigo": 6582,
      "outes": 6583,
      "appren": 6584,
      "conclu": 6585,
      "parking": 6586,
      "logique": 6587,
      "amusee": 6588,
      "pointe": 6589,
      "irons": 6590,
      "commerci": 6591,
      "perfor": 6592,
      "perds": 6593,
      "percent": 6594,
      "serp": 6595,
      "bleed": 6596,
      "bleue": 6597,
      "surface": 6598,
      "drez": 6599,
      "fiques": 6600,
      "cesser": 6601,
      "stories": 6602,
      "partons": 6603,
      "cris": 6604,
      "retarde": 6605,
      "allemagne": 6606,
      "pharm": 6607,
      "sentit": 6608,
      "malgre": 6609,
      "creme": 6610,
      "faith": 6611,
      "regler": 6612,
      "fassions": 6613,
      "possession": 6614,
      "repondit": 6615,
      "demandes": 6616,
      "battu": 6617,
      "apprecient": 6618,
      "decisions": 6619,
      "thirteen": 6620,
      "ordinateurs": 6621,
      "trouva": 6622,
      "advise": 6623,
      "regretter": 6624,
      "traveled": 6625,
      "teaches": 6626,
      "poulet": 6627,
      "poupee": 6628,
      "prudentes": 6629,
      "rarely": 6630,
      "opera": 6631,
      "field": 6632,
      "cueil": 6633,
      "medicaments": 6634,
      "billets": 6635,
      "fifty": 6636,
      "sejourne": 6637,
      "graduated": 6638,
      "elephants": 6639,
      "demanded": 6640,
      "knowledge": 6641,
      "sachiez": 6642,
      "franchement": 6643,
      "pharmac": 6644,
      "blow": 6645,
      "gth": 6646,
      "mul": 6647,
      "rail": 6648,
      "smil": 6649,
      "represent": 6650,
      "relation": 6651,
      "aigne": 6652,
      "envis": 6653,
      "ana": 6654,
      "insec": 6655,
      "headed": 6656,
      "ceinture": 6657,
      "passage": 6658,
      "noire": 6659,
      "weigh": 6660,
      "conges": 6661,
      "consom": 6662,
      "amener": 6663,
      "tip": 6664,
      "tiers": 6665,
      "terms": 6666,
      "abat": 6667,
      "admettre": 6668,
      "fered": 6669,
      "profi": 6670,
      "irait": 6671,
      "irts": 6672,
      "knowing": 6673,
      "preuves": 6674,
      "tape": 6675,
      "illard": 6676,
      "coule": 6677,
      "shame": 6678,
      "odd": 6679,
      "portent": 6680,
      "drag": 6681,
      "misunderstanding": 6682,
      "germany": 6683,
      "ounce": 6684,
      "irez": 6685,
      "jouait": 6686,
      "brown": 6687,
      "genie": 6688,
      "understands": 6689,
      "pourrai": 6690,
      "drove": 6691,
      "licen": 6692,
      "douz": 6693,
      "signed": 6694,
      "secur": 6695,
      "produits": 6696,
      "preferez": 6697,
      "ecrivain": 6698,
      "fatiguees": 6699,
      "differents": 6700,
      "awful": 6701,
      "egal": 6702,
      "collect": 6703,
      "opinions": 6704,
      "respecter": 6705,
      "mourut": 6706,
      "burn": 6707,
      "discussed": 6708,
      "reflechi": 6709,
      "shorter": 6710,
      "accompli": 6711,
      "computers": 6712,
      "respond": 6713,
      "cycle": 6714,
      "autorises": 6715,
      "honnetete": 6716,
      "rempli": 6717,
      "economie": 6718,
      "honesty": 6719,
      "persuader": 6720,
      "familier": 6721,
      "newspapers": 6722,
      "effective": 6723,
      "electricite": 6724,
      "survived": 6725,
      "magazines": 6726,
      "tarte": 6727,
      "criminal": 6728,
      "grimp": 6729,
      "taxes": 6730,
      "crowded": 6731,
      "committed": 6732,
      "fifteen": 6733,
      "effet": 6734,
      "romans": 6735,
      "alternative": 6736,
      "stealing": 6737,
      "colline": 6738,
      "cuisinier": 6739,
      "suffering": 6740,
      "definite": 6741,
      "clouds": 6742,
      "gentillesse": 6743,
      "false": 6744,
      "enquete": 6745,
      "neiger": 6746,
      "frankly": 6747,
      "strength": 6748,
      "smiling": 6749,
      "..": 6750,
      "baig": 6751,
      "cta": 6752,
      "dge": 6753,
      "ego": 6754,
      "flying": 6755,
      "ires": 6756,
      "mant": 6757,
      "pac": 6758,
      "puni": 6759,
      "russi": 6760,
      "sses": 6761,
      "vaux": 6762,
      "vague": 6763,
      "wounded": 6764,
      "repose": 6765,
      "enleve": 6766,
      "lecon": 6767,
      "infe": 6768,
      "income": 6769,
      "issent": 6770,
      "issons": 6771,
      "issant": 6772,
      "theater": 6773,
      "entra": 6774,
      "chasse": 6775,
      "dozen": 6776,
      "avan": 6777,
      "trouvez": 6778,
      "trained": 6779,
      "eloigne": 6780,
      "conten": 6781,
      "parte": 6782,
      "parla": 6783,
      "hole": 6784,
      "songes": 6785,
      "moder": 6786,
      "fere": 6787,
      "boo": 6788,
      "preoccupe": 6789,
      "ills": 6790,
      "survecu": 6791,
      "focus": 6792,
      "tress": 6793,
      "frappa": 6794,
      "migr": 6795,
      "goods": 6796,
      "feras": 6797,
      "ferma": 6798,
      "isez": 6799,
      "deviner": 6800,
      "arretes": 6801,
      "pond": 6802,
      "connaissent": 6803,
      "connaissons": 6804,
      "aliment": 6805,
      "risques": 6806,
      "elected": 6807,
      "interro": 6808,
      "captain": 6809,
      "importantes": 6810,
      "raisonnable": 6811,
      "produise": 6812,
      "begins": 6813,
      "comprendr": 6814,
      "horses": 6815,
      "habituer": 6816,
      "barking": 6817,
      "realiser": 6818,
      "applique": 6819,
      "contents": 6820,
      "recevoir": 6821,
      "blessees": 6822,
      "holding": 6823,
      "loupe": 6824,
      "paquet": 6825,
      "consideration": 6826,
      "politics": 6827,
      "honneur": 6828,
      "assie": 6829,
      "197": 6830,
      "millions": 6831,
      "bottom": 6832,
      "bruy": 6833,
      "autorisee": 6834,
      "victi": 6835,
      "grimpe": 6836,
      "archite": 6837,
      "entendit": 6838,
      "soft": 6839,
      "fortunate": 6840,
      "employees": 6841,
      "deeply": 6842,
      "apparence": 6843,
      "mathematics": 6844,
      "lourd": 6845,
      "consulter": 6846,
      "romant": 6847,
      "cancel": 6848,
      "declare": 6849,
      "properly": 6850,
      "contribu": 6851,
      "relieved": 6852,
      "prisonniers": 6853,
      "genius": 6854,
      "influence": 6855,
      "passengers": 6856,
      "quotidiennement": 6857,
      "quartier": 6858,
      "alphabet": 6859,
      "cd": 6860,
      "ec": 6861,
      "echange": 6862,
      "evite": 6863,
      "lut": 6864,
      "phe": 6865,
      "pure": 6866,
      "pants": 6867,
      "rat": 6868,
      "ration": 6869,
      "sink": 6870,
      "xpe": 6871,
      "zero": 6872,
      "request": 6873,
      "remise": 6874,
      "reasons": 6875,
      "toward": 6876,
      "deton": 6877,
      "demeure": 6878,
      "mete": 6879,
      "atmo": 6880,
      "argue": 6881,
      "quette": 6882,
      "alarm": 6883,
      "chand": 6884,
      "chons": 6885,
      "chateau": 6886,
      "chief": 6887,
      "aute": 6888,
      "roll": 6889,
      "unlucky": 6890,
      "pein": 6891,
      "beard": 6892,
      "becoming": 6893,
      "dig": 6894,
      "sop": 6895,
      "socks": 6896,
      "conta": 6897,
      "confon": 6898,
      "parlais": 6899,
      "partez": 6900,
      "parvenu": 6901,
      "forcer": 6902,
      "actor": 6903,
      "unexpe": 6904,
      "sif": 6905,
      "civil": 6906,
      "dumb": 6907,
      "poses": 6908,
      "maje": 6909,
      "voter": 6910,
      "tence": 6911,
      "agri": 6912,
      "firent": 6913,
      "fog": 6914,
      "inevit": 6915,
      "herbe": 6916,
      "happier": 6917,
      "longues": 6918,
      "directement": 6919,
      "gious": 6920,
      "croche": 6921,
      "hum": 6922,
      "appears": 6923,
      "fake": 6924,
      "moral": 6925,
      "clef": 6926,
      "malin": 6927,
      "etudes": 6928,
      "firm": 6929,
      "alibi": 6930,
      "contest": 6931,
      "center": 6932,
      "habits": 6933,
      "elec": 6934,
      "eleven": 6935,
      "castle": 6936,
      "kindness": 6937,
      "greatest": 6938,
      "sauce": 6939,
      "valises": 6940,
      "fautes": 6941,
      "plainte": 6942,
      "satisfaite": 6943,
      "bags": 6944,
      "publie": 6945,
      "correcte": 6946,
      "ennuye": 6947,
      "boxes": 6948,
      "employer": 6949,
      "stronger": 6950,
      "preferable": 6951,
      "poured": 6952,
      "vivait": 6953,
      "successful": 6954,
      "struck": 6955,
      "apportez": 6956,
      "constamment": 6957,
      "doubts": 6958,
      "brouillard": 6959,
      "debt": 6960,
      "curio": 6961,
      "committee": 6962,
      "repeat": 6963,
      "affecte": 6964,
      "travaillons": 6965,
      "ameliorer": 6966,
      "capitaine": 6967,
      "knocked": 6968,
      "canceled": 6969,
      "scientifique": 6970,
      "depourvu": 6971,
      "incredible": 6972,
      "naissance": 6973,
      "chirur": 6974,
      "liquide": 6975,
      "atmosp": 6976,
      "unexpected": 6977,
      "bun": 6978,
      "basse": 6979,
      "bale": 6980,
      "eth": 6981,
      "evan": 6982,
      "ime": 6983,
      "mt": 6984,
      "sno": 6985,
      "tles": 6986,
      "villes": 6987,
      "thick": 6988,
      "erie": 6989,
      "astu": 6990,
      "meurs": 6991,
      "attri": 6992,
      "arrest": 6993,
      "unusual": 6994,
      "belt": 6995,
      "dite": 6996,
      "lignes": 6997,
      "offered": 6998,
      "sieste": 6999,
      "cible": 7000,
      "admir": 7001,
      "admets": 7002,
      "moti": 7003,
      "oney": 7004,
      "prevenu": 7005,
      "cheated": 7006,
      "cuille": 7007,
      "vente": 7008,
      "venons": 7009,
      "compose": 7010,
      "merit": 7011,
      "itement": 7012,
      "ferons": 7013,
      "lasted": 7014,
      "mensonges": 7015,
      "aimed": 7016,
      "gotta": 7017,
      "affre": 7018,
      "crack": 7019,
      "aking": 7020,
      "differ": 7021,
      "courr": 7022,
      "mates": 7023,
      "wondered": 7024,
      "aimerait": 7025,
      "planted": 7026,
      "turning": 7027,
      "francaise": 7028,
      "handsome": 7029,
      "troisieme": 7030,
      "hurler": 7031,
      "alice": 7032,
      "remede": 7033,
      "remets": 7034,
      "demandais": 7035,
      "cases": 7036,
      "named": 7037,
      "bitter": 7038,
      "meilleures": 7039,
      "drawer": 7040,
      "sym": 7041,
      "deny": 7042,
      "formulaire": 7043,
      "facebook": 7044,
      "experiment": 7045,
      "visiting": 7046,
      "medecins": 7047,
      "password": 7048,
      "coln": 7049,
      "kissing": 7050,
      "choisis": 7051,
      "accomplir": 7052,
      "patients": 7053,
      "employes": 7054,
      "louer": 7055,
      "pares": 7056,
      "hauteur": 7057,
      "novels": 7058,
      "baked": 7059,
      "cambri": 7060,
      "baisser": 7061,
      "possibilites": 7062,
      "cherchais": 7063,
      "quantite": 7064,
      "powerful": 7065,
      "lincoln": 7066,
      "dispute": 7067,
      "compliment": 7068,
      "automne": 7069,
      "jalouse": 7070,
      "assume": 7071,
      "robbed": 7072,
      "concentrate": 7073,
      "hesitate": 7074,
      "psycho": 7075,
      "invente": 7076,
      "marchand": 7077,
      "salade": 7078,
      "describe": 7079,
      "supplementaire": 7080,
      "penetrer": 7081,
      "chauffeur": 7082,
      "paresseux": 7083,
      "arrog": 7084,
      "destroyed": 7085,
      "particulierement": 7086,
      "challen": 7087,
      "liberte": 7088,
      "enregistre": 7089,
      "desperate": 7090,
      "reputation": 7091,
      "chandail": 7092,
      "electron": 7093,
      "12": 7094,
      "15": 7095,
      "cends": 7096,
      "gnee": 7097,
      "ias": 7098,
      "ized": 7099,
      "lux": 7100,
      "sail": 7101,
      "tail": 7102,
      "reviendra": 7103,
      "envisage": 7104,
      "envelop": 7105,
      "tower": 7106,
      "lege": 7107,
      "ism": 7108,
      "dech": 7109,
      "delic": 7110,
      "astron": 7111,
      "mechant": 7112,
      "height": 7113,
      "laun": 7114,
      "lack": 7115,
      "lampe": 7116,
      "auteur": 7117,
      "dicted": 7118,
      "resour": 7119,
      "libe": 7120,
      "soli": 7121,
      "amical": 7122,
      "tible": 7123,
      "aces": 7124,
      "acteur": 7125,
      "stared": 7126,
      "gele": 7127,
      "adres": 7128,
      "pens": 7129,
      "motor": 7130,
      "modern": 7131,
      "prover": 7132,
      "iras": 7133,
      "descends": 7134,
      "mani": 7135,
      "manieres": 7136,
      "prevoyez": 7137,
      "chee": 7138,
      "chevaux": 7139,
      "exist": 7140,
      "pray": 7141,
      "prince": 7142,
      "vivez": 7143,
      "nia": 7144,
      "prenant": 7145,
      "joli": 7146,
      "joint": 7147,
      "directeur": 7148,
      "helps": 7149,
      "trains": 7150,
      "branche": 7151,
      "arrivez": 7152,
      "acheve": 7153,
      "matiere": 7154,
      "malentendu": 7155,
      "sition": 7156,
      "supper": 7157,
      "total": 7158,
      "planete": 7159,
      "closet": 7160,
      "rooms": 7161,
      "crier": 7162,
      "declar": 7163,
      "earns": 7164,
      "engaged": 7165,
      "rub": 7166,
      "rues": 7167,
      "interrup": 7168,
      "oppose": 7169,
      "warning": 7170,
      "blamer": 7171,
      "perdue": 7172,
      "horloge": 7173,
      "voient": 7174,
      "arriverait": 7175,
      "dollar": 7176,
      "experien": 7177,
      "higher": 7178,
      "medical": 7179,
      "sortons": 7180,
      "north": 7181,
      "ennuyer": 7182,
      "papers": 7183,
      "generally": 7184,
      "espion": 7185,
      "pleuvra": 7186,
      "protection": 7187,
      "etrangeres": 7188,
      "cadeaux": 7189,
      "saving": 7190,
      "violent": 7191,
      "censee": 7192,
      "apologized": 7193,
      "complaints": 7194,
      "patronne": 7195,
      "naturel": 7196,
      "camar": 7197,
      "constit": 7198,
      "baiser": 7199,
      "economy": 7200,
      "mentionne": 7201,
      "refuser": 7202,
      "competition": 7203,
      "navig": 7204,
      "holidays": 7205,
      "contrariee": 7206,
      "doigts": 7207,
      "candy": 7208,
      "informed": 7209,
      "adopted": 7210,
      "ridicule": 7211,
      "consacre": 7212,
      "effectue": 7213,
      "quarante": 7214,
      "bench": 7215,
      "original": 7216,
      "mbered": 7217,
      "œuvre": 7218,
      "greeted": 7219,
      "narrow": 7220,
      "tapis": 7221,
      "delayed": 7222,
      "pollution": 7223,
      "determined": 7224,
      "soudainement": 7225,
      "ecart": 7226,
      "assieds": 7227,
      "atmosphere": 7228,
      "200": 7229,
      "500": 7230,
      "bone": 7231,
      "cente": 7232,
      "ement": 7233,
      "fl": 7234,
      "fate": 7235,
      "flas": 7236,
      "mare": 7237,
      "oly": 7238,
      "pilo": 7239,
      "sants": 7240,
      "spy": 7241,
      "savaient": 7242,
      "tab": 7243,
      "vable": 7244,
      "repro": 7245,
      "ening": 7246,
      "inhabitu": 7247,
      "isa": 7248,
      "deaf": 7249,
      "nellement": 7250,
      "metro": 7251,
      "jete": 7252,
      "seau": 7253,
      "hein": 7254,
      "itself": 7255,
      "lade": 7256,
      "uncomfortable": 7257,
      "sume": 7258,
      "copies": 7259,
      "diable": 7260,
      "lif": 7261,
      "verte": 7262,
      "approuve": 7263,
      "confortable": 7264,
      "pardonne": 7265,
      "paroles": 7266,
      "locu": 7267,
      "pensiez": 7268,
      "mondays": 7269,
      "cago": 7270,
      "commer": 7271,
      "comite": 7272,
      "eds": 7273,
      "prenom": 7274,
      "exces": 7275,
      "surveille": 7276,
      "fies": 7277,
      "fiance": 7278,
      "impri": 7279,
      "menage": 7280,
      "asseyez": 7281,
      "soul": 7282,
      "mum": 7283,
      "liter": 7284,
      "faisiez": 7285,
      "attended": 7286,
      "connus": 7287,
      "suppor": 7288,
      "passees": 7289,
      "jouons": 7290,
      "offense": 7291,
      "import": 7292,
      "spain": 7293,
      "truly": 7294,
      "culous": 7295,
      "tableaux": 7296,
      "intersection": 7297,
      "adorent": 7298,
      "biolo": 7299,
      "opening": 7300,
      "larger": 7301,
      "largest": 7302,
      "walks": 7303,
      "begun": 7304,
      "italy": 7305,
      "italie": 7306,
      "latin": 7307,
      "volonte": 7308,
      "farm": 7309,
      "univers": 7310,
      "sembler": 7311,
      "owns": 7312,
      "closely": 7313,
      "impots": 7314,
      "fourn": 7315,
      "fourche": 7316,
      "superbe": 7317,
      "trouvent": 7318,
      "hopes": 7319,
      "reception": 7320,
      "sacri": 7321,
      "chicago": 7322,
      "forcee": 7323,
      "espace": 7324,
      "continua": 7325,
      "pauvres": 7326,
      "danced": 7327,
      "disappoint": 7328,
      "canadienne": 7329,
      "concern": 7330,
      "paintings": 7331,
      "screw": 7332,
      "profond": 7333,
      "intended": 7334,
      "hammer": 7335,
      "dependent": 7336,
      "paraitre": 7337,
      "menteuse": 7338,
      "incroyablement": 7339,
      "nonsense": 7340,
      "professional": 7341,
      "tromper": 7342,
      "annuler": 7343,
      "debrouille": 7344,
      "method": 7345,
      "effectuer": 7346,
      "etoffe": 7347,
      "annoying": 7348,
      "conclusion": 7349,
      "preparing": 7350,
      "salad": 7351,
      "threatened": 7352,
      "agissait": 7353,
      "drugs": 7354,
      "prononcer": 7355,
      "reminds": 7356,
      "detective": 7357,
      "religion": 7358,
      "corriger": 7359,
      "amount": 7360,
      "stunned": 7361,
      "appropriate": 7362,
      "delicieux": 7363,
      "olymp": 7364,
      "locuteur": 7365,
      "cions": 7366,
      "ctor": 7367,
      "gage": 7368,
      "lus": 7369,
      "pig": 7370,
      "tied": 7371,
      "reck": 7372,
      "retenir": 7373,
      "recol": 7374,
      "remettez": 7375,
      "essu": 7376,
      "incl": 7377,
      "aspir": 7378,
      "ita": 7379,
      "alarme": 7380,
      "chais": 7381,
      "rot": 7382,
      "resol": 7383,
      "avise": 7384,
      "loser": 7385,
      "loaded": 7386,
      "ama": 7387,
      "acqu": 7388,
      "tery": 7389,
      "tremb": 7390,
      "ferez": 7391,
      "desespere": 7392,
      "marteau": 7393,
      "mante": 7394,
      "mance": 7395,
      "prevenir": 7396,
      "cheaper": 7397,
      "agi": 7398,
      "dreamed": 7399,
      "sometime": 7400,
      "upon": 7401,
      "eteins": 7402,
      "mix": 7403,
      "miroir": 7404,
      "pirer": 7405,
      "helpful": 7406,
      "guar": 7407,
      "gentils": 7408,
      "allergic": 7409,
      "facons": 7410,
      "mordu": 7411,
      "attendent": 7412,
      "insis": 7413,
      "planet": 7414,
      "foreig": 7415,
      "essayais": 7416,
      "creve": 7417,
      "brosse": 7418,
      "shook": 7419,
      "putting": 7420,
      "obs": 7421,
      "changements": 7422,
      "span": 7423,
      "actrice": 7424,
      "lung": 7425,
      "interdit": 7426,
      "trick": 7427,
      "doulou": 7428,
      "biggest": 7429,
      "accorder": 7430,
      "solaire": 7431,
      "signer": 7432,
      "blagues": 7433,
      "choices": 7434,
      "commencez": 7435,
      "complex": 7436,
      "mirror": 7437,
      "supposee": 7438,
      "sourit": 7439,
      "soigne": 7440,
      "passagers": 7441,
      "impoli": 7442,
      "silly": 7443,
      "reflex": 7444,
      "excell": 7445,
      "generous": 7446,
      "espagne": 7447,
      "convaincue": 7448,
      "ignorance": 7449,
      "loue": 7450,
      "obeir": 7451,
      "attacked": 7452,
      "endormir": 7453,
      "mouchoir": 7454,
      "cities": 7455,
      "related": 7456,
      "viendrais": 7457,
      "flexi": 7458,
      "fleuve": 7459,
      "hyp": 7460,
      "satisfaits": 7461,
      "mountains": 7462,
      "admitted": 7463,
      "electricity": 7464,
      "website": 7465,
      "arranger": 7466,
      "hanging": 7467,
      "fingers": 7468,
      "talentue": 7469,
      "demenager": 7470,
      "messages": 7471,
      "merveilleuse": 7472,
      "construction": 7473,
      "package": 7474,
      "telephoner": 7475,
      "customers": 7476,
      "adopte": 7477,
      "impatience": 7478,
      "defense": 7479,
      "physique": 7480,
      "ceremony": 7481,
      "ceremonie": 7482,
      "afrique": 7483,
      "weapon": 7484,
      "refrigerateur": 7485,
      "screaming": 7486,
      "meubles": 7487,
      "disturb": 7488,
      "scolded": 7489,
      "alcohol": 7490,
      "departure": 7491,
      "existence": 7492,
      "performance": 7493,
      "envisager": 7494,
      "definitely": 7495,
      "experiences": 7496,
      "data": 7497,
      "emot": 7498,
      "emotion": 7499,
      "etoile": 7500,
      "gants": 7501,
      "glance": 7502,
      "hais": 7503,
      "honey": 7504,
      "kar": 7505,
      "kil": 7506,
      "mn": 7507,
      "miens": 7508,
      "niez": 7509,
      "rattraper": 7510,
      "ralent": 7511,
      "spi": 7512,
      "swear": 7513,
      "uil": 7514,
      "vante": 7515,
      "yard": 7516,
      "refu": 7517,
      "remet": 7518,
      "injuste": 7519,
      "depri": 7520,
      "mepris": 7521,
      "jeta": 7522,
      "seated": 7523,
      "secours": 7524,
      "tomb": 7525,
      "noye": 7526,
      "coo": 7527,
      "cotes": 7528,
      "coach": 7529,
      "cooperation": 7530,
      "pel": 7531,
      "dimes": 7532,
      "antici": 7533,
      "ressources": 7534,
      "version": 7535,
      "trie": 7536,
      "offrir": 7537,
      "concours": 7538,
      "loo": 7539,
      "logy": 7540,
      "poursui": 7541,
      "rendra": 7542,
      "irrit": 7543,
      "perman": 7544,
      "lugg": 7545,
      "fox": 7546,
      "dissi": 7547,
      "disput": 7548,
      "discovered": 7549,
      "shake": 7550,
      "lettes": 7551,
      "gras": 7552,
      "impu": 7553,
      "minis": 7554,
      "mies": 7555,
      "brie": 7556,
      "crash": 7557,
      "mule": 7558,
      "appelles": 7559,
      "fame": 7560,
      "faisaient": 7561,
      "philo": 7562,
      "ounced": 7563,
      "corrige": 7564,
      "essaies": 7565,
      "tenter": 7566,
      "clos": 7567,
      "credi": 7568,
      "entendis": 7569,
      "shots": 7570,
      "habiller": 7571,
      "object": 7572,
      "occup": 7573,
      "surprising": 7574,
      "rug": 7575,
      "etudies": 7576,
      "montrerai": 7577,
      "rouges": 7578,
      "counting": 7579,
      "douze": 7580,
      "ottes": 7581,
      "bitten": 7582,
      "explications": 7583,
      "lightning": 7584,
      "confidence": 7585,
      "adorerais": 7586,
      "examiner": 7587,
      "partiel": 7588,
      "coutera": 7589,
      "cookie": 7590,
      "ennemis": 7591,
      "actuelle": 7592,
      "plaisante": 7593,
      "impressionnee": 7594,
      "foudre": 7595,
      "ennuie": 7596,
      "translated": 7597,
      "choisissez": 7598,
      "indivi": 7599,
      "delicate": 7600,
      "continuez": 7601,
      "apology": 7602,
      "assass": 7603,
      "disposais": 7604,
      "terriblement": 7605,
      "remplis": 7606,
      "retira": 7607,
      "constant": 7608,
      "plomb": 7609,
      "improve": 7610,
      "bothering": 7611,
      "cherchent": 7612,
      "grossier": 7613,
      "hambur": 7614,
      "verrouillee": 7615,
      "gratuit": 7616,
      "negative": 7617,
      "assumed": 7618,
      "ridiculous": 7619,
      "methode": 7620,
      "tattoo": 7621,
      "industry": 7622,
      "frequence": 7623,
      "techno": 7624,
      "invented": 7625,
      "weapons": 7626,
      "pleurait": 7627,
      "relationship": 7628,
      "statue": 7629,
      "eclata": 7630,
      "regular": 7631,
      "disgusting": 7632,
      "breathe": 7633,
      "consequences": 7634,
      "potatoes": 7635,
      "vehicule": 7636,
      "democr": 7637,
      "douzaine": 7638,
      "sophis": 7639,
      "challenge": 7640,
      "flash": 7641,
      "emotions": 7642,
      "kilos": 7643,
      "luggage": 7644,
      "17": 7645,
      "40": 7646,
      "fli": 7647,
      "fought": 7648,
      "gner": 7649,
      "gloves": 7650,
      "goute": 7651,
      "h30": 7652,
      "jer": 7653,
      "mout": 7654,
      "ograp": 7655,
      "pus": 7656,
      "raf": 7657,
      "shave": 7658,
      "tan": 7659,
      "tais": 7660,
      "taux": 7661,
      "retrouve": 7662,
      "reuses": 7663,
      "remove": 7664,
      "removed": 7665,
      "research": 7666,
      "enig": 7667,
      "encre": 7668,
      "enverrai": 7669,
      "thme": 7670,
      "topic": 7671,
      "ancient": 7672,
      "incompetent": 7673,
      "issante": 7674,
      "degre": 7675,
      "debat": 7676,
      "degout": 7677,
      "quas": 7678,
      "temo": 7679,
      "teurs": 7680,
      "sex": 7681,
      "etang": 7682,
      "chon": 7683,
      "usine": 7684,
      "dira": 7685,
      "tration": 7686,
      "sore": 7687,
      "log": 7688,
      "logie": 7689,
      "sonner": 7690,
      "sonna": 7691,
      "absur": 7692,
      "rendent": 7693,
      "myste": 7694,
      "motive": 7695,
      "mobil": 7696,
      "dumped": 7697,
      "poet": 7698,
      "voque": 7699,
      "derobe": 7700,
      "predict": 7701,
      "survivre": 7702,
      "agres": 7703,
      "choc": 7704,
      "fiable": 7705,
      "virer": 7706,
      "disais": 7707,
      "disappeared": 7708,
      "compar": 7709,
      "gron": 7710,
      "icile": 7711,
      "impli": 7712,
      "pige": 7713,
      "plafond": 7714,
      "humi": 7715,
      "humour": 7716,
      "arrivees": 7717,
      "souvenez": 7718,
      "acheta": 7719,
      "vaches": 7720,
      "metal": 7721,
      "entrez": 7722,
      "parent": 7723,
      "atique": 7724,
      "spite": 7725,
      "handy": 7726,
      "starts": 7727,
      "keeping": 7728,
      "alike": 7729,
      "trahi": 7730,
      "sleeps": 7731,
      "cast": 7732,
      "casser": 7733,
      "rainy": 7734,
      "juger": 7735,
      "warmer": 7736,
      "stupides": 7737,
      "battle": 7738,
      "empeche": 7739,
      "fausse": 7740,
      "imagined": 7741,
      "charges": 7742,
      "grossiere": 7743,
      "situations": 7744,
      "couter": 7745,
      "published": 7746,
      "sortis": 7747,
      "haircut": 7748,
      "positive": 7749,
      "domicile": 7750,
      "accompan": 7751,
      "pleuve": 7752,
      "appelee": 7753,
      "princi": 7754,
      "louder": 7755,
      "sweat": 7756,
      "streets": 7757,
      "possibly": 7758,
      "sells": 7759,
      "abilites": 7760,
      "entrance": 7761,
      "ringing": 7762,
      "purse": 7763,
      "qualified": 7764,
      "arian": 7765,
      "gathered": 7766,
      "fantomes": 7767,
      "issement": 7768,
      "soutien": 7769,
      "apparent": 7770,
      "appearance": 7771,
      "alentours": 7772,
      "africa": 7773,
      "fluently": 7774,
      "significant": 7775,
      "activit": 7776,
      "refrigerator": 7777,
      "square": 7778,
      "distinguer": 7779,
      "stress": 7780,
      "oxy": 7781,
      "security": 7782,
      "inevitable": 7783,
      "excellente": 7784,
      "temoin": 7785,
      "avert": 7786,
      "bage": 7787,
      "bound": 7788,
      "cave": 7789,
      "clar": 7790,
      "eager": 7791,
      "fetes": 7792,
      "flies": 7793,
      "glis": 7794,
      "gache": 7795,
      "ian": 7796,
      "jan": 7797,
      "joig": 7798,
      "maig": 7799,
      "nue": 7800,
      "nul": 7801,
      "natives": 7802,
      "ombre": 7803,
      "packed": 7804,
      "rage": 7805,
      "rack": 7806,
      "twin": 7807,
      "vache": 7808,
      "vali": 7809,
      "wild": 7810,
      "zer": 7811,
      "».": 7812,
      "reporter": 7813,
      "reviendrai": 7814,
      "enthous": 7815,
      "levez": 7816,
      "incapacite": 7817,
      "deco": 7818,
      "defi": 7819,
      "depla": 7820,
      "asing": 7821,
      "neces": 7822,
      "orient": 7823,
      "labor": 7824,
      "autu": 7825,
      "tured": 7826,
      "colo": 7827,
      "resti": 7828,
      "avo": 7829,
      "trap": 7830,
      "troub": 7831,
      "load": 7832,
      "tious": 7833,
      "ticated": 7834,
      "accur": 7835,
      "sting": 7836,
      "sienne": 7837,
      "wasted": 7838,
      "admis": 7839,
      "plied": 7840,
      "lly": 7841,
      "desaccord": 7842,
      "marque": 7843,
      "sheep": 7844,
      "tendu": 7845,
      "prec": 7846,
      "taches": 7847,
      "blew": 7848,
      "cuire": 7849,
      "vrait": 7850,
      "dist": 7851,
      "bienvenu": 7852,
      "granted": 7853,
      "finan": 7854,
      "touchez": 7855,
      "mince": 7856,
      "mirent": 7857,
      "plate": 7858,
      "jogging": 7859,
      "cardi": 7860,
      "aida": 7861,
      "humains": 7862,
      "souleve": 7863,
      "ainee": 7864,
      "bug": 7865,
      "litter": 7866,
      "faisant": 7867,
      "corn": 7868,
      "selfie": 7869,
      "portee": 7870,
      "interesses": 7871,
      "antee": 7872,
      "creative": 7873,
      "shock": 7874,
      "obst": 7875,
      "observe": 7876,
      "spir": 7877,
      "handled": 7878,
      "differe": 7879,
      "souvien": 7880,
      "sensitive": 7881,
      "ruin": 7882,
      "mangeons": 7883,
      "production": 7884,
      "critic": 7885,
      "ecrite": 7886,
      "utiles": 7887,
      "ballon": 7888,
      "arretee": 7889,
      "bargain": 7890,
      "salon": 7891,
      "restaurants": 7892,
      "gueule": 7893,
      "talents": 7894,
      "diriez": 7895,
      "sounded": 7896,
      "assiste": 7897,
      "current": 7898,
      "climate": 7899,
      "intentions": 7900,
      "enemies": 7901,
      "nearby": 7902,
      "bling": 7903,
      "trouvons": 7904,
      "burning": 7905,
      "oblig": 7906,
      "obliges": 7907,
      "regardait": 7908,
      "papiers": 7909,
      "daughters": 7910,
      "snowing": 7911,
      "pleuvait": 7912,
      "recovered": 7913,
      "payee": 7914,
      "subway": 7915,
      "endormie": 7916,
      "chanteuse": 7917,
      "circu": 7918,
      "teenager": 7919,
      "pickpockets": 7920,
      "noirs": 7921,
      "souhaiter": 7922,
      "qualite": 7923,
      "qualifie": 7924,
      "vegetar": 7925,
      "balance": 7926,
      "tracted": 7927,
      "miel": 7928,
      "average": 7929,
      "reduire": 7930,
      "privee": 7931,
      "professionnel": 7932,
      "automob": 7933,
      "lourde": 7934,
      "yelling": 7935,
      "depechez": 7936,
      "valentine": 7937,
      "gaspille": 7938,
      "miserable": 7939,
      "incredibly": 7940,
      "disturbed": 7941,
      "discutons": 7942,
      "volunteer": 7943,
      "blonde": 7944,
      "loyal": 7945,
      "comprehen": 7946,
      "investigation": 7947,
      "valuable": 7948,
      "noisy": 7949,
      "funeral": 7950,
      "bleeding": 7951,
      "egoiste": 7952,
      "avancer": 7953,
      "eclate": 7954,
      "meteo": 7955,
      "sophisticated": 7956,
      "accompanied": 7957,
      "enthousias": 7958,
      "autumn": 7959,
      "25": 7960,
      "300": 7961,
      "diez": 7962,
      "flir": 7963,
      "gger": 7964,
      "gnant": 7965,
      "hale": 7966,
      "haw": 7967,
      "lined": 7968,
      "mall": 7969,
      "ota": 7970,
      "ppe": 7971,
      "pese": 7972,
      "pping": 7973,
      "scri": 7974,
      "saig": 7975,
      "tint": 7976,
      "wave": 7977,
      "yond": 7978,
      "reproche": 7979,
      "escor": 7980,
      "leak": 7981,
      "levres": 7982,
      "ina": 7983,
      "inse": 7984,
      "deplace": 7985,
      "devenus": 7986,
      "asie": 7987,
      "neat": 7988,
      "ceiling": 7989,
      "passera": 7990,
      "suf": 7991,
      "beyond": 7992,
      "usa": 7993,
      "ressenti": 7994,
      "verres": 7995,
      "ays": 7996,
      "conte": 7997,
      "conques": 7998,
      "lois": 7999,
      "formed": 8000,
      "tires": 8001,
      "stret": 8002,
      "terie": 8003,
      "rented": 8004,
      "admet": 8005,
      "pop": 8006,
      "pomp": 8007,
      "desig": 8008,
      "manques": 8009,
      "edge": 8010,
      "tend": 8011,
      "tense": 8012,
      "quelconques": 8013,
      "cheek": 8014,
      "okay": 8015,
      "surr": 8016,
      "surprendre": 8017,
      "agon": 8018,
      "distr": 8019,
      "shirts": 8020,
      "hers": 8021,
      "useless": 8022,
      "niveau": 8023,
      "finit": 8024,
      "eteig": 8025,
      "personally": 8026,
      "airie": 8027,
      "pareil": 8028,
      "croient": 8029,
      "stub": 8030,
      "humor": 8031,
      "bucket": 8032,
      "vated": 8033,
      "mature": 8034,
      "selfish": 8035,
      "insane": 8036,
      "viendrez": 8037,
      "straw": 8038,
      "cloture": 8039,
      "privac": 8040,
      "aidera": 8041,
      "aches": 8042,
      "crimes": 8043,
      "region": 8044,
      "objet": 8045,
      "commences": 8046,
      "culp": 8047,
      "policy": 8048,
      "etudiantes": 8049,
      "mangea": 8050,
      "factures": 8051,
      "ignons": 8052,
      "border": 8053,
      "calend": 8054,
      "blessure": 8055,
      "doux": 8056,
      "conducteur": 8057,
      "tels": 8058,
      "classes": 8059,
      "produira": 8060,
      "products": 8061,
      "jupe": 8062,
      "judi": 8063,
      "empe": 8064,
      "fastest": 8065,
      "dangers": 8066,
      "volant": 8067,
      "breaking": 8068,
      "differences": 8069,
      "folded": 8070,
      "prisoner": 8071,
      "endroits": 8072,
      "exacte": 8073,
      "contraire": 8074,
      "although": 8075,
      "recuperer": 8076,
      "deadline": 8077,
      "agrees": 8078,
      "courageux": 8079,
      "skirt": 8080,
      "deserves": 8081,
      "kidn": 8082,
      "darker": 8083,
      "maitre": 8084,
      "punish": 8085,
      "traduit": 8086,
      "nettoye": 8087,
      "allumer": 8088,
      "camping": 8089,
      "scand": 8090,
      "screen": 8091,
      "prononce": 8092,
      "naif": 8093,
      "victime": 8094,
      "strike": 8095,
      "risks": 8096,
      "scientist": 8097,
      "souvenirs": 8098,
      "traduction": 8099,
      "demissionne": 8100,
      "idiots": 8101,
      "similaire": 8102,
      "effrayee": 8103,
      "detestent": 8104,
      "embarrassing": 8105,
      "candles": 8106,
      "tatou": 8107,
      "defend": 8108,
      "detruit": 8109,
      "interrompre": 8110,
      "batterie": 8111,
      "supplementaires": 8112,
      "prisonnier": 8113,
      "musician": 8114,
      "texte": 8115,
      "authority": 8116,
      "cows": 8117,
      "ghosts": 8118,
      "throat": 8119,
      "periode": 8120,
      "jaune": 8121,
      "supplies": 8122,
      "coutume": 8123,
      "mystery": 8124,
      "hilar": 8125,
      "paci": 8126,
      "cuillere": 8127,
      "courriel": 8128,
      "fournir": 8129,
      "quasiment": 8130,
      "privacy": 8131,
      "80": 8132,
      "ah": 8133,
      "atom": 8134,
      "ajou": 8135,
      "doutes": 8136,
      "edi": 8137,
      "equal": 8138,
      "kicked": 8139,
      "mation": 8140,
      "maid": 8141,
      "oven": 8142,
      "oses": 8143,
      "rout": 8144,
      "twel": 8145,
      "wing": 8146,
      "zes": 8147,
      "zing": 8148,
      "reus": 8149,
      "revienne": 8150,
      "error": 8151,
      "analy": 8152,
      "init": 8153,
      "issors": 8154,
      "dele": 8155,
      "demon": 8156,
      "depenser": 8157,
      "quent": 8158,
      "meter": 8159,
      "arna": 8160,
      "arched": 8161,
      "sees": 8162,
      "sele": 8163,
      "septe": 8164,
      "cel": 8165,
      "itali": 8166,
      "entou": 8167,
      "lamp": 8168,
      "ety": 8169,
      "unfair": 8170,
      "suits": 8171,
      "below": 8172,
      "dimin": 8173,
      "ressemblent": 8174,
      "wever": 8175,
      "libres": 8176,
      "mentally": 8177,
      "solit": 8178,
      "apprend": 8179,
      "donnes": 8180,
      "parts": 8181,
      "hoped": 8182,
      "however": 8183,
      "former": 8184,
      "fortes": 8185,
      "tives": 8186,
      "tical": 8187,
      "acy": 8188,
      "accueil": 8189,
      "actress": 8190,
      "sien": 8191,
      "terror": 8192,
      "rentres": 8193,
      "renverse": 8194,
      "adminis": 8195,
      "catho": 8196,
      "moto": 8197,
      "poil": 8198,
      "promo": 8199,
      "promit": 8200,
      "promotion": 8201,
      "irais": 8202,
      "voye": 8203,
      "voleurs": 8204,
      "bombe": 8205,
      "tendit": 8206,
      "expose": 8207,
      "existe": 8208,
      "illons": 8209,
      "agno": 8210,
      "aggres": 8211,
      "vier": 8212,
      "discourage": 8213,
      "agees": 8214,
      "mistook": 8215,
      "nier": 8216,
      "arrivait": 8217,
      "minor": 8218,
      "mens": 8219,
      "allergique": 8220,
      "asseyons": 8221,
      "surement": 8222,
      "personnelle": 8223,
      "personnellement": 8224,
      "mud": 8225,
      "inspiration": 8226,
      "enfre": 8227,
      "jouent": 8228,
      "causer": 8229,
      "emplettes": 8230,
      "simply": 8231,
      "pourraient": 8232,
      "centaines": 8233,
      "boue": 8234,
      "remembered": 8235,
      "milit": 8236,
      "calcul": 8237,
      "trouverais": 8238,
      "productive": 8239,
      "answering": 8240,
      "horaire": 8241,
      "grosses": 8242,
      "necessaires": 8243,
      "instin": 8244,
      "suivez": 8245,
      "sunglasses": 8246,
      "dettes": 8247,
      "baggage": 8248,
      "publicite": 8249,
      "agreement": 8250,
      "nette": 8251,
      "spoon": 8252,
      "boissons": 8253,
      "laws": 8254,
      "reussite": 8255,
      "approprie": 8256,
      "intelligence": 8257,
      "recover": 8258,
      "remark": 8259,
      "croyait": 8260,
      "buildings": 8261,
      "citiz": 8262,
      "tallest": 8263,
      "ciseaux": 8264,
      "scissors": 8265,
      "flew": 8266,
      "divorcer": 8267,
      "notebook": 8268,
      "ecrase": 8269,
      "bills": 8270,
      "champagne": 8271,
      "improved": 8272,
      "montagnes": 8273,
      "claus": 8274,
      "verrouiller": 8275,
      "taxis": 8276,
      "loudly": 8277,
      "adultes": 8278,
      "required": 8279,
      "cottage": 8280,
      "enfuir": 8281,
      "gambling": 8282,
      "debrouiller": 8283,
      "deprimee": 8284,
      "dessine": 8285,
      "epaules": 8286,
      "basketball": 8287,
      "fantastic": 8288,
      "snakes": 8289,
      "signification": 8290,
      "fraiche": 8291,
      "attempt": 8292,
      "compromis": 8293,
      "postponed": 8294,
      "scrat": 8295,
      "pulse": 8296,
      "logical": 8297,
      "serpents": 8298,
      "collecting": 8299,
      "grimper": 8300,
      "evanou": 8301,
      "marchandises": 8302,
      "enveloppe": 8303,
      "reprocher": 8304,
      "flexible": 8305,
      "individu": 8306,
      "hawai": 8307,
      "bs": 8308,
      "ease": 8309,
      "evac": 8310,
      "evide": 8311,
      "eprouve": 8312,
      "eprouv": 8313,
      "fainted": 8314,
      "jong": 8315,
      "knit": 8316,
      "mouse": 8317,
      "nana": 8318,
      "og": 8319,
      "rush": 8320,
      "sar": 8321,
      "saurait": 8322,
      "ouest": 8323,
      "recr": 8324,
      "envelo": 8325,
      "toir": 8326,
      "ison": 8327,
      "isant": 8328,
      "dego": 8329,
      "deresti": 8330,
      "asy": 8331,
      "aries": 8332,
      "thetic": 8333,
      "lawn": 8334,
      "estre": 8335,
      "chait": 8336,
      "underesti": 8337,
      "coins": 8338,
      "diver": 8339,
      "dions": 8340,
      "rescu": 8341,
      "avent": 8342,
      "condam": 8343,
      "parcourir": 8344,
      "forty": 8345,
      "forgiven": 8346,
      "accoun": 8347,
      "unemp": 8348,
      "renvoye": 8349,
      "cially": 8350,
      "ciers": 8351,
      "pensons": 8352,
      "prohi": 8353,
      "proces": 8354,
      "propri": 8355,
      "perple": 8356,
      "mesures": 8357,
      "prece": 8358,
      "exig": 8359,
      "exchange": 8360,
      "serions": 8361,
      "surveiller": 8362,
      "agger": 8363,
      "fich": 8364,
      "sade": 8365,
      "couvre": 8366,
      "venais": 8367,
      "folles": 8368,
      "distracted": 8369,
      "saisi": 8370,
      "tempt": 8371,
      "nicer": 8372,
      "fron": 8373,
      "ouvri": 8374,
      "arriv": 8375,
      "froi": 8376,
      "jamas": 8377,
      "mile": 8378,
      "joie": 8379,
      "carpet": 8380,
      "carottes": 8381,
      "commentaire": 8382,
      "garant": 8383,
      "trainer": 8384,
      "brain": 8385,
      "brand": 8386,
      "beside": 8387,
      "numbers": 8388,
      "visions": 8389,
      "wning": 8390,
      "cleared": 8391,
      "types": 8392,
      "furi": 8393,
      "fuite": 8394,
      "ication": 8395,
      "ically": 8396,
      "rafrai": 8397,
      "tenta": 8398,
      "televise": 8399,
      "huile": 8400,
      "auront": 8401,
      "bros": 8402,
      "stopping": 8403,
      "habillee": 8404,
      "cieuses": 8405,
      "spont": 8406,
      "oled": 8407,
      "reponds": 8408,
      "dorment": 8409,
      "attentif": 8410,
      "juice": 8411,
      "wishes": 8412,
      "turns": 8413,
      "acheterais": 8414,
      "lancer": 8415,
      "bataille": 8416,
      "tourna": 8417,
      "tourists": 8418,
      "apprecies": 8419,
      "banane": 8420,
      "examine": 8421,
      "plaintes": 8422,
      "sembla": 8423,
      "favori": 8424,
      "prude": 8425,
      "silver": 8426,
      "trouvais": 8427,
      "burg": 8428,
      "translation": 8429,
      "approved": 8430,
      "receive": 8431,
      "sacs": 8432,
      "fixe": 8433,
      "tests": 8434,
      "langage": 8435,
      "grows": 8436,
      "invitees": 8437,
      "linge": 8438,
      "moyenne": 8439,
      "magasins": 8440,
      "hautement": 8441,
      "responsables": 8442,
      "responsabilites": 8443,
      "pretendu": 8444,
      "199": 8445,
      "circle": 8446,
      "furieux": 8447,
      "promene": 8448,
      "bluff": 8449,
      "ambitieux": 8450,
      "cherchait": 8451,
      "target": 8452,
      "grown": 8453,
      "ramene": 8454,
      "pisto": 8455,
      "estival": 8456,
      "diplomat": 8457,
      "grades": 8458,
      "panier": 8459,
      "blanket": 8460,
      "negoci": 8461,
      "origine": 8462,
      "absente": 8463,
      "department": 8464,
      "particularly": 8465,
      "lapin": 8466,
      "excitant": 8467,
      "ecoule": 8468,
      "robber": 8469,
      "trompes": 8470,
      "composition": 8471,
      "principal": 8472,
      "industrie": 8473,
      "participe": 8474,
      "banana": 8475,
      "twins": 8476,
      "voisinage": 8477,
      "shaken": 8478,
      "musicien": 8479,
      "choquee": 8480,
      "survivors": 8481,
      "distribu": 8482,
      "classique": 8483,
      "postpone": 8484,
      "epargne": 8485,
      "etasuniens": 8486,
      "severe": 8487,
      "minimum": 8488,
      "mosqui": 8489,
      "execu": 8490,
      "puzzle": 8491,
      "crisis": 8492,
      "licencie": 8493,
      "russian": 8494,
      "moderne": 8495,
      "detonation": 8496,
      "manipu": 8497,
      "inhabituel": 8498,
      "soigneusement": 8499,
      "philoso": 8500,
      "cardiaque": 8501,
      "surrounded": 8502,
      "tatouage": 8503,
      "twelve": 8504,
      "evidemment": 8505,
      "dai": 8506,
      "faine": 8507,
      "fits": 8508,
      "gather": 8509,
      "gained": 8510,
      "ip": 8511,
      "knees": 8512,
      "mouve": 8513,
      "ophone": 8514,
      "pages": 8515,
      "pitie": 8516,
      "range": 8517,
      "ske": 8518,
      "tiez": 8519,
      "task": 8520,
      "west": 8521,
      "wol": 8522,
      "xophone": 8523,
      "rets": 8524,
      "remains": 8525,
      "remonte": 8526,
      "requis": 8527,
      "towards": 8528,
      "intime": 8529,
      "incorrect": 8530,
      "depasse": 8531,
      "deviens": 8532,
      "defen": 8533,
      "determiner": 8534,
      "teint": 8535,
      "medit": 8536,
      "vel": 8537,
      "sement": 8538,
      "itions": 8539,
      "quee": 8540,
      "entres": 8541,
      "entrain": 8542,
      "etro": 8543,
      "etonne": 8544,
      "chif": 8545,
      "ourdi": 8546,
      "lips": 8547,
      "aves": 8548,
      "soins": 8549,
      "confus": 8550,
      "congres": 8551,
      "contient": 8552,
      "hook": 8553,
      "loose": 8554,
      "fork": 8555,
      "acqui": 8556,
      "acts": 8557,
      "stage": 8558,
      "stances": 8559,
      "staff": 8560,
      "termes": 8561,
      "rendrait": 8562,
      "mono": 8563,
      "poete": 8564,
      "boites": 8565,
      "exage": 8566,
      "exagger": 8567,
      "sers": 8568,
      "servez": 8569,
      "saxophone": 8570,
      "cough": 8571,
      "worn": 8572,
      "tesse": 8573,
      "personn": 8574,
      "changing": 8575,
      "ierement": 8576,
      "placard": 8577,
      "preniez": 8578,
      "preser": 8579,
      "aimee": 8580,
      "vieill": 8581,
      "gardes": 8582,
      "garbage": 8583,
      "training": 8584,
      "croise": 8585,
      "humil": 8586,
      "courus": 8587,
      "phin": 8588,
      "sentent": 8589,
      "attendit": 8590,
      "malheureuse": 8591,
      "jouais": 8592,
      "autrefois": 8593,
      "raw": 8594,
      "causes": 8595,
      "cautious": 8596,
      "tentative": 8597,
      "etudiez": 8598,
      "genoux": 8599,
      "puts": 8600,
      "downtown": 8601,
      "commencent": 8602,
      "trace": 8603,
      "bougies": 8604,
      "interpreter": 8605,
      "calmes": 8606,
      "bible": 8607,
      "touristes": 8608,
      "secretaire": 8609,
      "secretary": 8610,
      "rases": 8611,
      "volcan": 8612,
      "bass": 8613,
      "fermees": 8614,
      "officer": 8615,
      "teered": 8616,
      "natale": 8617,
      "laughter": 8618,
      "freedom": 8619,
      "terrified": 8620,
      "terribly": 8621,
      "blin": 8622,
      "identite": 8623,
      "pointing": 8624,
      "skate": 8625,
      "ignorant": 8626,
      "suitcases": 8627,
      "artifi": 8628,
      "miennes": 8629,
      "enseignants": 8630,
      "chargee": 8631,
      "wheel": 8632,
      "expliqua": 8633,
      "poussiere": 8634,
      "disposee": 8635,
      "censes": 8636,
      "remplir": 8637,
      "milliers": 8638,
      "soucier": 8639,
      "complaint": 8640,
      "eigh": 8641,
      "camper": 8642,
      "campus": 8643,
      "longueur": 8644,
      "modele": 8645,
      "detendu": 8646,
      "walls": 8647,
      "opportunite": 8648,
      "increase": 8649,
      "connected": 8650,
      "scientists": 8651,
      "admired": 8652,
      "hundreds": 8653,
      "relative": 8654,
      "entraineur": 8655,
      "demarre": 8656,
      "americains": 8657,
      "crossing": 8658,
      "flag": 8659,
      "appuyer": 8660,
      "maternelle": 8661,
      "candle": 8662,
      "aimable": 8663,
      "volunteered": 8664,
      "informer": 8665,
      "insulte": 8666,
      "require": 8667,
      "cellphone": 8668,
      "califor": 8669,
      "strangers": 8670,
      "consacrer": 8671,
      "annoy": 8672,
      "manuel": 8673,
      "engagement": 8674,
      "bananes": 8675,
      "bananas": 8676,
      "foire": 8677,
      "valentin": 8678,
      "scientifiques": 8679,
      "fantastique": 8680,
      "kilometres": 8681,
      "elephant": 8682,
      "adolescent": 8683,
      "released": 8684,
      "brillant": 8685,
      "compromise": 8686,
      "grenier": 8687,
      "etendu": 8688,
      "decrire": 8689,
      "abattu": 8690,
      "boots": 8691,
      "commerce": 8692,
      "fourchette": 8693,
      "chaises": 8694,
      "pelouse": 8695,
      "rugby": 8696,
      "jerk": 8697,
      "humide": 8698,
      "distances": 8699,
      "stubborn": 8700,
      "propriet": 8701,
      "spontane": 8702,
      "11": 8703,
      "cad": 8704,
      "evil": 8705,
      "gien": 8706,
      "iest": 8707,
      "ibles": 8708,
      "mors": 8709,
      "mignons": 8710,
      "pag": 8711,
      "path": 8712,
      "rine": 8713,
      "tion": 8714,
      "taire": 8715,
      "umb": 8716,
      "vul": 8717,
      "vari": 8718,
      "rees": 8719,
      "repar": 8720,
      "reprendre": 8721,
      "eria": 8722,
      "lean": 8723,
      "inti": 8724,
      "isit": 8725,
      "depenses": 8726,
      "devoted": 8727,
      "quart": 8728,
      "attic": 8729,
      "secou": 8730,
      "het": 8731,
      "ortho": 8732,
      "lachez": 8733,
      "paste": 8734,
      "chairs": 8735,
      "nod": 8736,
      "unconscious": 8737,
      "pete": 8738,
      "pered": 8739,
      "usion": 8740,
      "divided": 8741,
      "outre": 8742,
      "goals": 8743,
      "homes": 8744,
      "acces": 8745,
      "stro": 8746,
      "gear": 8747,
      "plonge": 8748,
      "plastic": 8749,
      "montez": 8750,
      "pole": 8751,
      "posee": 8752,
      "potent": 8753,
      "machin": 8754,
      "provide": 8755,
      "wire": 8756,
      "permettez": 8757,
      "precis": 8758,
      "chever": 8759,
      "exchanged": 8760,
      "serrer": 8761,
      "serrure": 8762,
      "cuit": 8763,
      "surf": 8764,
      "drew": 8765,
      "journey": 8766,
      "justi": 8767,
      "vid": 8768,
      "vive": 8769,
      "discre": 8770,
      "distrait": 8771,
      "shared": 8772,
      "pup": 8773,
      "lets": 8774,
      "niques": 8775,
      "icien": 8776,
      "gery": 8777,
      "gerant": 8778,
      "financ": 8779,
      "laissons": 8780,
      "chers": 8781,
      "imper": 8782,
      "bonde": 8783,
      "reads": 8784,
      "bra": 8785,
      "brace": 8786,
      "ension": 8787,
      "humain": 8788,
      "soucis": 8789,
      "besoins": 8790,
      "appela": 8791,
      "devras": 8792,
      "insiste": 8793,
      "petrole": 8794,
      "petrin": 8795,
      "payes": 8796,
      "planes": 8797,
      "autrement": 8798,
      "strate": 8799,
      "euros": 8800,
      "overweight": 8801,
      "decent": 8802,
      "fasten": 8803,
      "century": 8804,
      "nuits": 8805,
      "evenement": 8806,
      "faces": 8807,
      "chauff": 8808,
      "demandai": 8809,
      "calin": 8810,
      "counter": 8811,
      "voisine": 8812,
      "honor": 8813,
      "blamed": 8814,
      "critical": 8815,
      "whichever": 8816,
      "confiant": 8817,
      "voies": 8818,
      "preparee": 8819,
      "pattes": 8820,
      "patiente": 8821,
      "echouer": 8822,
      "secondes": 8823,
      "boutique": 8824,
      "medecine": 8825,
      "curieuse": 8826,
      "collier": 8827,
      "respected": 8828,
      "massage": 8829,
      "bringing": 8830,
      "approcher": 8831,
      "espagno": 8832,
      "delicieuse": 8833,
      "frontiere": 8834,
      "clue": 8835,
      "beginner": 8836,
      "chinoise": 8837,
      "poignee": 8838,
      "strongly": 8839,
      "rassemb": 8840,
      "universe": 8841,
      "obligees": 8842,
      "gunshots": 8843,
      "considerer": 8844,
      "worthy": 8845,
      "disposent": 8846,
      "remporte": 8847,
      "fiee": 8848,
      "allumette": 8849,
      "soldat": 8850,
      "strugg": 8851,
      "retirez": 8852,
      "ecriture": 8853,
      "devenues": 8854,
      "amusees": 8855,
      "visitors": 8856,
      "repand": 8857,
      "pronounce": 8858,
      "mentioned": 8859,
      "cherchons": 8860,
      "dancer": 8861,
      "utilisez": 8862,
      "conditionne": 8863,
      "connection": 8864,
      "receipt": 8865,
      "criminel": 8866,
      "instrument": 8867,
      "millionaire": 8868,
      "siecle": 8869,
      "heurte": 8870,
      "descendu": 8871,
      "debts": 8872,
      "debate": 8873,
      "fantome": 8874,
      "signifi": 8875,
      "thousands": 8876,
      "dust": 8877,
      "material": 8878,
      "sejourner": 8879,
      "soldier": 8880,
      "autorite": 8881,
      "photograph": 8882,
      "enfui": 8883,
      "maths": 8884,
      "candidat": 8885,
      "conclusions": 8886,
      "gaspiller": 8887,
      "accroche": 8888,
      "alternatives": 8889,
      "grabbed": 8890,
      "battery": 8891,
      "cuisiniere": 8892,
      "rejete": 8893,
      "rejected": 8894,
      "plaisanterie": 8895,
      "maigre": 8896,
      "tiendra": 8897,
      "achieved": 8898,
      "reminded": 8899,
      "ponctuel": 8900,
      "hesitez": 8901,
      "split": 8902,
      "despise": 8903,
      "delai": 8904,
      "attirante": 8905,
      "coiffe": 8906,
      "measure": 8907,
      "dedicated": 8908,
      "profite": 8909,
      "electronique": 8910,
      "obscurite": 8911,
      "douloureux": 8912,
      "brievement": 8913,
      "sarcas": 8914,
      "envelope": 8915,
      "rescued": 8916,
      "ament": 8917,
      "brow": 8918,
      "balles": 8919,
      "cable": 8920,
      "cds": 8921,
      "eif": 8922,
      "fab": 8923,
      "kk": 8924,
      "ko": 8925,
      "leng": 8926,
      "murs": 8927,
      "nations": 8928,
      "rait": 8929,
      "scep": 8930,
      "tai": 8931,
      "wis": 8932,
      "wreck": 8933,
      "yers": 8934,
      "zone": 8935,
      "zation": 8936,
      "rein": 8937,
      "reci": 8938,
      "relu": 8939,
      "revient": 8940,
      "retenu": 8941,
      "reprises": 8942,
      "ony": 8943,
      "aido": 8944,
      "tole": 8945,
      "toler": 8946,
      "anony": 8947,
      "leure": 8948,
      "develo": 8949,
      "depit": 8950,
      "aster": 8951,
      "mexi": 8952,
      "attirer": 8953,
      "artic": 8954,
      "vecut": 8955,
      "ili": 8956,
      "lacet": 8957,
      "lacer": 8958,
      "etab": 8959,
      "etend": 8960,
      "toma": 8961,
      "tub": 8962,
      "tube": 8963,
      "rots": 8964,
      "und": 8965,
      "suffe": 8966,
      "beating": 8967,
      "respirer": 8968,
      "whale": 8969,
      "trage": 8970,
      "track": 8971,
      "appetit": 8972,
      "approch": 8973,
      "allong": 8974,
      "convi": 8975,
      "contrain": 8976,
      "paran": 8977,
      "parten": 8978,
      "hokk": 8979,
      "aca": 8980,
      "siff": 8981,
      "songer": 8982,
      "washer": 8983,
      "cane": 8984,
      "postu": 8985,
      "prom": 8986,
      "proven": 8987,
      "promettre": 8988,
      "prophe": 8989,
      "volle": 8990,
      "manches": 8991,
      "prevoir": 8992,
      "exprime": 8993,
      "surge": 8994,
      "surprenant": 8995,
      "surgery": 8996,
      "agan": 8997,
      "aghet": 8998,
      "sake": 8999,
      "safel": 9000,
      "venge": 9001,
      "vides": 9002,
      "disc": 9003,
      "dislike": 9004,
      "saisis": 9005,
      "merde": 9006,
      "ongles": 9007,
      "gris": 9008,
      "dras": 9009,
      "misunderstood": 9010,
      "nirent": 9011,
      "finds": 9012,
      "ministre": 9013,
      "miers": 9014,
      "worker": 9015,
      "nerfs": 9016,
      "prenne": 9017,
      "prennent": 9018,
      "carrots": 9019,
      "mentez": 9020,
      "ideal": 9021,
      "affame": 9022,
      "besides": 9023,
      "muscles": 9024,
      "appelait": 9025,
      "courts": 9026,
      "parlerai": 9027,
      "isee": 9028,
      "typho": 9029,
      "pouvaient": 9030,
      "aimerions": 9031,
      "inscri": 9032,
      "jouets": 9033,
      "devas": 9034,
      "cloth": 9035,
      "crew": 9036,
      "anged": 9037,
      "spaghet": 9038,
      "handker": 9039,
      "policiers": 9040,
      "bedtime": 9041,
      "rising": 9042,
      "engager": 9043,
      "repondez": 9044,
      "dresse": 9045,
      "international": 9046,
      "interfere": 9047,
      "bited": 9048,
      "profiter": 9049,
      "trouverai": 9050,
      "trouveras": 9051,
      "achetee": 9052,
      "revele": 9053,
      "critici": 9054,
      "sauta": 9055,
      "difficulties": 9056,
      "utilite": 9057,
      "sincerement": 9058,
      "stepped": 9059,
      "exams": 9060,
      "examined": 9061,
      "salut": 9062,
      "satisfaire": 9063,
      "supposes": 9064,
      "contentes": 9065,
      "professeurs": 9066,
      "buried": 9067,
      "virus": 9068,
      "classmates": 9069,
      "levee": 9070,
      "regardais": 9071,
      "domest": 9072,
      "experienced": 9073,
      "journaliste": 9074,
      "accomplish": 9075,
      "emplois": 9076,
      "emploie": 9077,
      "pajamas": 9078,
      "autoriser": 9079,
      "garderai": 9080,
      "endormis": 9081,
      "halfway": 9082,
      "confes": 9083,
      "confuse": 9084,
      "traversa": 9085,
      "envoie": 9086,
      "envoyez": 9087,
      "assurez": 9088,
      "blackboard": 9089,
      "apparemment": 9090,
      "aboie": 9091,
      "aboyer": 9092,
      "viendriez": 9093,
      "environnement": 9094,
      "preterai": 9095,
      "rompre": 9096,
      "nationale": 9097,
      "champion": 9098,
      "quality": 9099,
      "electrique": 9100,
      "galerie": 9101,
      "cousins": 9102,
      "tranquilles": 9103,
      "communication": 9104,
      "judged": 9105,
      "panique": 9106,
      "repete": 9107,
      "hidden": 9108,
      "swam": 9109,
      "secrete": 9110,
      "americaine": 9111,
      "washington": 9112,
      "pencils": 9113,
      "desirez": 9114,
      "envoya": 9115,
      "traitement": 9116,
      "materi": 9117,
      "adult": 9118,
      "adulte": 9119,
      "effon": 9120,
      "procedure": 9121,
      "candidature": 9122,
      "panneau": 9123,
      "frequent": 9124,
      "toys": 9125,
      "craint": 9126,
      "snack": 9127,
      "scary": 9128,
      "efficient": 9129,
      "assiette": 9130,
      "adolescents": 9131,
      "objectifs": 9132,
      "optimiste": 9133,
      "optimistic": 9134,
      "pleura": 9135,
      "relevant": 9136,
      "thrown": 9137,
      "jumeaux": 9138,
      "invention": 9139,
      "fascinating": 9140,
      "sympathique": 9141,
      "gratuitement": 9142,
      "descendit": 9143,
      "british": 9144,
      "russe": 9145,
      "essaierai": 9146,
      "recommanda": 9147,
      "witness": 9148,
      "victim": 9149,
      "arrogant": 9150,
      "legerement": 9151,
      "motorcycle": 9152,
      "lifted": 9153,
      "sacrifi": 9154,
      "acquainted": 9155,
      "mystere": 9156,
      "apparently": 9157,
      "accurate": 9158,
      "automobile": 9159,
      "eteignez": 9160,
      "aggressive": 9161,
      "prohibited": 9162,
      "televiseur": 9163,
      "pistolet": 9164,
      "bracelet": 9165,
      "eiffel": 9166,
      "length": 9167,
      "articles": 9168,
      "suffered": 9169,
      "hokkaido": 9170,
      "volley": 9171,
      "safely": 9172,
      "handkerchief": 9173,
      ".»": 9174,
      "45": 9175,
      "60": 9176,
      "bav": 9177,
      "dd": 9178,
      "dames": 9179,
      "epe": 9180,
      "festival": 9181,
      "ived": 9182,
      "june": 9183,
      "knee": 9184,
      "laires": 9185,
      "nails": 9186,
      "pills": 9187,
      "sne": 9188,
      "sword": 9189,
      "vy": 9190,
      "vage": 9191,
      "wa": 9192,
      "wound": 9193,
      "ouille": 9194,
      "renomme": 9195,
      "essor": 9196,
      "online": 9197,
      "leves": 9198,
      "indifferent": 9199,
      "deter": 9200,
      "deces": 9201,
      "deposer": 9202,
      "deviendra": 9203,
      "deviennent": 9204,
      "neuve": 9205,
      "atro": 9206,
      "arily": 9207,
      "searched": 9208,
      "ching": 9209,
      "aud": 9210,
      "roy": 9211,
      "dotee": 9212,
      "coward": 9213,
      "peel": 9214,
      "beef": 9215,
      "digne": 9216,
      "ressembles": 9217,
      "resister": 9218,
      "verrais": 9219,
      "avril": 9220,
      "ayant": 9221,
      "april": 9222,
      "ambas": 9223,
      "formid": 9224,
      "timbre": 9225,
      "sides": 9226,
      "gee": 9227,
      "abst": 9228,
      "advenu": 9229,
      "plut": 9230,
      "plastique": 9231,
      "treating": 9232,
      "dut": 9233,
      "polie": 9234,
      "posons": 9235,
      "proprie": 9236,
      "promettez": 9237,
      "provided": 9238,
      "votres": 9239,
      "shel": 9240,
[...]
