#version: 0.2
č Ċ
Ġ t
o u
r e
Ġ d
Ġ a
Ġ p
Ġ s
o n
i s
e n
e s
Ġ l
e r
Ġ c
i n
Ġ m
Ã ©
h e
a n
Ġ n
i t
Ġ w
o m
Ġ f
q u
a s
Ġ b
Ġ y
l l
Ġ v
a t
Ġy ou
Ġd e
Ġ h
Ġt o
ou s
a r
Ġ qu
a i
v e
o r
en t
J e
u n
Ġt he
Ġt h
es t
in g
Ġ Ã
Ġ g
Ġp as
l e
T om
a is
Ġqu e
e d
e t
u s
Ġn e
e u
Ġ j
' t
o t
ou r
Ġ un
Ġ o
Ġ re
t e
r i
o i
Ġm e
ĠÃ ł
Ġl e
an t
a it
Ġl a
Ġs u
o w
s e
Ġ ?
Ġ in
i l
i d
i m
Ġb e
Ġh a
c e
Ġ is
Ġ e
Ġt r
Ã ¨
a y
Ġ en
I l
Ġd o
ll e
i on
c h
Ġ r
Ġ he
ou t
Ġo f
Ġ est
Ġc h
Ġp r
a u
Ġv ous
Ġa n
Ã© t
Ġc e
Ġ I
' s
m ent
Ġth at
a l
l d
k e
m e
i c
h at
Ġt e
a in
Ġl i
Ġ on
Ġs e
T he
v er
Ġp l
i e
o s
Y ou
p p
t u
i r
Ġp ar
Ġf or
eu x
Ġc om
Ġ Tom
o o
Ġd on
t re
Ġw as
H e
on s
g h
re n
Ġ it
Ġ k
t er
Ġw e
a d
Ġha ve
an d
Ġp our
Ġa u
ai re
en d
a v
Ġun e
a g
Ġa s
Ã ª
i ll
on t
Ġj e
ou ld
v ous
a m
Ġn ot
Ġw ant
Ġ Ã©t
Ġyou r
a c
Ġth is
' m
re s
n e
Ġsu is
b le
u t
an s
gh t
Ġg o
Ġa ll
o p
u r
i en
Ġs t
Ġc an
W e
â Ģ
Ã© e
oi r
Ġl es
Ġm y
' re
a ll
n ow
qu e
Ġs o
u e
Ġa t
Ġt u
Ġd Ã©
Ġf aire
Ġk now
o re
Ġm on
Ã¨ re
er s
Ġd id
N ous
it h
an g
Ġa v
i f
âĢ ¯
u i
u re
Ġw ith
ar d
m p
Ġs om
Â ł
Ġli ke
l y
Ġa ve
T u
t es
Ġa re
Ġc on
I t
V ous
Ġd es
S he
in k
i g
Ġpr o
o l
ĠÃ ª
Ġs h
en s
E lle
us t
Ġd ans
o is
h ing
Ġpl us
Ġn ous
Ġf r
or t
es s
c t
Ġ !
e z
Ġ M
Ġe x
Ã¨ s
s t
oo k
a ve
Ġa b
h er
§ a
o se
Ġf ait
Ġ ri
Ã© c
Ġw hat
i re
eu r
a p
u p
Ġw h
Ġth ink
ar y
ĠÃ §a
on e
o in
Ġm a
W hat
Ġa r
W h
on g
Ġsu r
Ġh is
r ai
e l
Ġt out
Ġt a
im e
Ġan y
Ġv eux
Ã© s
i er
Ġh im
Ġa l
D o
Ġd u
T h
Ġa m
u l
Ġde v
at ion
Ġave c
Ġqu i
d e
Ġv er
' ll
ou v
Ġw or
Ġs a
et te
ic i
Ġ us
' ve
Ġque l
b l
c i
Ġd is
d re
Ġcom p
im p
en se
Ġan d
The y
oo d
a re
p e
Ġpar t
o y
ag e
Ġab out
Ġt ime
Ġs i
at e
Ġg et
ĠM ary
Ã ł
mp s
on ne
L e
c he
Ġg r
it e
Ġc r
Ġ et
Ġhe re
Ġver y
m es
Ġs ont
Ġp eu
Ġr Ã©
os t
Ġf e
i ve
Ġdid n
in d
all y
Ġse e
f f
c c
Ġ out
u x
Ġm an
Th is
C om
Ġs on
Ġa pp
ot re
T hat
our s
l a
ou ve
Ġre n
id e
ou p
t en
Q ue
Ġ up
r o
ver y
u is
Ġd it
Ġtr Ã¨s
i lle
H ow
Ġha d
N e
in e
r ais
Ġwe re
Ġne ed
Ġm ais
Ġp ense
C e
Ġh er
Ġv ou
Ġha pp
s i
ĠÃª tre
Ġs er
d ay
Ġh as
ren t
P our
Ġon e
as e
Ġde m
Ġte mps
Ġm oi
qu oi
D on
i ght
Ġt ou
m er
al k
L a
Ġw ill
Ġgo ing
r y
j e
Ġc l
Ã »
Ġv rai
a pp
t Ã©
ll es
Ġl ui
Ġv otre
ĠÃ©t Ã©
Ġsh ould
Ã ´
om e
Ġp eux
Ġa g
ou n
ĠÃ©t ait
Ġj ust
ĠÃª tes
Ġbe au
' d
he re
Ġre s
Ġs ais
us e
p r
Ġc he
Ġj am
as t
Ġch ose
A re
Ġn o
l p
n er
ion s
Ġl ook
Ġg ood
a k
v en
Ġ Ã©
L es
Ġ es
an ce
ot her
Ġc ette
Ã §
Ġ ici
Ġl ong
ie z
a ble
av ai
i ce
Ġhe lp
Ã ¹
Ġjam ais
Ã ®
Ġm ar
u it
Ġd ire
ay s
Ġto o
Ġwor k
Ġt on
t hing
Ġtr avai
Ġ ent
as s
Ġpar l
o b
Ġw ould
Il s
Ġc o
Ġce la
ou ght
Ġb ien
res s
Ġp ens
Ġvrai ment
ai d
ai r
Ġthe re
i Ã¨re
Ġc ould
m b
Ġc ar
M y
un e
Ġre ally
d y
ad e
Ġ il
Pour quoi
Ġte ll
Ġfr om
ar t
Wh y
is t
Ġtr ain
c k
Ġ imp
Ġp ers
ac k
Ġto i
e p
if f
l f
Ġc a
or s
Ġe very
Ġb y
Ġsom e
Q u
Ġat t
i v
Ġb r
Ã© r
Ġa d
le ase
Ġt alk
Ġl o
ig n
or te
it Ã©
m oi
Ġd iff
Ġdo es
Ġb es
Ġp er
Ġquel que
Ġbe en
ar g
Ġs eu
ri end
ch er
ang er
Ġpas s
Ġbes oin
c oup
Ãª te
or d
Ġli v
Ġs av
Ġs tu
Ġg ot
Ġcom e
Ġc ont
Ġm ore
Ġne ver
Ġvou l
Ġof f
Ġn ow
Ġth an
e lle
Ġf in
Ġdem and
Ġp e
is e
The re
i ent
Ġsom et
Ġm ain
C an
ri ve
Ġp re
Ġb ut
Ġb us
Ġbeau coup
Ã© l
re e
is h
or m
Ġf au
I s
on d
E st
Ġm u
Ãª tre
Ġ if
Ġave z
Ã© es
Ġav ons
le ment
se z
Ġl et
o it
Ġt ous
oun d
Ġp ren
on n
u d
b re
Ġb l
Ġh ome
Ġsom mes
Ġas k
Ġw r
Ġse m
Ġall er
Ġsomet hing
Ġd r
ang e
Ġparl er
a b
Ġmu ch
Ġpl a
Ġqu est
Ġj us
Ġs p
Ġon t
Com ment
Ġf er
Ġe at
Ġs pe
is s
Ġm at
Ġf at
Ġs ay
Ġm al
Ġf riend
Ãª me
Ġgr and
Ġp os
o le
L et
Ġcom m
Ġpeu t
Ġta ke
ĩ a
Ġhapp en
Ġl Ãł
Ġre ad
Ġri ght
Ġex p
ais s
u m
Ġen c
Ġmais on
O n
Ã ĩa
Ġhe ure
e y
Ġ B
Ġa f
Ġb u
ai me
Ã©t ait
Ġh ow
Ġl it
i es
Ġt om
Ġma ke
j ours
Ġtr op
Ġtou jours
ant s
Ġri en
o dy
i que
r ait
Ġj our
g e
Ġv en
ic k
Ġv a
ar s
Ġ F
D id
Ġ Ã©c
Ġde ux
Ġfe el
Ġv oir
t ing
Ġ ou
Ġb ook
Ġpr Ã©
Ġmon ey
Ġn ouve
Ġp ouv
d s
Ġth ought
se lf
oi re
Ġp ri
er t
Ġm es
ve z
Ġwh en
Ġb ack
i le
Ġthe y
Ġenc ore
Ġb et
il s
Ġl ast
Ġa cc
Ġmon de
Ġs he
Ġv oit
Ġb on
i eux
Ġqu oi
Ġsu re
Ã ¢
Ġr o
Ġwh o
f e
Ġp i
oo l
Ġan s
Ġre g
Ġsu pp
Ġbe l
Ġl ot
Ġen f
Ġre t
T out
Ġany thing
Ġne w
ien s
Ġv ais
Ġto ld
us si
Ġd ay
il d
Ã´ t
Ġcom me
Ġlo ve
Ġin t
j our
Ġp h
en ce
ri ed
Ġa i
ain e
er n
Ġquel qu
Ġth ing
p t
ĠdÃ© c
A s
Ġav oir
Ġ or
ou gh
Ġf ais
Que l
r ow
ost on
M on
Ġp a
E n
Ġun d
ĠB oston
r a
op le
n ing
Ã©t ais
Ġag ain
Ġfau t
Ġdoes n
ous e
Ġdo is
Ġvoit ure
Ġso it
d u
Ġd i
g l
a ch
Ġw at
u res
Ġm ust
W here
Ġg u
ot h
t ed
E lles
ai mer
P lease
Ġc ons
Ġcon n
le z
Ġv ie
ri ez
ten ant
Ġf ois
Ġm ade
id ent
b ien
arg ent
ave z
h ui
Ġw ay
Ġtravai l
Ġo ld
Ġ ke
ĠrÃ© p
ri v
a me
ow n
Ġs aid
ie ve
Ġm o
aimer ais
es e
Ġspe ak
jour d
Ġ J
Ġy e
Ġv u
t le
O Ã¹
I f
Ġp et
Ġm in
Ã© ri
Ġ eu
ĠdÃ© s
Ġav ait
Ġs ou
Ġv is
ai ent
Ġa ussi
Wh o
end re
Ġst ill
Ġp u
Ã¨ me
Ġpe ople
Ġp le
Ġto day
ouve z
Ġc are
Ã® t
n Ã©
Ġfr an
Ġw on
Ġn om
a ke
Ġpr is
an te
Ġmain tenant
Ġw ent
Ġc all
Ġf am
ac t
Ġpro bl
Ġs es
Ġj ou
w ays
Ġp ol
or row
S i
Ġdo ing
Ġh ouse
Ġbet ter
Ġs Ã»
Ġo Ã¹
Ġhapp y
Ã§ ais
N o
rent s
Ġs m
Ġbel ieve
Ġc our
ren ch
Ġal ways
Ġre c
Ġpl an
b ody
e k
Å ĵ
i Ã©
ver s
Ġst ay
Ġon ly
Ġm om
Ġce ci
Ġjus te
Ġd ern
Ġfran Ã§ais
Ġs ent
Ġt w
Ġt en
re d
Ġn ight
Ġro om
Ġpl ay
op e
Ġpers onne
Ġthe m
ĠF rench
Ġpr om
Ġ A
Ġwe ek
r Ã©
f ore
Ġau jourd
Ġseu l
ess ay
t y
Ġpr op
Ġj ob
Ġse c
Ġa w
Ġre st
ers t
Ġche z
Ġw ait
Ġbe fore
cc up
Ġt er
âĢ Ļ
ou ver
ch ool
f t
Ġa c
Ġh ard
Ġm Ãªme
H ave
Ġo ver
Ġre p
Ã©l Ã©
Ġm et
Ġpa rents
mb er
Ġp orte
Ġv eu
Ġ id
Ġp ay
Ġman y
Ġtr y
Ġd own
Ġf l
Ġo p
Ġquest ion
i qu
Ġmom ent
Ġin v
Ġliv re
Ġf u
Ġs imp
Ġlit tle
Ġ our
Ġs chool
Ġg ive
Ġch ild
Ġis n
Q ui
ĠdÃ© j
Ġpens ais
it u
ĠdÃ©j Ãł
an c
n Ã©e
r it
ble m
U n
m in
est er
i z
Ġpro blem
Ġreg ard
he d
pr Ã¨s
at t
Ġh and
Ġund erst
Ġt Ã©lÃ©
Ġs ouv
Ġle ave
p h
E very
as se
Ġwant ed
g et
Ġpren dre
Ġs ort
av ais
end u
Ġg l
k es
Ġh ier
Ġa che
ent ion
o g
Ġp Ã¨re
e au
Ġ im
A vez
Ġm ieux
ct ion
Ġas sez
ur n
Ġw here
Ġdo g
P ers
ire d
Ġdis c
f ul
Ġs oir
Ġb onne
re at
Ġe mp
Ġaf ter
Ġwe ll
ester day
Ġd Ã©t
it y
E s
n ous
Ã Ģ
Ġcomp ren
Ġl aiss
Pers onne
Ġle ft
le ep
om me
Ġtr ois
re t
Ġbe c
Ġcon f
ac c
en c
Ġsur pr
Ġunderst and
Ġal one
Ġtom orrow
id er
au tre
e x
tu re
ent s
Ġs c
r Ãª
Ġhappen ed
Ġfat her
Ġf ind
Ġli ve
us s
eur s
Ã Ĭ
Ġprobl Ã¨me
t h
au v
pe ct
Ġqu and
Ġar riv
Ġdem ain
Ġm us
os es
Ġbu y
ÃĬ tes
Ġen ough
Ġdev rais
x t
Ġsee m
Ġre m
Ġau tre
Ġ C
Ġm anger
Ġtout es
Ġs w
Ġs ans
Ġth ree
Ġy esterday
oin t
Ġin te
Ġd Ã»
Ġp ut
Com bien
ul t
Ġde p
Ġme et
Ġdis p
es p
Ġdon e
Ġav ant
Ġask ed
Ġm or
C ette
o c
k ing
Ã© d
Ġpla Ã®t
Ġh ur
Ġen d
Ġdr ink
Ġg ens
Ġsav oir
ag er
Ġren c
Ġimp ort
Wh en
Ġen v
Ġtw o
re ad
Ġsa w
Ġo ccup
Ġfriend s
Ġte a
Ġ T
au x
Ġint o
Ġp lease
Ġtr ouv
Ġs ens
Ġf ut
Ġa im
Ġ ide
Ġst art
Ãª tes
it ion
D e
Ġe ver
Ġr ais
ĠÃ©t ud
Ġ S
Ġn uit
Ġenf ants
c le
ĠJ ap
ou te
er re
Ġexp l
Ġevery thing
te ment
Ġau x
si ble
C el
Ġpart ir
Ġp res
Ġhe ures
at ed
Ġe lle
Ġau t
ar ie
Ġpla ce
a ce
Ġc es
or ry
ai l
Ġc oup
Ġl is
Ġin c
Ġtou te
Ġwh y
M a
oun t
Ġc at
Ġf o
Ġa prÃ¨s
Ã© n
Ġtravai ll
ar rive
Ġch ien
Ġ essay
Ġne xt
Ġas s
ar n
ir st
b e
Ġcom ment
Ġcon c
w n
Ġch a
ff e
Ġh ope
Ġpet it
is ed
Ã©c ole
j et
Ġl ate
Ġhe ar
Ġad v
v es
an k
Ġg ir
Ġsimp lement
Cel a
ent e
ĠdÃ© p
Ġbus y
Ġau c
av ant
is ion
Ġm ont
Ġ 1
Ġo b
Ġ other
Ġwr ong
Ġde c
W ould
Ġre f
Ġta ble
Ġl un
Ġb o
Ġaw ay
Ġw alk
Ġcon d
Ġvoul ais
A ll
in t
Ġk ind
u te
Ġnot re
Ġt es
Ġch oses
ĠsÃ» r
Ġdo or
Ġf un
Ġs leep
Ġch er
Ġp ouvez
Åĵ ur
r Ã©c
Ġm Ã¨re
Ġdern iÃ¨re
Ġfe m
Ġres ter
Ġquelqu es
Ġpass Ã©
Ġk ne
Ġp oint
Ġv iv
ais se
Ġpro f
P uis
Ġide a
ĠM arie
Ġp uis
Ġre me
Ġnot hing
Ġch ance
Ġf irst
Ġsh ow
lle ment
Ġpour quoi
Ġch am
Ġwas n
Ġm ot
at her
re r
Ġans w
Ġveu t
Ġv ol
te mps
end s
tre r
ill es
et s
Ġc ert
us es
g g
Ġv os
Ġmat in
Ġven ir
Ġph ot
Ġs orry
o ck
ou d
om p
Ġg ar
Ġquest ions
Ġc or
Ġm ay
os s
i ous
Ġj ours
end ant
Ġca me
Ġt urn
Ġd ur
Ġal read
Ġheure ux
Ġreme mber
Ġalread y
re z
n g
Ġg ave
Ġr app
Ġye ars
Ġe ar
Ġe ven
Ġp at
Ġnouve au
Ġbe ing
Ġb ed
Ġpro b
R e
Ġcomp l
Ġthing s
Ġb ad
Ġy et
Ġd ou
Ġke ep
Ġpol ice
Ġid Ã©e
Ġkne w
aid er
Ġm oin
Ġany one
Ġtoo k
Ġcould n
le ur
Ġb ig
Ġm other
Ġus ed
Ġha b
ch Ã©
Ġso on
t s
Ġs ait
Ġen se
Ġli fe
Ġlook ing
Ġmor ning
Ġn ame
Ġm ind
Ġb ou
or y
Ġpr Ãª
Ġex c
im es
Ġwith out
Ġren d
Ġr ain
ut es
Ġstu d
Ġl u
Ġwat ch
Ġa ff
Ġp ain
Ġt ired
Ã¨ rent
Ġar rive
Y our
ici le
ĠdÃ©s ol
is ter
Ġp eur
av oir
Ġt Ã´t
at s
Ġimport ant
Ġop en
i ch
i gh
Ġv i
au rais
Ġcr oire
Ġc le
Ġf ac
Ġinte res
esp Ã¨re
l es
Ġm auv
Ġb est
Ġmauv ais
p ar
Ġsem ble
ic t
r is
Ġtr ouver
Ġf ound
Ġpre m
Ġhe ard
Ġst r
H is
Ġse en
ig u
Qu and
ph one
l Ã©
Ġm ist
Ġvou lez
Ġtea cher
Ġ Â
Ġfor t
Ġsem aine
Ġl ost
qu i
Ġme ill
Ġdiff icile
ĠprÃ© f
Ġmin utes
bl es
Ġren dre
a le
Ġl ang
Ġc ou
Ġg ard
il y
Ġpr Ã©s
Ġcon se
Ġof ten
Ġseu le
Ġchild ren
Ġthe ir
Ġr Ã©s
Ġdemand Ã©
Ġl ors
Ġc et
Ġsa me
Ġus e
Que lle
Ġb oy
Ġv oy
Ġacc ident
S t
Ã§ on
Ġp o
Ġn on
Ġpar le
y ez
Ġha ven
Ġa ider
Ġtr a
ang Ã©
Ġread y
Ġent endu
ui re
Ġrais on
ro it
Ġf ille
Ġth ese
Ġin s
ac he
rai d
je un
Ġm iss
Ġw ish
En gl
u ter
Ġc ap
est e
Ġqu it
e lles
Ġe l
Ġwat er
Ġansw er
Ġcham bre
Ġan n
Ġsouv ent
Ġdep uis
Ġfat igu
Ġch ange
Ġsav ais
Ġaf raid
Ġpi Ã¨
e ll
in s
Ġpro ch
a z
Ġs at
ot e
Ġstu dy
Ġprop os
ĠrÃ©p on
m ble
v ent
Ġdiff ic
Ġtom b
M ay
Ġm Ã©
Ġso l
Ġdo ct
Ġel se
Ġp endant
Ġs ing
Ġyou ng
ri ver
Ġin tÃ©
Ġstu p
Ġ ord
Ġst op
Ġcont r
Ġyour self
Ġam is
are d
Ġe as
Ġfem me
r ap
Ġc ol
Ġbe g
Ġpers on
in ce
Ġh omme
ri ons
Ġpos sible
Ġcr ois
or ter
C ould
g ry
Ġin f
if e
Ġlong temps
Ġpri e
Ġt ard
Ġam i
Ã© g
Ġque lle
all er
Ġco ld
is hed
Ġre v
Ġcon v
Ġf ai
Engl ish
Ġn u
Ġsec ret
os ed
Ġpart y
Ġjus qu
id Ã©
Ġr un
Ġd orm
Ġm is
Ġv Ã©r
ais sez
Ġar rÃª
Ġret ard
Ġm ort
Ġf il
Ġg reat
ce pt
ation s
ign ore
Ġle arn
Ġmy self
er ai
Ġpre t
he ure
Ġarriv Ã©
i p
i ed
Ġcomm enc
it al
ch es
Ġch oi
Ġvis it
Ġfe w
is te
Ġc am
Ġf i
Ġb ro
Ġser a
Ġache tÃ©
Ġpas se
Ġgir l
Ġab s
f ait
r ass
Ġnom bre
o ke
Ġb ought
Ġtalk ing
Ġgl ad
erre ur
Ġsh o
Ġmat ter
a lement
Ġs k
jeun er
Ġsw im
Ġlet tre
re ak
or k
onn es
Ġmo v
ag es
t r
le d
p er
Ġwant s
Ġbl ess
ĠintÃ© ress
Ġim m
Ġg ag
Ġf Ãªte
at er
ien ne
Ġwh ile
Ġar ound
Ġlet ter
Ġtrouv Ã©
er ve
Ġm ag
Ġli re
Ġper du
a use
y s
Ã¨ res
Ġ English
ar m
lle z
aire s
Ġvou d
Ġt ri
Ġp ic
Ġc ount
Ġm ight
ust r
Ġget ting
Ġear ly
Ġmoin s
Ġa ble
Ġn ice
u g
Ġs Åĵur
Ġl eur
Ġf ood
ien ce
t if
it es
at h
Ġca f
Ġg en
Ġtr ue
Ġpouv ons
Ġjou er
B e
Ġdon t
Ġper m
P ar
u es
Ġh ot
Ġpour rait
Ġdev ons
ĠÃ© p
Ġdemand e
ain s
acc ord
ond er
Ġrenc ont
ĠJap an
r ant
Ġknow s
Ġdev en
Ġsort ir
ĠpiÃ¨ ce
c es
Ġs ister
in ner
oi d
Ġmar ried
Ġtravaill er
ille z
U ne
Ġye ar
ut il
i a
Ġan other
ĠÃ©t aient
Ġlook s
m ost
Ã ī
A u
er ci
Ġsu jet
Ġs ign
Ġv ois
Ġex pect
Ġw onder
Ġb reak
Ġapp el
Ġ O
Ġt ried
Ġs al
Ġe ff
m ore
re am
Ġd anger
an y
v Ã©
ment s
ut h
Ġn our
Ġmar i
0 0
Ġm ent
Ġa ren
Ġso is
Ġnouve lle
Ġhur t
ent re
Ġdo it
i ble
tif ul
Ġv ille
Ġe mb
Ġfr Ã¨re
Ġbr other
Ġmeet ing
Ġw ind
Ġsu ch
Ġany more
Ġgr os
Ġfor g
Ġdon ner
Ġlis ten
is Ã©
ĠtÃ©lÃ© phone
Ġh un
ai e
Ġdev riez
Ġpass er
Ġinv it
iz e
Ġcaf Ã©
i vers
Ġa ct
Ġbeau tiful
Ġwould n
ĠvÃ©r itÃ©
S ome
Ġo wn
j oy
Ġ erreur
Ġs au
t oi
Ġtr uth
Ġres p
Ġdo ll
Ġall Ã©
ve d
av ons
p ital
Ġjour nÃ©e
Ġd ays
ĠÃ ¢
Ġgrand e
Ġp ap
Ġpres que
Ġ 2
is er
Ġbec ause
Ġch ant
d i
h ab
Ġou bl
Ġme an
avant age
n is
ffe e
Ġs itu
Ġdiffic ult
Ġa ime
Ġret our
o k
ĠC h
Ġe y
Ġfait es
Ġfil m
Ġt our
Ġtr ouve
Ġatt ention
Ġphot o
ustr al
Ġd avantage
app rÃ©c
Ġpens Ã©
Ġsupp ose
Ġd ir
Ġcom ing
Ġco ffee
Ġcont in
Ġprof ess
S on
Ġm ine
Ġst ation
Ġten nis
A r
Ġf ar
Ġin ter
im ent
Ġen joy
ren dre
Ġso yez
Ġal most
Ġfam ille
P ouvez
r Ãªte
Ġje une
T ell
Ġd inner
Ġpart ie
Ġdiff Ã©
n y
Ġb ure
ĠdÃ© b
Ġf all
Ġre l
ll ow
Ġk id
Ġemp l
Ġar g
Every one
te au
Ġent re
Ġbure au
Ġconn ais
Ġon ce
Ġdiff e
Ġwait ing
Ġdoct or
m Ãªme
Ġch au
av or
ol og
Ġdev oir
Ġbook s
get her
ad i
Ġd ress
Ġfam ily
er a
Ġpro d
Ġshould n
Ġrest au
Ġcert ain
l Ãł
l ui
Ġw in
us ed
Ġton ight
Ġc ri
Ġde vez
Ġto gether
Ġnew s
Ġcare ful
ict ion
i ate
Ġb it
Ġliv res
Ġpet ite
C h
o on
Ġh ate
Ġdon nÃ©
Ġf avor
Ġg ent
Ġvoul ait
Ġwr ite
P eux
i ers
Ġc uis
in c
ic y
arg e
om m
au ght
A t
D is
c in
v ing
e mp
Ġsu gg
ĠÃ©t iez
Ġter min
Ġauc une
el t
I n
Ġa p
Ġc ook
Ġn at
Ġte llement
Ġsome one
Ġtry ing
Ġcom bien
Ġk ill
ress ion
anc es
Ġs ong
Ġch at
au t
Ġwork ing
Ġf elt
ri re
Ġe ach
Ġli kes
Ġfor get
Ġsat is
p l
Ġa ide
Ġc op
pp ed
Ġatt end
Ġr is
re ux
Ġp ort
Ġseem s
w e
y ing
Ġc al
Ġm ess
ren ce
oy ez
Ġpouv oir
Ġsitu ation
Ġf eu
Ġb oth
Ġh or
Ġre al
Ġven u
Ġv oi
ai de
Ġwor ld
Ġlong er
Ġph one
Ġb ir
ĠdÃ©sol Ã©
n es
Ġoccup Ã©
u ie
on que
Ġtr ust
Ġex am
ĠrÃ© un
Ġfin i
Ġenf ant
Ġeas y
P eu
h ait
Ġv ac
Ġs l
Ġs it
ĠdÃ© jeuner
Ġpret ty
V eu
Ã© p
ĠÃ©t ais
Ġwor d
Ġmin ute
ar k
Ġsi x
Ġpren d
ĠÃ©tud i
G et
Ġtr ou
Ġli ght
ĠprÃ©s ent
Ġrestau rant
W ill
Ġc in
Ġsu ff
Veu illez
Ġs ick
Ġbe h
b all
Ġs ound
Ġn ager
Ġb ri
Ġdi ed
ill Ã©
Ġdi x
itu de
u ally
Ġs ous
Ġb ag
id i
Ġrenc on
qu Ã©
at eur
Ġprob able
ĠprÃª t
g er
Ġstart ed
Ġt y
Ġm angÃ©
Ã©t Ã©
Ġex act
rit ure
t il
u v
Ġw ife
Ġh igh
ad ore
Ġdemand er
Ġv as
Ġv iens
Ġte mp
Quel qu
G ive
Ġdev rait
Ã©r Ã©
Ġconf i
Ġenv ie
Ġdoll ars
M ary
Ġ util
Ġa ir
Th ank
Ġauc un
T ake
Ġt Ãªte
om mes
ais e
Ġst and
Ġheure use
Ġcha que
P ren
s on
Ġf ace
Ġg one
Ġsu iv
Ġcl ass
Ġfin ished
Ġsou hait
Ġm ois
Do es
Ġam us
Ġres te
ĠrÃ©un ion
om an
Ġwind ow
u me
Ġwe ar
Ġser ait
Ġseu lement
Ġwr it
Ġsurpr ised
Ġviv re
Ġinf orm
3 0
Ġv ite
ure r
Ġsp end
M erci
Ġd iction
Ġm ost
Ġb icy
Ġv ieux
Ġin st
Ġlors que
G o
V ou
Ġd Ã®
ĠÃ©t r
Ġpers onnes
Ġmal ade
iqu es
Ġim ag
Ġth ose
Ġg are
ĠdÃ© m
Ġcompren dre
ĠmÃ© de
Ġcol Ã¨re
V eux
as on
Ġsu cc
Ġpour rais
Ġache ter
Ġcompren ds
Ġlu ck
Ġstup id
Vou lez
Ġf ils
id ed
Ġdev rions
g ard
Ġd rive
ri r
Ġfer ais
D onne
ĠdÃ© r
Ġser v
Ġense mble
Ġlook ed
ĠsÃ» re
Ġf ig
Ġb i
Ġr ap
Ġpi an
Ġresp ons
Ġbicy cle
Ġs our
Ġs tre
Ġhis t
ĠA ustral
Ġfac ile
Ġnour riture
k en
Ġser ai
Ġfo llow
Ġmist ake
Ġvoud rais
Ġforg ot
Ġqu ite
Ġmeill eur
Ġfatigu Ã©
S a
Ġp ays
Ġm en
Ġrec onn
Ġlun ch
Ġgar Ã§on
Ġ "
Ġv it
ve l
je ct
ĠdÃ©t este
Ġmus ic
ĠJap on
F ais
e ver
Ġcond uire
St op
C es
w here
Ġy eux
Ġex ac
Ġmont h
Ġm il
Ġb or
Ġfr oid
Ar rÃªte
Ġ ir
Ġa in
Ġc ours
in ess
Ġpr Ã¨s
Ġpu bl
Ġv ue
ure d
Ġlaiss er
Ġth Ã©
tu r
Ġne ar
Ġoff ice
Ġpris on
Ġmet tre
ĠrÃ©pon se
N ob
v ision
Ġf ire
Ġmov ie
S h
Ġun til
Ġta x
Ġman iÃ¨re
Ġjour n
o ld
Ġcomp te
i b
Ġ Je
en Ãªtre
Ġc Ã´
Ġf enÃªtre
Ġr ou
Ġpr ud
Ġwe ather
Ã§ u
Ġoubl iÃ©
Ġst ory
Ġar t
Ġser ais
Nob ody
Ġb oire
Ġh air
Ġpl ais
ĠÃ©c rit
Ġch ang
Ġma kes
l er
at ing
Ġcomp le
Com e
Ġad m
Ġregard er
Ġlaiss Ã©
L aisse
Ġf our
Ġin d
Ġevery one
Ġsupp osed
Ġund er
Ġf it
Ġcon tre
ig e
ient Ã´t
Ġsu c
Ġr Ãª
Ġwor ry
Ġche min
Ġco Ã»
Ġdisp os
Ġey es
m Ã©
Ġs ince
Ġan im
Ġam ie
Ġaut ant
Ġd ream
Ġreg ret
Ġprem ier
Ġconfi ance
Ġbe lle
Ã¨ te
Ġtravai lle
iss ion
ĠT V
ĠÂ «
Ġrap ide
r as
w ork
Ġs Ã©ri
at es
Ġh ours
Ġce lui
Ġyour s
Ġag o
ab ly
Ġessay Ã©
in er
Ġany body
Ġser ious
Ġtra vers
l ot
m an
w ard
Ġf ast
Ġr u
Ġr ob
Ġhe ad
Ġad d
Ã©l o
Ġconn aiss
Ġain si
Ġan gry
Ġsur v
Ġsm all
att end
Ġautre s
Ġexac tement
ou bl
oy er
Ġread ing
ĠprÃ© v
Ġpian o
Ġt imes
Ġgu ess
Ġsurpr is
Ġdorm ir
i end
Ġb ientÃ´t
Ġag ree
Ġdern ier
Ġbro ke
Ġs il
ri Ã¨re
and e
Ġop in
k ed
n a
Ġs y
gh ter
Ġparl Ã©
Ġt ant
Ġt ick
Ġar river
Ġter ri
ĠÂ »
Ġvoy age
Ġh um
Ġha ving
al s
Ġexact ly
c er
Ġtr u
Ġtr ans
Ġpri x
Ġconn a
Ġdisc uss
e m
Ġf a
Ġhim self
Ġcont ent
Ġend roit
Ġadv ice
Ġpic ture
an che
Ġv Ã©lo
ag ne
Ġfe ll
Ġplay ing
Ġr adi
Ġk iss
ur g
ĠcÃ´ tÃ©
Ġv ient
Ġus ually
Ġcontin u
O ur
n oon
Ġto r
eu re
ver t
Ġcl ose
Ġcall ed
Ġcha uss
Ġtrou ble
Ġf on
Ġh on
ar rÃª
et t
m idi
Ġc aught
Ġdes s
Ġpart i
Ġatt endre
Ġfeel ing
Ġafter noon
Ġmus ique
ĠmÃ©de cin
Ġs ays
Ġn os
Ġre ason
ic al
Ġliv es
Ġal ors
ĠrÃ© f
Ġpouv ais
Ġac tu
Ġdec ided
Ġbou lot
Ġstud ents
ĠdÃ® ner
c u
c ed
l ess
Ġc as
Ġmon tre
Ġpi ed
Ġexpl ain
Ġturn ed
Ġprobable ment
Ġp op
Ġch ans
ic onque
Ġpl ut
am ment
Ġsa fe
Ġcor re
Re gard
Ġcount ry
Ġf ou
Ġg uit
oi g
ant Ã©
Ġr an
al th
Ġver re
iqu er
Ġhand s
Ġcle an
Ġproch aine
Ġf ree
Ġb ois
et tes
Ġpens er
Ġinteres ted
apprÃ©c ie
z e
Ġ L
Ġs us
Ġs te
Ġm ange
Ã©c ess
are r
Ġco lle
Ġca use
Ġgen re
a bles
Ġm our
Ġeat ing
Peu t
J ust
Ġl oin
Ġte ach
Ġli eu
Ġpl ait
Ġwe ren
Ġall ow
Ġapp re
u y
Ġg Ã©n
Ġprob ably
Ġprofess eur
p ort
ill er
Ġche ve
ĠÃ¢ ge
s ide
Ġd au
Ġp ois
Ġb at
Ġv ers
Ġj oin
Ġpr oud
ut ion
Ġac cept
Ġhab it
Ġinteres ting
A pp
M es
T ous
l ais
et tre
Ġli b
ass es
Ġappre ci
Ġre d
ic ul
mer ic
oth ers
Ġpat ient
Ġarrive d
Ġcheve ux
H er
h Ã´
Ġb an
Ġg Ã¢
Ġar m
um Ã©
Â »
Ġn Ã©cess
Ġv al
ren te
el er
Ġfo ot
Ġpuis se
Ġjourn al
Ġto wn
ak es
Ġpens es
Ġid i
Every body
Ġbo x
Ġfi x
Ġradi o
h ors
in tÃ©
Ġprem iÃ¨re
Ġnu mber
Ġplut Ã´t
Ġs ac
Ġde ad
Ġth r
res se
Ġthink ing
Ġdis app
Ġsem bl
Ġconc ert
Ġc ost
Ġsu per
ens es
ort h
Ġdiffe rent
y o
Ġde hors
Ġg ame
ang lais
Ġapp rÃ©c
use ment
Ġes c
Ġlang u
Ġt re
Ã¨ mes
ven u
Ġchant er
i al
Ġb ill
ar rass
le ct
av ait
Ġopin ion
L aissez
N ot
r on
Ġs now
ain es
ign or
Ġsurpr ise
Ġle av
Ġla w
Ġdis t
Ġapp ris
Ã® tre
g r
Ġ E
Ġth ir
Ġcat ch
ok yo
Ġprod uit
e red
Â «
Ġ P
is es
en ir
fe ct
Ġpay er
par avant
Ġthr ough
n ent
u f
Ã© b
Ġb ab
Ġsu m
Wh ich
bl ig
Ġhome work
iz ed
Ġfai m
Ġfon ction
Ġpop ul
V otre
h omme
Ġl eurs
Ġl ater
ll y
ĠÃ© ch
ĠdÃ©c idÃ©
Ġchoi x
A m
Ġqu ick
Ġte le
Th ese
Ġes p
Ġjou e
Ġarg ent
Ġdau ghter
L ook
e ep
Ġ G
ll ig
Ġag e
Ġadv ised
Ġmess age
ce p
Ġpar fait
Ġau paravant
ur itÃ©
Ġessay er
. "
Ġb ar
Ãª cher
imp orte
Es s
Ġimm Ã©d
Ġfavor ite
Ġ ouv
Ġb as
Ġall ons
Ġso ld
Ġv in
Ġch anger
che d
Ġpeu vent
Ġent endre
Ġtri p
Ġappreci ate
Ġpar k
d d
t her
gl ais
Ġchau d
K eep
o king
Ġp un
ĠM on
ĠrÃ© ve
ten ir
Ġimp os
Ġrencon trer
Ġty pe
c tu
Ġs un
Ġde l
Ġdit es
Ġagain st
Ġdisc uter
Ã ¯
Ġs Ã©c
Ġh os
Ġri ch
Ġout side
ĠT okyo
Ġsugg est
ĠimmÃ©d iate
n ot
Ġs Ã©
Ġtr ait
Ġst o
Pour riez
Ġliv ing
Ġfin ish
Ġsay ing
ĠA meric
Ġinte llig
Ġvi end
Ġsu b
ith er
ig ne
Ġprobl Ã¨mes
Ġth en
Ġgr ow
Ġapp rendre
Ġmar cher
c s
Ġl arge
Ġb out
ĠdÃ©sol Ã©e
Ġdevoir s
Ġhist oire
o h
Ġd iv
Ġcomp uter
Ġneed s
ĠÃ© g
Ġbus iness
Ġnouve lles
Ġpouv ait
Ġproch ain
Ġt ent
Ġr ac
al ent
Ġcomm ence
Ġke pt
Ġbec ome
ĠimmÃ©diate ment
c ess
Ġt ree
le t
ens ive
ap on
Ġma ch
Ġpense z
Ġtou ch
Ġconv ain
Ġhos pital
Ġd ro
Ã© m
Ġw ine
Ġla u
Ġli e
Ġatt rap
Ġ D
om et
un k
Ġo blig
Ġsu it
ow er
Ġtr ave
Ġpr Ã©c
Ġta king
Ã´ le
Ã§ ons
lf riend
Ġvis ite
Ġstr ong
ĠJapan ese
Ġhun gry
N otre
ai lle
Ġsh ort
Ġsec ond
Ġsho es
Ġc u
Ġv ont
te z
Pour rais
ress ed
ĠrÃ©pon dre
Ġimpos sible
ri c
Ġper dre
Ġprom ise
Ġgir lfriend
Ġ H
Ġg re
Ġhe alth
Ġrencont rÃ©
Ġbeh ind
Ġbor n
Ġ Åĵ
Ġc ut
ic ation
Ġcl oth
Ġc ent
Ġc ass
Ġf ore
us er
Ã¨ ve
Ġan glais
ĠÃ©t ions
Ġma king
Ġbu ild
Ġoccup Ã©e
Ġord in
Ġsuff is
Ġimag in
g an
Ġm oy
Ġte am
Ġche ck
ven ir
ĠsÃ©c uritÃ©
c l
r ou
Ġs avez
Ġc oin
Ġr Ã¨
Ġpar ce
Ġpe ine
Ġold er
Ġbo Ã®
Ġense ign
z z
Ġw ar
Ġpar c
Ġfr ont
lÃ© ch
Ġbeg in
Ġcommenc Ã©
Ġchauss ures
ĠnÃ©cess aire
Ġbab y
V oud
us Ã©
Ġam ou
qui pe
Ġpubl ic
ĠMon day
r ons
Ġd ie
Ġp ick
Ġf ier
Ġsav ait
Ġmain s
Ġgu y
r ay
Ġl ose
Ġl um
Ġw oman
Ġb ase
Ã¨ tement
que l
Ġcompl ain
Ġgag ner
Ġtax i
Ġf ive
am ed
ci ent
Ġneed ed
mb re
Ġper fect
Ġcher cher
May be
Ġchoi ce
Ġmag as
Ġbir th
Ġsum mer
f er
en ez
ap eau
Ġwork s
ĠÃ©c rire
Ġstay ed
Ġtermin Ã©
f ast
o ccup
Ġa llez
Ġp aid
in st
ri eur
Ġch ois
Ġab and
Ã¢ t
Ġsw e
Ġrev oir
At t
Ġap olog
Ġlau gh
f ois
Ġc ade
Ġb Ã©b
ire r
Ġeat en
Ġdisp ose
Ġcin q
a w
Ġd er
Ġs ave
Ġri che
Ġcomp any
Ġcl asse
Ġfu ll
ĠÃ©tud ier
Ġcompl Ã¨tement
Ġlang ue
Ġs antÃ©
on de
ag it
ĠÃ© v
air s
Ġsimp le
Ġcap able
Ġnombre ux
V oi
r Ã©e
Ġd ate
Ġa te
Ġs oi
Ġo pp
Ġpr in
Ġau rait
Ġren trer
Ġprop re
Ġhur ry
Ġtomb er
P ense
b as
Ġm ur
ĠÃ©c out
Ġcloth es
f u
Ġh at
Ġav ais
Ġvoul ons
ĠO K
Ġmach ine
E x
F ait
S ais
Ġd ark
in es
Ġm ed
Ġde al
ant es
Ã©t r
que lle
Ġfer ai
ĠdÃ©c ision
Ġcert aine
Ġbless Ã©
Ġbreak fast
Ġcomple te
Ġchans on
l us
Ġ z
Ġp ie
Ġc ity
Ġf ish
ai g
Ġil s
Ġbr uit
Ġlun di
Ġstud ent
Ġsign if
Ã §a
Ġd im
Ġj u
Ġk n
oy Ã©
Ġcr az
Ġple uv
Ġrep ort
P enses
f ort
Ġp ress
Ġl aisse
Ġh it
te l
Ġen n
Ġfr app
ĠÃ© l
Ġke y
Ġt est
Ġs orte
Ġh our
Ã©t ud
Ġpart icul
Ġdeven ir
Ġempl oi
Ġidi ot
Ġder riÃ¨re
W as
Ġ K
Ġc Åĵur
Ġbe er
ic s
ag Ã©
Ġren t
Ġimp ression
Ġfun ny
Ġrapide ment
Ġquick ly
ĠboÃ® te
Ġcraz y
l i
Ġ ill
Ġd roit
it ed
Ġb iÃ¨re
Ġre Ã§u
Ġpl ain
os er
Ġfr uit
Ġevery body
Ġvi ol
hab itude
er ais
Ġn umÃ©
Ġg un
Ġj apon
pp ing
Ġres se
Ġfu mer
ĠtÃ©lÃ© vision
Ġaut or
ĠnumÃ© ro
D ites
an nÃ©e
tre s
Ġexp ensive
Ġass is
Ġinvit ed
Ġfa Ã§on
p s
Ġc up
Ġf leur
Ġdes c
Ġappel Ã©
Ġvac ances
Pense z
Fait es
l ent
Ġ R
Ġt rente
Ġfor m
Ġmon trer
ci al
Ġaim Ã©
Ġpres ent
Ġwatch ing
ĠbÃ©b Ã©
S avez
l s
n aire
Ġp oi
at ive
Ġen g
ir Ã©
Ġas leep
Ġres pect
Ġper d
iqu Ã©
Ġcommenc er
Ġutil iser
b ed
Ġch apeau
ul es
Ġimp at
Ġvoul oir
Ġpol it
int ention
c Ã©
t te
in dre
Ġf as
Ġce lle
la ce
Ġsc ared
Ġrapp elle
Ġmauvais e
ĠarrÃª tÃ©
Ġwear ing
ĠrÃ©f lÃ©ch
Ġbuild ing
r Ã©s
Ġr oute
Ġbr ing
Ġhot el
Ġmagas in
T on
b y
t a
en er
Ġl ist
Ġl Ã©g
at re
Ġhe art
tu res
Ġcom es
Ġpro jet
iv es
Ġsouv iens
r ist
Ġl ait
Ġne cess
ĠAustral ia
Ġb ot
Ġde ath
us h
Ġre ce
Ġcan not
Ġwh ole
Ġqui et
Ne w
Ġsp ent
Ġmo d
Ġdec ision
we en
Ġluck y
m ing
Ġt all
Ġw orth
Ġf ont
Ġb oss
Ġne igh
ie l
Ġpar v
Ġwor ried
Ġcl Ã©
Ġsp ort
Ġkid s
Ġneigh b
T o
h ist
r un
Ġm Ã©d
Ġn er
it Ã©s
Ġw he
Ġne ige
Ġpos er
Ġple in
Ġstup ide
Ġbeg an
ĠarrÃª ter
Ġinform ation
Ġtick et
Ġtor t
T ry
Ã© rer
Ġn Ã©
Ġn ois
Ġe m
Ġe lles
Ġr ue
Ġgo es
ĠrÃ© al
Ġres s
Ġpren ds
Ã¢ mes
acc ident
Ġlive d
Ġpuis s
Ġsatis fait
S omet
Ġf act
qu er
ai m
Ġle g
oin ted
Ġdev ant
ĠrÃ© uss
art h
Ġproblem s
Ġpap er
A im
T r
s et
Ġ others
Ġa it
Ġw all
Ġde b
He re
Com me
ĠrÃ©p ond
Ġbec ame
Ġsatis f
Ġrob e
arrÃª ter
C et
t on
Ġm ill
Ġf ight
Ġf asse
Ġv Ãªte
Ġch oc
Ġpr Ãªte
ĠI t
ir t
Ġst ore
Ġso in
che z
Ġtell ing
Ġacc omp
gl es
Ã©ri f
Ġrec omm
Ġrapp ort
Ġgard er
ivers aire
Ġmil k
Ġterri ble
D es
Ġ urg
ce ed
Ġapp ro
Ġlo ck
Ġdr unk
Ġbet ween
Ġfais ait
Every thing
Ġchang ed
a ff
Ġt im
Ġr are
Ġdon c
end ed
ag ed
Ġri ver
Ġpos si
Ġhand le
Ġcle ar
ĠprÃ©f Ã¨re
Ġstudy ing
Ġcade au
b res
r u
Ġn orm
it er
Ġv e
un day
Ġj et
Ġst y
cc as
ro om
Ġca ke
Ġfin ir
Ġweek end
Ġveu lent
Au c
Ġlangu age
Ġbirth day
Ġ Can
Ġs et
on ner
Ġb le
ous s
Ġli bre
Ġam b
ache ter
o ve
Ã «
Ġd est
on om
oo se
ĠdÃ© f
ap e
Ã» t
Ġsupp os
Ġor gan
Ġrem ar
ĠS unday
Ġ1 9
Ġkill ed
Ġrou ge
Ġtrave l
ĠvÃªte ments
n oc
qu es
Ġb orrow
at ure
Ġwh ich
Ġta kes
ette z
Ġcl im
Ġcl osed
Ġwr ote
Ġvie ille
Ġallow ed
fu lly
r ance
Ġat te
ens Ã©
Ġgu erre
Ġnombre uses
Ġsucc ess
Ġplais ir
n ed
Ġtr ad
Ã¨ que
Ġli ked
Ġsom me
Ġvoul u
orm ais
Ġsto pped
d ing
l o
n ess
ou dre
Ġr ather
ill age
Ġri v
Ġbr as
Ġpos s
Ġpos te
Ġconse il
Ġlors qu
Ġabs ol
M any
i ver
Ġf us
ri es
Ġla quelle
Ġso le
Ġmar chÃ©
Ġtalk ed
Ġthan k
Ġple urer
Ġexc uses
Ġaff aires
Ġmist akes
Ġmiss ed
Ġcuis ine
i eurs
Ġ Y
Ġ Par
Ġh id
ar i
Ġin noc
Ġr Ã©c
ap er
Ġhelp ed
Ġpre fer
Ġhappen ing
Ġaff aire
Ġstr ange
Ġsy mp
Ġto t
Ġha lf
Ġget s
Ġfer m
Ġexp er
Ġcour t
Ġnecess ary
Ġd ange
Ġp orter
ar re
id ence
Ġe arth
Ã¨ ne
Ġwor ds
are il
No Ã«
Ġmeill eure
Ġord er
ĠÃ©tudi ants
ĠgÃ¢ teau
Ġsole il
NoÃ« l
Ġc ase
Ġm ang
Ġj ard
Ġknow n
rai ent
bl i
Ġwork ed
ail s
Ġlum iÃ¨re
O ne
i Ã¨res
Ġm er
Ġn erve
Ġf illes
Ġqu atre
or tes
Ġha ut
Ġpl ans
Ġdon ne
Ġspeak ing
Ġple as
Ġfl o
Ġabs ent
Ġdanger ous
o d
Ġ New
Ġs ense
Ġn oir
un es
Ġse ll
Ġfor ward
Ġal ong
Ġche m
Ġche v
Ġcar te
Ġlis te
Ġmot s
Ġstre et
Ġconna Ã®t
Ġmour ir
Ġimpat ient
Ġp an
Ġup set
Ġsm oking
Ġter re
ĠintÃ©ress ant
Ġsuffis amment
Ġpossi b
e mb
g Ã©
Ġ N
Ġ ess
Ġt as
en f
Ġbe ach
ay ez
res t
Ġren du
Ġent rer
Ġpre p
Ġsou ff
Ġenv ir
Ġeven ing
Ġfig ured
Ġreconn aiss
oh n
S oyez
c ul
d ess
s h
Ġh ors
Ġqu iconque
Ġse at
Ġpl uie
Ġco at
Ġfin ally
Ġspeak s
Ġexpect ed
Ġprud ent
ĠrÃª ve
j ou
m as
Ġin j
me ll
Ġpl age
We re
Ġri re
Ġbr ought
Ġpri v
ĠdÃ©s ormais
Ġfu ture
ĠsÃ©ri e
Ġcorre ct
Ġthir ty
Ġordin ateur
Ġjard in
r om
Ġ eux
Ġc ard
Ġb Ã¢t
ue l
Ġoff er
Ġbl ack
Ġplan e
ĠrÃ©s oudre
ccas ion
Ġf is
Ġv Ã©rif
Ġre qu
ir ai
Ġit s
Ġles s
Ġman que
Ġman teau
Ġdemand a
Ġsou ci
Ġsol ution
Ãī t
Ġdiction ary
Ġdiction naire
L ors
Ġv aut
Ġle ast
ow ers
Ġch angÃ©
Ġam ies
Ġhapp ens
Ġphot os
Ġemb arrass
Ġdiv or
Ġcu ri
Ġcomplete ly
Ġdim anche
rist mas
m on
m ment
Ġt asse
ent endre
Ġan nÃ©e
Ġri d
Ġann Ã©es
Ġrun ning
Ġbro ken
Pren ds
C ert
u ment
Ġ u
Ġd riv
Ġs mell
er v
Ġc ir
Ġc Ã©l
se l
Ġpr ot
Ġte lle
Ġav oc
Ġlo ves
Ġmo ve
Ġac cep
Ġfu rent
Ġsuc ceed
Ġp ost
Ġm Ã©r
Ġf ine
ent y
Ġo pt
Ġre tur
Ġr av
ir a
ct ob
Ġco ll
Ġmoin dre
Ġdisapp ointed
Ġleav ing
R ien
Ġd ance
Ġp en
Ġs oup
Ġch iens
Ġwalk ed
Some one
Ġsl ow
Thank s
Ġfleur s
r oy
ri b
am p
Ġcomp ris
ĠprÃ© par
ĠrÃ©p arer
ĠJ ohn
Ġemp run
ĠgÃ©n Ã©r
A l
i eu
l u
r ont
u b
Ġ 5
Ġc eux
Ġn ett
Ġb ate
Ġro ad
Ġfam ous
att ends
Ġcam p
hÃ´ pital
Ġriv iÃ¨re
re ed
Ġf ond
Ġb iz
Ġh old
Ġre mer
Ġin qui
ic he
ĠdÃ© l
Ġno vel
og n
Ġgard en
Ġquit ter
Ġintellig ent
P e
Ġc and
Ġj eu
am es
Ġpro du
de red
Ġpers u
Ġmes ure
Ġdog s
ex pl
Ġwrit ten
Ġbi bli
Ġlib r
Ġchoc ol
Ġbibli oth
A llez
d Ã©
Ġt reat
Ġm it
Ġm ad
il ity
Ġpar ap
ill Ã©e
ur ope
Ġpro gr
Ġsee ing
Ġapp e
Ġmat ch
Ġcons tr
Ġdrink ing
Ġdorm i
Ġlaw y
d ed
Ġh ommes
Ġre mp
Ġtr omp
ĠdÃ© g
Ġfer iez
Ġregard e
ph on
Ġhab itu
Ġswim ming
Ġsucc Ã¨s
Ġguit ar
b and
ll a
Ġh onn
Ġla c
Ġwe ight
end ez
onn Ã©
att endre
ex p
De m
Ãī c
Ġeff ort
Ġactu ally
A ren
Ġd ent
ĠrÃ© jou
Ġsome where
Ġwhe ther
A n
D Ã©s
S es
Ġ NoÃ«l
Ġp ur
Ġre cher
Ġsu ite
ce ll
Ġr um
Ġnot e
Ġcomm en
Ġpay Ã©
Ġlearn ed
Ġcam era
Ġcri me
ĠÃ©tr ang
Ġpoi ds
Ġner vous
Ġu mbre
sel ves
A f
Ġp ou
Ġs ang
is c
Ġb ank
Ġr ules
Ġri de
Ġcr it
Ġcr ying
Ġapp ar
Ġadd ress
Ġnois e
Ġs and
ch a
Ġta ken
ro ad
pr it
Ġsou c
Ġsm oke
Ġrec ogn
Donne z
Ġpois son
Ġapolog ize
hist oire
dess us
Ġbate au
Ġlibr ary
Ġbiblioth Ã¨que
M e
an e
Ġv illage
us band
Ġj ol
Ġhas n
Ġlo c
Ġcons ider
Ġfl owers
Ġinv itÃ©
Ġgl ass
Ġvol Ã©
St ay
Ġgros se
Pren ez
Ġwrit ing
ĠrÃ¨ gles
Ġamou reux
Pe ople
B eau
f orm
i ven
u ve
Ġm ens
Ġb all
le v
ic le
Ġpl up
Ġwas te
ag ue
ort un
Ġgent il
cl ock
Ġpleuv oir
Ġdange reux
Ġplup art
Ġv ide
Ġh usband
pr ise
Ġsome body
Ġcomm un
Ġpain ting
Ġperm ission
Ġemb rass
Ġhon est
dd en
Voi ci
Ex c
Ã©tr anger
Ġflo or
u al
Ġh Ã´
ri g
la me
ĠÃ© quipe
Ġven ue
Ġfais ons
Ġend orm
Ġpo or
Ġsouhait e
ĠÃ©tr ange
ĠL ond
Ġmed ic
D ans
b er
l uie
Ġs ad
on v
an n
Ġb ord
Ġhe av
Ġall Ã©e
Ġst ar
ort Ã©
Ġdis e
ive d
app elle
ĠÃ©c ole
Ġsm art
autre s
Ġaut our
Ġfem mes
Ġsk i
Regard e
Ġparap luie
Ġumbre lla
om en
ĠÃ ī
im ents
Ã¨ de
Ã©c u
Ġal ive
Ġfin alement
Ġfam il
Ġrest Ã©
Ġrep as
Ġregard Ã©
Ġmoy en
Ġjapon ais
Ġbiz arre
A prÃ¨s
N ow
T a
Ġt alent
Ġp auv
Ġb ath
ot s
Ġun cle
Ġdans er
Ġfau te
Ġint ro
Ġlun ettes
Ġpropos ition
Ġsho pping
Ġnat ure
Ġris k
Ã© v
Ġw arn
Ġw arm
Ġg as
Ġse rez
orte z
Ġcoup le
Ġ1 0
ĠCh ristmas
Ġconvain c
Ġlawy er
re w
he ad
it ut
Ġg if
Ġo we
Ġpr ote
Ġapp l
Ġcont act
Ġlove d
og rap
Ġconc ern
Ġrend ez
Ġcou leur
Ġfatigu Ã©e
Ġlisten ing
Ġnews p
Not hing
Ġbase ball
Ġsomme il
Ġremer c
S e
m bl
Ġp ire
Ġp ommes
Ġl im
it ch
Ġv endre
ar river
Ġch air
ter n
ill a
Ġsa lle
Ġpi zz
ra Ã®
Ã©ri ence
Ġshow ed
Ġsol ve
ĠsÃ©ri eux
e ment
i or
i rent
r oss
Ġs ide
Ġon cle
Ġmar che
Ġgu ys
essay er
Ġsleep ing
Ġdeven u
Ġfonction ne
Ġnorm al
ĠY ork
P ut
P lus
e ch
r Ã¨s
y ons
Ġb al
out er
au che
Ġje unes
am en
Ġso ci
Ġdes k
ol es
Ġsh ip
Ġplus ieurs
Ġwh ite
Ġthink s
ĠrÃ© ussi
Ġdire ct
Ġfer a
Ġfer mer
ock ed
Ġopen ed
Ġcou cher
Ġeff ray
ĠcoÃ» te
ĠmÃ©d ic
f riend
w ay
er iez
ed iate
ag n
Ġou vert
Ġcons c
Ġimm ediate
Ġ2 0
Ġdir ait
ĠPar is
Beau coup
B r
c te
Ġm ount
ri ce
Ġpar fois
ne ment
ut ile
ust om
Ġent end
Ġfau l
Ġsent ir
Ġten ir
Ġdur ing
Ġrapp eler
Ġtomb Ã©
Ġgirl s
Ġvac ation
ArrÃªte z
G ard
Ġp ot
Ġp ouss
Ġm ir
Ġb lame
Ġme ans
il itÃ©
Ġtr an
ĠF rance
Tout es
Ġpu ll
ex c
Ã©n ient
ĠAustral ie
Lors que
Ġmedic ine
onv Ã©nient
r op
Ġ ignor
Ġb reat
im ag
av ion
Ãª t
Ġapp areil
Ġres ult
Ġimp ro
Ġke ys
Ġsm ile
Ġpat ron
Ġdou b
Ġhor ri
Ġadm it
Ġdess us
A ny
r up
Ġa idÃ©
Ġh op
Ġle ver
Ġpr it
ain ed
Ġse l
ig ner
ol ved
Ġwill ing
Ġatt endu
Ġsomet imes
Ġcomm and
ouver t
Ġconc ent
Ġtable au
ĠprÃª ter
ĠrÃ©s ult
Ġcol or
ĠdÃ©b ut
Ġprep ared
ĠrÃ©jou is
Ġ ignore
Ġl end
Ġb other
at or
at ique
Ġde t
Ġe ither
Ġr h
Ġgo lf
ien nes
Ġgr ou
Ġmal ad
Ġcour se
Ġhor se
oubl ie
Ġtrans l
Ġcolle ge
Ġcass Ã©
Ġpie ce
dÃ© jeuner
Af ter
ĠÃī t
Ġd oute
Ġl ying
Ġm ign
Ġm ention
Ġn i
om b
Ġo ise
il es
Ġch arg
Ġpr on
Ġau rais
ol Ã©
Ġex cell
Ġab road
Ġspe ech
Ġcour ir
Ġsort i
ĠprÃ©f Ã©r
Ġgag nÃ©
Ġmari age
ĠCh in
Ġfoot ball
inst ant
E t
c Ã©e
o Ã¹
Ġs le
Ġf ool
Ġj oke
Ġsu dden
Ġch ante
Ġdon na
ff ic
Ce ci
Ġsp oke
Ġbel ong
Ã©ri que
Ġcour ant
Ġsec onde
Ġdur ant
Ġann iversaire
Ġap art
ĠprÃ©sent er
attend ais
Ġresse mble
Ġparv iens
Ġchev al
u er
Ġpas t
Ġtr iste
ien nent
Ġsh ot
Ġatt ent
Ġask ing
ĠprÃ© p
Quel que
Ġref use
Ġconse ils
Ġboy friend
Ġvoy ager
Ġmag az
Ġsound s
Ġtele phone
R est
l ier
Ġto p
id es
Ġdo s
ir m
Ġpar d
Ġpar lez
Ġall Ã©s
ap rÃ¨s
Ġcl ub
Ġprom ised
Ġgar Ã§ons
Ġappel er
Ġavoc at
S ois
k et
Ġb ons
Ġb onnes
Ġch ats
Ġch arge
Ġsh ut
Ã©c rire
Ġma j
Ġcr y
Ġser as
iÃ¨re ment
Ġwait ed
Ġgl asses
All ons
Ġaff ord
Ġsurv iv
Ġdest in
Ġchem ise
B oth
a lle
l and
ent ly
ent ends
ore d
Th ose
ĠrÃ© g
Ġser iez
app eler
Ġsupp orter
Ġpap ier
ĠdiffÃ© rence
Ġdiffe rence
Ġdress ed
ĠE urope
Somet hing
Ġinnoc ent
ĠbÃ¢t iment
g ment
u ite
Ġ ice
it able
Ġv ict
Ġe ffe
out h
ĠI n
Ġtu er
Ġpro che
Ġsh irt
ate ly
Ġsav ons
Ġou ver
Ġac ross
Ġcompren d
Ġdou leur
Ġpic tures
Ġfig ure
Ġconna Ã®tre
ĠÃ©g alement
Ġfore ign
Ġimmediate ly
T e
a que
d ge
re use
Ġc ess
ot o
Ġcan cer
Ġex t
Ġcr oss
Ġmat h
Ġpri ce
Ġcare fully
Ġvoi x
Ġpied s
Ġsus pect
intÃ© rieur
Ġdist ance
Voud riez
Ġsignif ie
Ġpizz a
A i
Ġs n
Ġs end
Ġf air
Ġde ep
Ġg ri
Ġpl ac
ue llement
ouv rir
Ġapp le
la x
Ġcl Ã©s
Ġsp Ã©c
Ġcons id
Ġcour age
Ġaim es
Ġcher che
ĠprÃ©f Ã©
Ġban que
Ġtran qu
Ġt end
Ġd ut
Ġl oud
Ġc ur
il t
Ġr Ã©e
am our
Ġst orm
Ġav iez
Com p
ĠdÃ©c l
Ġsent i
Ġhard er
Ġshow er
ĠprÃ©f Ã©rÃ©
Ġmov ies
Ġment i
Ġtemp Ãªte
Ġsuiv re
g ar
u le
Ġc ous
Ġw ake
Ġv end
Ġg iven
ir d
Ġall ait
ten u
Ġspe cial
Mon tre
Ġprom is
Ġinv olved
Ġob ject
Ġins ide
Ġserv ice
ignor ais
Ġdriv ing
Ġ You
Ġp ai
is Ã©e
en ed
in qui
Ġm ou
Ġf ired
Ġre lax
Ġe gg
ain t
Ġse ver
ie use
Ġwhat ever
Ġag reed
Ġcons t
Ġcond ition
Ġguit are
ĠrÃ©uss ir
Ġsatisf ied
Auc un
Ġconsc ience
Ġfaul t
Ġsever al
C ont
S ince
a ment
s o
Ġt ie
Ġa ch
Ġa yez
en v
Ġm Ã©t
Ġth row
Ġr oman
al ous
Ġcom b
ne m
Ġcon vers
ĠtÃ©lÃ© phon
Ġvi ande
Ġsuc re
Ġanim aux
Ġcontinu er
Ġopp ortun
ĠrÃ©flÃ©ch ir
Ġenvir on
Ġrh ume
i lement
m en
o pp
ou Ã©
on ed
Ġw omen
un d
Ġwor se
Ġquel c
Ġimp l
Ġdr Ã´le
ĠÃ©c l
Ġrep ro
Ġtravaill Ã©
Ġvol ont
ĠÃ©tudi ant
Ġamus ant
iend ra
Ġkiss ed
Ġurg ent
Ġprogr am
Ġ Il
Ġa ies
Ġa head
Ġv ole
Ġch aise
Ġch oose
ie f
Ġwe b
ac le
Ġmar ier
Ġsem aines
Ġear lier
Ġretour ner
uf s
S orry
c ome
Ġp ower
Ġl ic
Ġc ute
Ġv ot
ing s
ri er
Ġch ou
Ġtu Ã©
Ġpro c
Ġsh op
Ġex tr
Ġcomp ter
ive ment
Ġcar ry
Qu iconque
Ġtw ice
Ġdisc ours
Ġrain ing
Ġfac ilement
Ġerreur s
Ġenjoy ed
Ġempl oy
Ġdiscuss ion
Ġju mp
V enez
v ious
y oto
Ġ 3
Ġt aille
on ter
Ġl aissez
Ġm id
Ã© ment
Ã©t er
Ġwe ird
Ġcon fe
ire z
ven ue
ĠÃ© te
oit iÃ©
Quel s
Ġplay ed
Ġac qu
Ġsouv enir
ex amen
Ġass ist
Ġconse illÃ©
Ġeas ily
00 0
ivers itÃ©
ĠdÃ©r ange
Ġserv i
Ġactu elle
Ġz oo
Ġmill ion
Ġsle pt
R este
c tement
l ing
u Ã©
Ġd Ã¨s
Ġd anc
Ġs auv
er me
Ġm oitiÃ©
Ġv ent
Ġme m
Ġle quel
Ġla ke
ic ated
Ġcon du
Ġany where
ĠÃ©c he
Ġsent iment
Ġprom en
Ġsoir Ã©e
Ġtra ffic
Regard ez
Ġpersu ad
Ġmens ong
Ġintro du
i Ã¨me
ing t
et h
Ġhe ld
ain tenant
Ġpart ici
Ġmar iÃ©
iv ing
Ġpass ed
Ġpass Ã©e
Ġcont ente
Is n
Ġbl ue
Ġprop res
Ġhard ly
enc es
emp l
Ġris que
ĠdÃ©m ission
Ġsty lo
Ġpauv re
Rest ez
Ġd ents
es prit
Ġc oute
id Ã©e
Ġli g
oo f
Ġlike ly
Ġdes erve
st airs
Ġsur p
Ġdis h
Ã©r op
Ġbl anc
Ġfer mÃ©
Ġple ur
Ġemp ty
Ġdec ide
Ġexc use
Ġsemble z
Ġperm is
Ġart icle
Ġviend ra
F erme
p ose
Ġc iel
Ġm ail
it ions
it ies
Ġf ri
Ġf ant
Ġb oute
at Ã©
Ġh y
Ġg auche
ist s
Ġstu ff
Ġstay ing
Ġweek s
Ġdisp ar
Ġcher ch
Ġboy s
Ġsing ing
Ġinst ru
Ġrespons able
Sh ow
Ġhon te
ĠapprÃ©c iÃ©
Ġouv rir
Ġenseign ant
Ġenn uy
Ġneighb or
Ġhonn Ãªte
Ġconvers ation
Ã©rop ort
V iens
p Ã¨re
w ich
Ġ W
Ġs cient
Ġl ine
in ed
Ġn av
Ġf le
Ġf ail
Ġme at
Ġdo cu
Ġch o
al es
Ġli ed
ad m
ap s
ord in
Ġfer ait
att rap
Ġviv ent
Ġcontin ue
Ġtele vision
ĠAmeric an
ĠcÃ©l Ã¨
Ġemprun ter
Ġsand wich
ĠÃīt ats
C onn
b ook
h ip
Ġd en
en ci
Ġc ig
ve c
Ġen em
Ġfor ce
ap Ã©
ouv ons
Ġren ds
Ġbr Ã»
Ġvoul iez
Ġinc onvÃ©nient
Ġob s
Ġprof ond
Ġcal me
hÃ´ tel
Ġexper ience
Ġgrou pe
H ier
M ake
a f
p le
r ase
Ġv ingt
Ġqu al
te en
Ġe v
Ġas h
ur ance
Ġar bre
imp ression
Ġlong ue
Ã¢ che
Ġsupp ort
Ġple ut
Ġenv oyÃ©
Ġdou che
Ġdoct eur
Ġwonder ful
Ġhun dre
Ġair port
Ġfollow ed
Ġsus p
Ġsuppos Ã©
Ġreconnaiss ant
Ġnett oyer
Ġprote ct
Ġnewsp aper
A vec
S uis
T urn
W ait
g y
g le
Ġd river
Ġs ache
er m
Ġm ien
Ã© qu
Ġf ass
Ġh u
oi e
Ġle ad
Ġla ug
Ġe lect
Ġpar ole
Ġav ions
Ġav aient
Ġal so
Ġcr oy
Ġmar ry
Ġgot ten
ĠdÃ©c ider
Ġvie il
Ġvis age
Ġide as
Ġref used
Ġbo at
Ġyoung er
Ġey e
Ġsuper m
fort able
Ġrare ment
Ġinj ured
Ġheav y
Ġmount ain
Ġhorri ble
Ġlaug hed
A v
M aintenant
V a
c ent
h ier
r ite
ou x
Ġp ack
Ġp ortes
Ġf ly
Ġb ur
Ġv Ã©cu
ar ch
Ġpro v
Ġcr av
Ġdr ank
Ġdi pl
cept ion
ĠdiffÃ© rent
Ġwin ter
ĠprÃ©v u
Ġpopul ation
ĠÅĵ il
Ġimagin ation
Ġbegin ning
Voud rais
Ġrent rÃ©
ded ans
F or
a Ã©roport
v re
is se
es se
in Ã©
eu m
Ġsu ic
ne z
Ġgr at
Ġher self
ĠÃ© m
Ġad ore
Ġsent ence
De v
Ġconv inc
Ġmari Ã©e
Ġcop ine
Sh ould
Ġanim als
Ġprin ci
Ġfis hing
Ġjol ie
Ġgif t
E ven
f ather
o que
u mes
Ġp age
Ġc ul
in ture
Ġgo Ã»t
ard s
Qu oi
Ġsou l
Un is
Ġwalk ing
Ġpain ted
Ġcontr ol
Ġfai led
ĠarrÃª t
Au jourd
Ġcook ing
Ġcal m
Ġbot tle
Ġcommen Ã§a
g ie
Ġs im
is sez
Ġc er
Ġc ensÃ©
Ġm orte
Ġn ation
ri e
Ġr ing
Ġch ar
Ġli ar
Ġau gment
ac un
if ique
Ġcr ains
ck s
Ġbu ilt
Ġmo ved
Ã©ri c
Ġprom ets
Ġinc roy
Ġmont rÃ©
Ġsit ting
Ġleav es
Ġve get
Ġremerc ier
Br ing
o che
en n
er ing
Ġm erve
Ã© ch
Ġh ol
Ġg ouver
us hed
Ġpl enty
Ġsa le
imp ort
Ġpart out
Ġgr ad
ĠrÃ© d
Ġman quÃ©
tÃ© rieur
Ġbl ague
Ġint ention
Ġph rase
ĠdÃ©t est
Ġimport ante
Ġbir d
Ġbat tre
ĠAmeric a
Ġsuit c
Ġtranqu ille
Ġcrav ate
Ġhol id
h ood
s y
Ġ Un
Ġp omme
Ġw ood
as h
Ġb ody
ar bre
le vÃ©
Ġwe l
Ġje alous
Ġsi ght
Le ave
Ġgr ave
Ġcomm it
Ġrem ind
Ġgard e
Ġment ir
Ġattrap er
Ġlaugh ing
Ġcertaine ment
Ġdeb out
ĠvÃ©rif ier
Ġdut y
Ġ ought
Ġl and
Ġl ente
er c
in ter
Ġme ant
ver n
Ġcr ow
ak ed
Ġgrand father
Ġacc used
Ġplan ning
Ġseem ed
Ġcond uis
Ġquit tÃ©
ĠintÃ©ress Ã©
Ġkn ife
ĠCan adi
ĠhÃ´ tel
Ġcoute au
Ġconvinc ed
Ġ 30
Ġt aught
is tes
Ġl y
er ait
Ġc oo
as ed
Ġb ain
Ġne uf
ic ed
ac hed
res h
Ġsh are
ct ive
Ġex h
ici ous
Ġcomp orte
Ġhad n
Ġimp ressed
Did n
Ġsau f
Ġrecogn ize
B ien
h um
r or
Ġ V
Ġ ed
er ne
Ġb urn
ai es
Ġj ud
Ġo ccasion
Ġle v
Ġr om
Ġr ang
Ġce ll
Ġte l
Ġpl ays
Ġau riez
Ġst ol
âĢ ī
ct ions
Ġex tre
ave ur
Ġapp les
app rendre
Ġeu t
rÃ© able
Ġdisc ut
Ġmont agne
Ġref us
Ġport ait
ĠsÃ© jour
Ġexcell ent
ĠcÃ©lÃ¨ bre
Ġcig are
Ġsim il
Ġstol en
e lez
r act
Ġd ort
Ġp ier
Ġs pr
Ġc ool
Ġf aveur
Ġh ang
Ġg Ã©rer
Ġre venir
Ã¨ ves
Ġpl ant
Ġk il
Ġgo vern
op h
Ġfr ais
Ġdis ent
Ġcomp agn
Ġcr ay
ak en
Ġparl es
anc eux
Ġcat s
Ġgar age
Ġexc it
Ġsk y
Ġcuis iner
Ġinst ant
Ġserious ly
Ġsil ence
Ġsembl ait
Ġress ent
ĠrÃ©pond u
Ġdoub t
ĠprÃ©p arer
H as
e ar
g es
Ġp ont
Ġp enc
Ġm ienne
Ġw ed
ar ter
Ġqu ant
ri m
Ġpl u
ren d
am b
Ġcan apÃ©
Wh ose
Ġsi Ã¨
Ġfe ed
Ã® mes
Ġacc ord
Ġseul s
ex tÃ©rieur
Ġmus eum
ĠprÃª ts
Ġstud ied
Ġcin Ã©m
Ġtick ets
Ġfeeling s
Ġpopul ar
Ġconvain cu
Ġoblig Ã©
To day
DÃ©s olÃ©
Ġsoci Ã©tÃ©
Ġboute ille
C l
a Ã¯
Ġl oi
Ġl one
Ġf ill
Ġf iche
at ch
Ġde f
Ġre venu
Ġsu gar
Ġk itch
res ted
che du
Ġdire ction
Ġad resse
Ġor dered
Ġrep os
Ġfl u
Ġinv est
Ġmor ce
ĠS t
Ġexpl an
Ġtomb Ã©e
Ġprofess ion
Ġsour ire
Ġhabit uellement
Ġtre es
Ġabsol ute
ograp h
ĠspÃ©c ial
Ġegg s
Ġextr Ãªme
Ġash amed
Ġextre me
Ġwed ding
c ation
d it
n Ã©es
t ime
ar ning
or me
Ġe le
Ġfor me
Ġar me
Ġtoi let
Ġbut ton
Ġbl ood
Ġbl ind
Ġfall u
Ġreal ize
Ġmonth s
Ġcours es
Ess aie
Ġchois ir
Ġprot Ã©g
Ġhabitu Ã©
Ġendorm i
rup t
Ġmagaz ine
ĠrÃ©e llement
Ġhundre d
Ġincroy able
Ġlente ment
ĠcinÃ©m a
Ġkitch en
e f
Ġ er
Ġt aller
Ġa ffe
Ġs out
Ġc re
Ġth ough
Ġen s
Ġwas h
ac qu
Ġpro ject
ct s
oy ons
Ġfeel s
Ġaw are
Ġarriv Ã©e
Ġob tenu
Ġcor ps
Ġfort une
ĠdÃ©b arrass
Ġjoin dre
Ġrecomm and
Ġwarn ed
ĠprÃ©fÃ© re
Ġquelc onque
C r
M Ãªme
P as
R et
a Ã®t
b es
c ture
i ar
s ons
er ie
ous and
or ies
Ġla ver
os ion
ur s
Ġav ion
if s
Ġver t
Ġman ager
Ġret r
Ġpa use
ĠÃ©tud iÃ©
Ġsoon er
ĠprÃ©s ident
Ġconse illa
Ġgag ne
Ġrencont rÃ©s
emp Ãªcher
Ġsave d
Ġfruit s
Ġposs Ã¨de
ĠsÃ©rie usement
Ġchou ette
Ġlone ly
M arie
Ġ 8
Ġ Tu
Ġ utile
ou er
Ġp Ã©n
Ġn age
it ive
Ġf ing
Ġv Ã´
Ġg lace
Ġj al
Ġun c
Ġun ivers
Ġse pt
Ġst ick
Ġar rested
Ġcl ient
ound ed
Ġdr aw
Ġsou d
Ġprom esse
asse oir
ĠdÃ©p end
Ġpain t
Ġpropos al
Ġperson al
Ġinvit ation
ĠdÃ©m Ã©n
ĠdÃ©r anger
Ġattrap Ã©
Ġparticul ar
Ġfas ter
Ġnerve ux
Ġretur n
Ġpromen ade
M ost
P ouvons
Ġt ire
Ġd oi
Ġd oig
Ġl arg
ar Ã©
ar mes
un iversitÃ©
Ġre j
Ġme mb
Ġfor te
am m
ur ch
Ġst ole
ide red
Ġmar ch
Ġfer me
ĠJ ack
Åĵ il
ĠA m
Ġaw ake
Ġid Ã©es
Ġcond uit
Ġsleep y
Ġlang ues
Ġann ul
Ġgen er
Ġexpect ing
entre tenir
Ġprod uire
Ġbeh av
Ġprud ente
Ġmoy ens
emb rass
Ġapart ment
Ġouver te
S ont
V os
Ġm ille
Ġb read
Ġne z
au rai
Ãª mes
Ġst ri
ĠdÃ© Ã§u
Ã©c outer
Ġcr uel
ĠÃ© lect
Ġad or
Ġheure uses
Ġcall ing
Ġinv ent
Ġregard a
Ġob vious
Ġdiffic ul
Ġdir ai
Ġbout on
Ġrece ived
Ġeffort s
Exc use
Ġmalad ie
Ġprinci p
r Ã©es
v is
Ġ 6
Ġt ient
Ġd ure
en g
om as
Ġf if
un te
et y
Ġla z
ch Ã©e
Ġse lf
ac ter
Ġst ood
Ġav oid
Th omas
Ġver rou
Ġwor st
Ġno body
Ġad op
Ġgrand s
Ġacc ount
Ġvoit ures
Ġconn u
Ġmus Ã©e
Ġbuy ing
Ġmiss ing
Ġfall ait
Ġtermin er
Ġvoi ce
Ġrencon tre
Go d
Ġhist ory
Ġregret te
Ġesc ape
Ġparfait ement
Ġswe et
Ġenn uis
Ġautor isÃ©
ĠprÃ©par Ã©
Ġgouver nement
Ġgovern ment
Ġexplan ation
ĠextrÃªme ment
Ġextreme ly
A imes
b r
r omp
v oir
Ġs chedu
Ġc os
Ã© ner
Ġf iÃ¨re
Ġf ile
Ġv ase
Ġh ide
id a
Ġte eth
Ġfor ced
av is
Ġar r
Ġhelp ing
Ġsem bles
Ġcomm on
Ġret rait
As k
Ġpat ience
Ġperm ettre
ok en
Ġbri dge
Ġbor ing
Aim ez
aff aire
Ġconvainc re
Ġbreat h
Ġsudden ly
Ġactuelle ment
ĠCanadi an
ĠprÃ©fÃ©re rais
T es
V as
Ġ 4
Ġp air
Ġl Ã¨ve
Ġm eur
it s
ai ll
or n
te ad
ow s
il ing
Ġch urch
Ġse ven
He lp
Ġpour riez
Ġas se
Ãª che
ne l
all ais
Ġex erc
Ġman qu
Ġag rÃ©able
uit s
Ġpens ait
Ġmal heure
Ġaf in
Ġwat ched
Ġcons idered
Ġseul es
Ġact ing
Ġcri min
Ġsub ject
Ġlock ed
Ġsymp a
Ġslow ly
itut eur
Ġpron on
ĠprotÃ©g er
L is
S o
b o
g ress
Ġp Ãªcher
Ġc ustom
Ġm ap
Ġm outh
Ġf resh
Ġv ote
at iques
Ġme al
il ty
Ġpr act
Ġan t
Ġpar s
ut s
ur ry
Ġam az
Ġent er
art ient
Ġca b
Ġpren ez
ĠdÃ©c ouvert
Ġfais ais
Ġgu ilty
Ġmet s
Ġanim al
oubl iez
Ess ayez
occup er
Ã©tud ier
ctob re
ctob er
Ġconfe ction
Ġwel come
A cc
C all
i Ã©e
m et
Ã© quipe
Ġf ur
Ġy en
Ġfr Ã¨res
rai ght
Ġfe ar
cc er
Ġapp oint
Ġser ont
Ġcl aire
Ġche f
Ġcar s
Ġlo g
Ġpe int
Ġple ine
ĠO ctober
ĠdÃ©m ar
ĠprÃ©v ois
Ġval ise
Ġesp oir
li ke
Ġpolit ique
Ġneighb ors
expl iquer
ĠprÃ©fÃ©r Ã©e
A ustral
o de
s c
Ġc ried
Ġb and
ent end
Ġch in
Ġfe et
Ne ver
Ġres pe
ak ing
ĠÃ© ve
Ġper te
Ġsav ent
Ġdr op
Ġenf in
gl ise
Ġpol ite
Ġcap it
Ġsil enci
Ġtru c
Ġtru cs
Ġlangu ages
Ġgre w
ĠÅĵ ufs
Ġprin temps
ĠK yoto
aim ait
Cert ains
Ġrav i
Ġenem y
Ġens uite
Ġsilenci eux
H urry
d er
u de
Ġ U
Ġd om
Ġp ock
in ation
he ur
Ġv ir
Ġh uit
ous er
Ġg iving
Ġan c
al itÃ©
Ġte ars
Ġfor cÃ©
Ġnot ice
Ġst raight
Ġso ccer
ĠdÃ© Ã§
ess aie
Ġcr Ã©
Ġser ons
Ġbr others
moi re
Ġfau x
Ġnouve aux
Ġjou Ã©
Ġoccup Ã©s
Re m
ĠrÃ©s ol
Ġsing er
Ġvisit er
Ġvisit ed
Ġmag n
Ġdir ty
ĠgÃ©nÃ©r alement
Ġrecher che
Ġappar tement
Ġsouc ie
ĠmÃ©dic ament
Gard e
Ġmensong e
ĠJack son
N one
i res
l ac
l ine
p ir
u ck
Ġt ir
Ġc it
in form
Ġf asses
Ġb ored
at ur
Ġh Ã¢
Ġre pr
Ġle vÃ©
Ġle arning
Ġe ight
ren ds
ur y
ust ed
Ġman quer
Ġatt ack
Ã©r ons
Ġpe ace
Ġpos Ã©
ild ren
Ã©ri r
enc y
Ġcham p
Ġtra h
ell erai
Ġnu lle
Ġbless Ã©e
ĠdiffÃ© ren
Ġcook ies
Ġnat ive
Ġprend ra
Ġbi ke
Ġplais ant
Ġconnaiss ance
Ġcorre ctement
Ġchois i
Ġabsol ument
Ġpriv ate
Ġpai x
Ġmem ory
Ġcos tu
L ife
Ġt ill
Ġt ight
Ġp are
is ition
Ġc ens
Ġm as
ai mes
us ez
Ġre ach
lle m
Ġr oses
Ġpr Ãªtes
os ing
He y
ter y
Ġcon ne
Ġgr oup
Ġcr oit
Ġcl air
Ġcl oche
app y
ĠÃ© ner
Ġca used
Ġaller g
ab ilitÃ©
Ġenc our
Ġpris onn
Ġfl ight
Ġsc ream
Ġrem ettre
Ã©d Ã©
Ġref usÃ©
ĠsÃ»r s
Ġvol unte
Some body
Ġstand ing
Ġfour n
iend rai
Ġterri f
ĠÃ©cout er
Ġpleas ed
Cert aines
Ġsuitc ase
D Ã©p
S ur
c ut
g n
ou l
Ġl our
Ġm ood
qu et
Ġb alle
Ġh ates
Ġth ousand
Ġo ctobre
Ġpour rions
ac cep
ct ed
ast ic
Ã©r a
Ġexp ert
Ġcons ac
Ġrec ord
Ġfl at
Ġsort ie
rÃª t
Ġdep ressed
Ġkeep s
Ġhab ite
ites se
Ġvois ins
Ġlisten ed
isÃ© ment
Ch aque
Ġfollow ing
Ġru le
Ġrac ont
Ġgre en
ĠlÃ©g umes
Ġremar quÃ©
Ġaccep ter
Ġaccep tÃ©
Al ors
Ġcompagn ie
Ġabsolute ly
Ġschedu le
F in
M ets
d le
Ġd omm
Ġl armes
er min
Ã© nÃ©
it iÃ©
Ġb are
at eurs
Ġen er
Ġr am
Ġch anceux
Ġce lles
am is
ap ed
Ġsur f
Ġdev ait
Ġapp a
Ġapp ortÃ©
ro g
ĠÃ© n
ack et
Ġsp oken
Ġeat s
Ġlot s
ĠsÃ» res
Ġdrink s
Ġaim ent
Ġstart ing
Ġexpl iquer
Ġpres ident
Ġcoup able
Ġvol er
Ġexc ited
Ġrain s
Ġcontr Ã´le
ĠdÃ©b rou
Ġir a
Ġru de
ĠrÃ©ve illÃ©
Ġdro ite
ĠÃ©l Ã¨ves
Ġjet er
Ġhid ing
Ġcand id
exc user
Ġcous in
Ġcray on
Ġmorce au
j i
Ġn Ã©g
Ġv us
Ġpr Ã©t
Ġcom fortable
Ġfait s
Ġcomp os
Ġgr oss
ff re
ĠÃ© lÃ©
Ġent ire
Ã©r ation
Ġtalk s
Ġgrand es
Es p
Ġcor de
Ġbig ger
Ġrel ig
Ġsugg Ã¨re
Ġlight s
Ġrespons ible
Ġgun sh
Ġamb it
enf ant
ĠLond on
ĠLond res
Ġspr ing
Ġpenc il
Ġchin ois
Ġcostu me
D ep
f eu
g ed
o ccasion
Ġd ing
Ġa ille
is ation
Ġl oup
in v
Ġn ose
Ġf ed
Ġb aiss
Ġau ra
Ġau th
Ġnot es
ne y
Ġsh y
Ġren tre
Ġjam be
Ġent iÃ¨rement
Ġatt ract
Ġbr ave
Ġstu ck
rive z
Ġpre vent
Ġbelieve d
acc omp
Ġaim ez
Ġcoup er
Ġann oy
Ġlettre s
ĠintÃ©ress ante
Ch ildren
Ġcuis in
Ġexplain ed
Ġrac onter
ĠprÃ©c isÃ©ment
Ġfrapp Ã©
Ġparticul ier
Ġpan ne
exp Ã©rience
Ġfamil iar
Ġopportun ity
Ġly cÃ©e
Ġappoint ment
g ing
o es
o ver
is Ã©s
Ġl ow
Ġm ord
ll ed
Ġth reat
Ġpour s
end ie
Ġst one
Ġcan ce
Ġcon gÃ©
ig er
Ġri z
Ġar bres
Ġdev raient
Ġpart ies
Ġcr u
Ġren tr
Ġimp orte
Ġven us
Ġnouve l
Ġpri vÃ©
Ġmo on
Ġexpl ication
Re ad
Ġsing le
Ġmort s
Fais ons
Ġtravers er
Ġbill et
ĠD ieu
Ġsoi ent
ĠCan ad
Ġtot ally
Ġcir cul
Ġchocol at
imag ine
Ġlig ne
Ã©ch app
Ġdoi vent
Ġlaz y
Austral ie
ĠhÃ¢ te
Ġener gy
1 3
E h
P rom
l in
m Ã¨re
s s
Ã© te
Ġw oke
Ġf re
Ġh arm
or ie
ot Ã©
Ġun h
Ġun ique
Ġr atÃ©
Ġch ess
ie ves
Ġwas hing
Ġsh ocked
Que lles
uis e
Ġfriend ly
Ġplay er
Ġessay a
Ġref aire
Ġbed room
Ġsal t
Ġgent le
Ġsuiv i
Ġchans ons
ĠÃ©ch app
Ġgrow ing
Ġpick ed
Ġcomplain ing
Voi lÃł
Ġplain dre
Ġwall et
ĠmÃ©r ite
Ġretur ned
Ġgas p
und erst
Ġpartici p
Ġfri ght
Ġhy p
Ġveget ables
Ġretrait e
Dep uis
F e
G r
H old
J ap
c ool
h aps
n eu
w el
x im
Ġp aire
Ġp sy
er man
Ġw ise
us se
ri ger
Ġe arn
Ġr ope
au rait
ĠrÃ© v
Ġvrai e
Ġoff re
onn a
Ġpos ition
Ġva leur
Ġou i
Ġro ck
Ġtrouv ait
Ġ1 4
Ġmatin Ã©e
Ġpo em
ĠmÃ© moire
Ġconv ince
hab it
Ġsong s
Ġbag ages
Ġamus Ã©
vel opp
Ġchang es
ĠrÃª ves
Ġban an
ĠÃ©ch ouÃ©
Am Ã©rique
Ess ay
Ġhealth y
Ġem m
Auc une
Ġearth qu
Ġcuri ous
Ġcommand Ã©
Ġlic ense
Jap an
D ois
J us
b um
h or
t ain
u mer
Ġ We
Ġp ant
Ġn ine
at a
ar v
Ġne g
Ġo cc
Ġla dy
Ġbe at
Ã¨ vre
Ġr omp
Ġpr atique
Ġnot iced
mp l
Ġsom bre
ig in
Ġhas ard
Ġcl ock
Ã» mes
Ġcar tes
Ġgu est
Ġsent iments
Ġconf used
Ġcha leur
Ġob tenir
Ġmatin s
Ġmist aken
Ġsho ot
Ġcount ries
Ġsal aire
Ġforg ive
Ġsau ver
Ġmean ing
Ġfilm s
Ġchau de
Ġcertain ly
Ġport able
Ġbri ll
Ġnear ly
Att ends
Somet imes
Ġchocol ate
Se e
ĠChin ese
Ġattent ivement
Ġcomb at
Ġdispar u
ĠUn ited
Ġexh a
ĠvÃ´ tre
a res
c idence
d ra
o ll
r age
Ġ 9
Ġd am
Ġp il
Ġc ream
in ue
Ġm ise
Ġv ienne
ar p
Ġqu art
un t
Ġg am
Ġo re
Ġre ached
il itÃ©s
Ġe c
ic ations
Ġcom mer
Ġau d
Ġam ong
ci ous
ven us
Ġmar rant
Ġent ered
ist ic
Ġcont rib
Ġexp Ã©rience
act ion
Ġaut om
Ġinc ap
Ġconc lus
Ġob ey
Ġmauvais es
Ġsk in
Ġvois in
Ġinvit Ã©s
Ġdir ais
Ġbas ket
ĠrÃ¨ gle
Ġeng ine
Ġfight ing
Ġtim ide
Ġpur pose
rop ri
Ġmaj or
Ġext ra
Ġdipl Ã´
Ġgrad u
Ġholid ay
O uv
c y
k er
y m
Ġs igne
Ġn ai
it ez
Ġb our
Ġv ain
Ġv itesse
ar a
ot ion
our v
ri que
Ġle cture
ch n
ch ant
ld om
ic ier
Ġse ldom
Ġpar aÃ®t
Ġcan ad
We ll
Ġso yons
Ã¨re ment
ess ion
Ġri ce
Ġri ches
ouv re
Ġdis g
Ġpass port
ab and
iss ent
Ġsupp lÃ©
ĠdÃ©t ermin
ĠdÃ©p ourv
Ġansw ered
Ġcle ver
Ġmis underst
ĠvÃ©r itable
ĠintÃ©ress Ã©e
ĠÃ¢ g
Ġentre prise
Ġnat ur
Ġcal cul
Ġreal ized
Ġtemp er
ĠcoÃ» t
Ġdream s
Ġste al
Ġesc aped
Ġdro pped
Att endez
Ġinqui et
Ġsel on
ĠrÃ©sult at
ĠrÃ©sult ats
Ġoise au
Ġplac es
Ġfur ther
ĠsupplÃ© ment
M al
V oyez
e ff
i able
l ons
o kes
Ġp Ã©ri
Ġc oun
Ġde ter
ot t
ri ge
au c
ic ule
Ġte xt
Ġte chn
if ied
Ġdev ais
Ġpart is
ight ed
ass urer
ob ile
Ġca cher
iv re
Ġspe ct
Ġcomm is
ĠÃ©c riv
Ġporte feu
Ġunderst ood
ĠS atur
Ġcam ion
Ġpasse port
Ġletter s
Ġvoud riez
Ġmari Ã©s
ĠCh ine
Ġexam en
Ġimag ine
Ġbicycle tte
Ġtru ck
Ġcolle ction
Ġbar be
Ġamou reuse
erv ation
Ġconstr uit
Ġconcern ed
Ġ20 13
Ġoise aux
nem i
Ġinstru ctions
Ġdocu ment
Ġhu ge
ĠdÃ©barrass er
Ã©ner gie
Ġportefeu ille
i x
m other
Ġt irÃ©
Ġd ue
Ġa illes
Ġp ush
Ġp isc
Ġs amed
Ġto oth
ve red
ed s
Ġre pe
out es
am a
am an
res p
Ġav ance
Ġal bum
Ġser t
je ction
Ġcl ou
Ġparl ent
Ġpe inture
Ġvie w
Ġsou pe
Ġcall s
essay e
Ġter m
Ġexpl osion
Ġ1 00
gg ed
Ġpret ended
ĠsÅĵur s
ĠÃ©p uis
entre prise
Ġforgot ten
ĠthÃ© orie
oubl ier
Ġfou le
Ġtre mble
Ġpun ished
Ġdel ighted
Ġjapon aise
Ġaccomp l
Ġclim b
Ġembrass Ã©
Ġresult s
Ġtransl ate
attrap er
ĠsiÃ¨ ge
ĠSt ates
acqu isition
embrass er
Ġunh appy
Ġocc ur
ĠSatur day
Ġpisc ine
F r
P er
W atch
Y esterday
a h
a qu
e use
u bl
Ġ 7
Ġt iens
Ġp on
Ġp ool
Ġc ow
in te
Ġv idÃ©
Ġis land
Ġr ose
Ġch ick
Ġse a
Ġwe ak
ac y
Ġgo ld
ĠdÃ© jeun
ess es
Ġex cept
Ġus ual
Ġcomp t
Le quel
la ble
Ġtou gh
Ġent raÃ®
ob by
Ġco vered
Ġpens ent
um Ã©e
Ġsm arter
Ġten u
Ġdep end
Ġaim er
Ġinc red
Ġhear ing
Ġbou che
Ġrend it
Ġmeill eurs
Ġcou ch
Ġins tead
erci ce
Ġdonner ai
Ġkid ding
Ġgent ille
Ġconnaiss ait
Ġswe ater
ĠÃ©cout Ã©
Ġdesc ri
Ġsport s
Ġvole ur
ĠÃ©che cs
Ġdish es
ĠpÃ©n Ã©t
Ġunivers ity
Ġpsy ch
Ġnai ve
S ans
S ortez
T hing
W ith
a Ã®tre
i bles
o ci
Ġd ad
Ġl ent
Ã© glise
it ure
qu Ã©e
Ġb en
Ġb att
Ġb isc
Ġv este
Ġthe ory
Ġun s
te m
Ġla ve
Ġbe ar
Ã¨ tres
ch ons
Ġhe at
Ġch ances
Ġpr ise
ter re
ore r
Ġsh arp
Ã©c oute
oy a
mer g
ak a
ass er
Ġspeak er
Ġfu me
ĠdÃ©t ails
Ġend ed
ĠÃ©tud ie
ĠdÃ©p art
Ġcontr ari
Ġmatter s
Ġdifficult Ã©s
Ġarg u
Ġprend rai
Ġrespons ib
Ġsil ent
Ġdess ert
ĠG erman
Ġtent Ã©
fort un
by e
Ġtas tes
Ġembarrass ed
Exc usez
ann iversaire
Ġeffe ctu
Ġattract ive
Thing s
O h
Ġ He
Ġ ours
Ġa j
Ġs qu
es ome
Ġc ache
Ġn Ã©e
Ġh Ã©r
ar riv
Ġg ars
ri mer
Ġe au
Ġen vers
Ġan x
Ġau ras
end roit
av enir
ici an
Ġman age
Ġup stairs
ĠÃ© levÃ©
avai ent
iss ait
Ġven ez
Ġconn aisse
Ġconn aissez
Ġveu illes
Ġconf ident
Ġoccup Ã©es
Ġass ister
Ġdou ble
Ġsecret s
Ġsk ier
ys tem
Ġment eur
ĠÃ¢ gÃ©
Ġbri ght
Ġwindow s
Ġidi ote
Ġesc al
ĠprÃ©c ip
Ġfore ver
Ġaband onnÃ©
Ã©tud ie
Ġfas cin
Ġble u
Ġtas te
Ġcard s
Ġcamp agne
Ġmir acle
Ġmid dle
Ġfass iez
import ance
ĠdiffÃ©ren tes
Ġpours ui
Ġcircul ation
M ettez
T w
g u
s aka
Ġ Nous
Ġt ien
re ur
Ġa vert
Ġp ose
on te
is ions
es it
it a
Ġb oit
Ġv int
ar r
Ġe vent
ic ate
os en
Ġk ing
and is
Ġau rez
ĠÃ©t at
Ġall iez
ĠdÃ© ce
Ġav is
Ġam Ã©l
Ġam Ã©ric
Ġsa ches
Ġcr Ã©d
Ġman aged
Ġser ve
Ġtou cher
Ġres ign
Ġche ap
Ġsp ot
Ġtom be
ĠÃ©c onom
ĠprÃ© occup
Ġint end
Ġor ange
Ġrec ently
Ġdern iers
Ġtw enty
anc er
Ġsc ience
Ġadv ant
Ġfai ll
apprÃ©c ier
Ġhead ache
Ġbois son
Ġste p
intÃ© resse
Ġsuggest ion
ĠrÃ©al itÃ©
ove red
Ġdivor ce
Ġopt im
Ġopt ions
Ġski ing
ĠChin a
Ġgri mp
Ġexerc ise
inform ation
Ġexha usted
Ġsamed i
J ou
N os
S ors
V er
h iver
Ġt ienne
Ġp oin
Ġc ouver
Ġm eu
Ġn ames
ar me
Ġth ief
Ġtr ac
The ir
Ġwas hed
ill eux
Ġcon ven
Ġdev int
Ġdis s
Ġdis tur
ro b
Ġcl os
ast ique
Ġca chÃ©
Ġdr ug
Ġgrand i
Ġgrand mother
Ġpri ze
Ġbet ray
Ġdi et
Ġcons cient
ieve d
Ġarriv Ã©s
Ġpolice man
Ġcontr Ã´
Ġpret end
Ġsister s
ĠdiffÃ© rente
Ġchau ff
Ġty p
Ġmil ieu
arrÃª t
Ġaccept ed
Ġsold ats
Ġopp os
Ġresse mbl
Ġleg s
inqui Ã¨te
Ġdanc ing
Ġpier re
Ġrej oin
Ġbehav ior
Ġamaz ing
Ġdomm age
Ġauth or
Ġec onom
Ġincap able
V ois
a llez
h Ã©s
h ost
i an
i ant
u ction
Ġ God
Ġt ar
Ġs ystem
Ġl osing
Ġm ic
Ġm idi
Ġn ap
Ġf ab
ll ing
Ġh esit
Ġto ward
Ġqu ot
Ġg or
Ġj acket
Ã¨ le
Ġch arm
Ġch acun
ĠÃ©t oi
Ġst ock
Ġso f
Ġmon ter
ang ed
Ġav ai
if y
ig Ã©
Ġpro gress
ct eur
Ġmar ket
Ġcar ried
Ġfin an
ab ord
ĠF u
Ã¢ ge
Ġor igin
Ġold est
Ġaw esome
Ġrest Ã©e
Ġpay ing
ĠdÃ©t r
Ġdisp uter
ĠT erre
Ġfo lle
Ġ1 6
Ġviv ant
Ġinteres t
ĠpiÃ¨ ces
ĠÃ©p ouse
Ġtour ner
Ġtrust ed
Ġdispos ons
Ġpois on
Ġtravel ing
Ġpossib ility
Ġpouss er
Ġjud ge
Ġsimil ar
Ġgentle man
P rÃ©
n ic
t tes
u ff
z en
Ġ ing
Ġt ap
Ġt irer
Ġd ying
Ġp ique
Ġc red
in f
Ġh om
ar ante
Ġun f
Ġun like
Ġla mp
Ġha m
Ġpar ie
ill Ã©s
Ġall Ã©es
ang ers
Ġpro ve
ĠrÃ© gl
Ġmais ons
app ed
here d
Ġca usÃ©
Ġpe indre
Ġpre uve
Ġsp ends
Ġpri or
Ġdi ary
Ġvu es
Ġpol icier
Ġcour u
Ġsort it
Ġinc re
Ġcert ains
Ġcap ital
Ġfai ble
Ġarg ument
ĠmÃ©de c
ĠdÃ©r ou
ĠcoÃ» ter
Ġarriver a
ĠsÃ© par
Ġmur der
Ġprot est
Ġhop ing
Ġpard onner
Montre z
Cont inue
Ġintrodu ce
Ġnav ire
Conn ais
accep ter
Ġearthqu ake
W rite
i ale
k s
Ġs inc
on f
Ġc entre
Ġw et
Ġf Ã¢
as si
Ġh ire
Ġh obby
ent rÃ©e
Ġg host
Ġre mb
ri mÃ©
Ġme cs
Ġis s
Ġr oi
Ġch Ã¨re
ad resse
ang es
Ġfr Ã©qu
el s
el ess
Ġcomp Ã©t
Ġdem i
Ġgood bye
ass Ã©
Ġatt itude
Ġbon heur
Ġsupp l
ĠdÃ©c ida
Ġten ait
Ġour selves
ĠC D
esp Ã©
Ġrais e
Ġcond itions
Ġcle f
Ġpo che
Ġconv ient
Ġmov ing
Ġdeven ue
Ġrel ations
Ġcop y
ib at
Ġsy st
Ġcas h
oig ne
Ġoblig Ã©e
Ġaband onner
Ġviol ence
Aim eriez
Ġatte int
Ġsymp ath
enf ants
ĠcÃ©l ibat
Ġrum eur
tern et
Ġdet ails
Ġassist ance
ĠdÃ©mission ner
Ġennuy eux
Ġmerve illeux
Cl ose
Tw o
Ġadvant age
Ġavai lable
D eux
O f
O p
g al
i eur
l ight
n Ã©s
Ġp Ã¢
er ver
Ġn uts
Ġb ass
Ġy ens
Ġg ames
le terre
ed ay
Ġj ume
Ġla b
Ġha ll
Ġr as
ke y
Ġli qu
os se
Ġal arm
Ġal tern
ul aire
Ġdev ient
Ġdis ting
app ro
Ġent rÃ©
Ġad oles
Ġacc usÃ©
Ġthem selves
Ġcompren ez
Ġlaiss erai
Ġhur ts
Ġass ise
ng leterre
az z
Ġeas ier
Ġbless er
Ġsau ter
Ġgent illes
Ġsong Ã©
Ġbir ds
ĠfenÃªtre s
Ġteach ers
App elle
Ġcost s
Ġthir d
Ġfonction ner
Ġpun ctu
ĠrÃ©ve iller
Ġimagin Ã©
Ġperfect ly
Ġviol on
ĠIt al
Ġferm Ã©e
Ġpost p
Dem ande
Ġdent ist
Ġdent iste
Ġstar ing
Ġelect ric
Ġfill ed
Ġjal oux
Ġdoig t
Ġding ue
Ġnatur al
Ġpon ctu
Ġsof a
Ġcred it
Ġunlike ly
D Ã¨s
R Ã©
c ter
d o
o res
Ġt andis
Ġp aie
Ġs ors
is ez
es c
Ġn aÃ¯
it Ã´t
Ġh ired
Ġh iver
Ġto it
ar chÃ©
Ġth irst
Ġj ug
Ġin se
Ġe merg
ay ed
one y
Ġany way
Ġdis ait
Ġdis ag
Ġmar re
Ġparl ons
Ġpre d
Ġfau dra
En f
ĠdÃ©s esp
ĠA f
Ġsec r
Ġrep ly
Ġrep oser
Ġmet t
Ġlaiss a
Ġdisp on
Ġpetit s
Ġstr anger
Ġcontr at
Ġcontr act
Ġabs ence
ĠÃ©p ous
Ġfeu illes
Ã©p ouser
Ġinform ations
Ġhum an
Ġcontinu Ã©
Ġteach ing
ĠgÃ©n ial
intÃ© ress
Ġsold iers
Ġtrait er
Ġintellig ente
Ġfact s
Ġorgan ized
Dem ain
Ġrum or
Ġeffray Ã©
Ġmign onne
ĠrÃ©g ime
Ġpleur Ã©
ordin aire
Ġden ied
Ġcer cle
Ġcrow d
Ġburn ed
Ġmeur tre
Ġclaire ment
ĠrÃ©sol u
Ġbisc uits
ĠFu ji
Ġsyst Ã¨me
C he
Q uit
S p
V oyons
d en
Ġ $
Ġ ille
re g
is m
is me
Ġl aid
Ġc ents
Ġf ie
Ġv iennent
ent raÃ®
Ġth rew
Ġg az
Ġg ives
Ġun less
Ġo s
Ġe qu
Ġe ars
Ã¨ tes
Ġr ace
au le
al cool
ic ie
ad ed
ag ers
Ġex emp
ul ance
Ġapp artient
Ġjam bes
Ġtell s
Ġatt ir
Ġbr isÃ©
Ġsav iez
Ġvoul aient
ick ed
Ġvais se
ĠdÃ©c ouvrir
Ġcons ul
ĠrÃ©p Ã©ter
Ġsent is
Ġpersonne l
Ġbec om
Ġcompl icated
Ġrain ed
qui p
Ġaccident s
Ġann on
Ġfatigu Ã©s
Ġinf lu
Ġrencont rÃ©e
Ġsal es
hab ite
Ġinter n
Ġstre ss
Ġreconn u
em m
Ġsembl ant
Ġsuggest ed
Ġviend rai
Ġcass Ã©e
Ġju ge
Ġimpression nÃ©
Ġdesc end
Ġprojet s
Ġbot t
Ġatte mp
Ġappe ar
Ãīc oute
ĠÃ©trang Ã¨re
Ġvide o
Ġconcent r
Ġimpl iquÃ©
Ġsuperm ark
Ġtoilet tes
Ġconfection nÃ©
Ġpare ille
fortun ately
B y
F aire
L ast
P l
S m
b on
c oh
g rÃ©
i ke
l it
o x
Ġl oss
in et
in ze
Ġm ass
Ġm aig
he t
it ation
Ġy es
at ives
Ġh ous
Ġla p
im m
Ġbe ll
Ġbe lles
ce mment
Ġr oof
Ġpr ouver
ag Ã¨re
am i
am user
ac ted
Ġall a
all ons
ĠdÃ© v
Ġsur ve
Ġcomp rom
Ġsi ze
ate ful
Ġgr ateful
ind iquer
Ġbut ter
Ġacc us
Ġacc ro
Ġacc ustom
Ġbel ieves
Ġret irer
Ġdi am
Ġdi rige
Ġsent ez
Ġveu ille
ex ercice
uss itÃ´t
Ġexpl iquÃ©
Cel ui
Ġpoint s
Ġansw ers
Ġmiss ion
Engl and
Ġcontr ar
Ġtour ne
Ġtermin Ã©e
Ġsuff it
Ġhigh ly
Ġimag iner
Ġart ist
Ġtravers Ã©
uy er
Ġpois sons
Ġarm s
Ġdest roy
Ġimpro b
Ġprogram me
Ġfant Ã´
Ġprofond Ã©ment
Ġcroy ais
Ġsuperm archÃ©
Ġgunsh ot
arv ard
ĠvidÃ© o
Ġquot id
Op en
Ġpunctu al
Ġemerg ency
Ġsupermark et
coh ol
c ens
h onn
m at
n ant
n ight
Ã© h
an se
Ġf an
Ġf al
Ġf ain
as hed
ar rÃªte
id ez
ic es
ter s
Ġwe ars
ac itÃ©
Ġsom met
Ġcon g
Ġab ove
Ġver rai
ici eux
Ġdis es
Ġgr ass
Ġapp ropri
si Ã¨re
Ġshould er
Ġche er
Ġno on
ass it
Ġbu ll
ĠÃ©c oute
Ġsupp orte
Ġcour amment
Ġprom ener
Ġdown stairs
ĠdÃ©t endre
Ġrem is
Ġrester ai
Ġvoy ez
Ġpo ll
Ġchange ment
Ġpic nic
Ġoubl ier
Ġcop s
Ġexam ination
Ġsurv ive
Ġfix ed
Ġpopul aire
Ġtrait e
Ġdro g
Ġem ail
Ġpuiss ions
Ãīt ait
ĠgÃ©nÃ©r al
Ġfair ly
Ġintrodu ced
empl oi
Ferme z
Ġfail ure
Ġsuic ide
Ġcoo p
Ġcomporte ment
Ġed u
Ġasse oir
Acc ord
Ġpant al
Per haps
Ġchick en
Ġthirst y
Ġimprob able
T iens
n ers
re es
Ġd ig
Ġp oup
en e
Ġl Ã¨
om ach
Ġf urn
Ġf oc
Ġf ich
Ġv endu
Ġto wel
Ġre Ã§
Ġme c
Ġme als
Ã¨ se
Ġdo ors
Ġli es
Ġpl at
ons es
Ġgo al
Ġst omach
Ġwith in
Ã©c onom
What ever
Ġsur venu
Ġdis tr
Ġfe ver
Ã©r Ã©e
iss ons
Ġpouv iez
Ã¢ tre
ĠrÃ©p onses
Ġnom s
Ġfu tur
Un fortunately
Ġrem ained
Ġenv is
Ġoccup er
Ġob Ã©
Ġkind s
Ġphot ograph
ĠprÃ©s ente
Ġuse ful
Ġpo Ã¨me
per ate
Ch ois
Ġport Ã©
Ġvoi e
ĠÃ©tr anger
Ġmil es
Sh ut
ĠapprÃ©c ier
Ã©m atiques
Ġcheck ed
Ġsoi f
Ġclear ly
Ġpleas ure
Ġcir c
Ġcrit ique
Ġbath room
Ġconcent rer
Ġmign on
ĠIn ternet
Ġjump ed
Ġwood s
Ġmagn ifique
Ġaccustom ed
G ood
m Ãªmes
o rent
Ġ Vous
er ly
Ġc la
Ġc ast
Ġn aked
Ġne ither
Ġo w
Ġre jet
Ã¨ ter
au jourd
ic er
end orm
ag ner
Ġst at
Ġst am
Ġmon di
Ġpro xim
ol Ã©e
ens er
Ġwh is
age ment
ĠÃ© lev
Ġevery where
Ġpass ion
onn Ã©e
onn able
Ġfer ions
Ġpos a
aime z
Ġven iez
Ġret ired
du cation
Ġgu ide
ĠdÃ©s ire
Ġjou eur
Ġarriv a
Ġdep ends
Ġimport ance
Ġcoup Ã©
Ġ1 8
Ġmot eur
Ġbou ger
ĠprÃª tÃ©
Ġins urance
Ġord res
Ġrun s
Par lez
Par fois
Ġact ed
Ġchant eur
Ġgare r
Ġprison ers
Ġart iste
ĠapprÃ©c ie
Ġdel icious
Ġtim bres
Ġborrow ed
Ġtrad uire
Ġtot alement
Ġpossib ilitÃ©
ĠsÃ©rie use
Ġtromp Ã©
Ġmath Ã©matiques
Ġweb s
Ġneighbor hood
Conn aissez
Ġlead er
Ġrefus a
Ġmalheure ux
bo ard
Ġbare ly
Ġfright ened
ĠcrÃ©d it
ĠcontrÃ´ ler
Ġproxim itÃ©
A b
R ep
p a
r ants
Ġ ug
Ġ ivre
Ġ England
Ġt ur
Ġa yons
Ġp ill
is tre
Ġl une
Ġc aisse
Ġm erci
Ġw ore
as un
Ġb eur
Ġb ud
ll o
Ġv irÃ©
at if
at oes
or re
Ġj eux
Ġj ail
Ġun able
Ġre se
ri f
ri day
Ġme mbre
ch amp
Ġce le
ic ally
Ġpl antÃ©
pp er
ĠÃ©t age
Ġfr oi
Ġex ch
Ġam en
Ġcomp et
Ġgr ound
ĠrÃ© cemment
Ġhapp iness
Ġcl oser
Ġres tes
Ġbr ush
Ġoff ended
Ġbl Ã¢
Ġspe ed
Ġven ues
ĠF riday
Ġgu Ã¨re
Ġmin uit
Ġsent ais
Ġprom esses
Ġchild hood
Ġmont Ã©
Ġense igne
Ġins ist
Ġdiffic iles
Ġsol ved
heure usement
Ġfi ers
Ġvoud rait
ĠO saka
Ġsal ary
Ġnour rir
Ġcop ain
Ġexam ple
Ġsl ight
Ġair pl
ĠJapon ais
Ġjourn aux
Ġhum eur
Ġste ak
Ġaband oned
aig n
Ġreconnaiss ante
Ġrequ est
Ġtreat ed
ĠÃ©trang ers
Ġdise ase
itut rice
Ġbelong s
Cr ois
ĠAm Ã©rique
ĠdÃ©mar rer
Ġguest s
Mal heureusement
ĠdÃ©jeun Ã©
Ġresponsib ility
Ġug ly
J am
T enez
a rest
c les
f ety
n ique
o Ã¯
o Ã»t
r am
Ġ ident
ou ill
Ġd ating
Ġa Ã®
Ġp ous
Ġs ortes
Ġc Ã¢
Ġn or
Ġn ur
it aire
Ġg al
Ġne arest
Ġj okes
Ġre ly
ri age
ri ces
Ġha ute
Ġr Ã©t
Ġr acc
Ġpar ked
Ġpar venir
Ġwas ting
ut eur
ur Ã©
Ġmon n
Ġare a
Ġsh ape
Ġal iments
ul ar
ici ent
Ġapp ly
ven ues
Ġco de
Ġad ul
Ġper form
Ġdr own
Ġwhen ever
Ã¢ ce
En tre
Ġmo qu
Ġprom ises
Ġrep air
anc Ã©
Ġlaiss Ã©e
esp oir
Ġrais ons
ĠdÃ©p ensÃ©
Ġmot iv
Ġmay or
Ġhab itude
Ġfi Ã¨vre
ug le
Ġfood s
Ġperm it
Ġeff ic
Ġhun g
Ġenjoy ing
olog y
olog ie
Ġwin ning
inc endie
Ġrespons abilitÃ©
ĠcoÃ» tÃ©
Ġclean ed
Ġcomplain ed
Ġperd it
Ġsty le
Ġsouff re
Ġsmell s
Ġloc al
Ġvendre di
Ġsmile d
Ġdestin ation
Ġcross ed
Ġcul ture
Ġcigare tte
Ġexcit ing
Ġfing er
Ġdifficul ty
Ġpock et
Ġtemper ature
Ġoccur red
Ġbetray ed
Ġille gal
Ġvaisse lle
Jam ais
Ġnur se
D r
H and
M other
P asse
S ay
d es
r ain
Ġ What
Ġ Th
Ġd y
Ġd are
Ġd ry
Ġd anse
Ġa ill
Ġp ushed
Ġl oyer
Ġc ouvert
in ite
an ic
om bre
Ġde d
Ġh ated
Ġg ren
Ġj a
ot ed
Ġla y
Ġsu p
Ġe lev
ch ose
Ġr ab
Ġch osen
Ã©t aire
ic ted
Ġte en
Ġli f
Ġli ft
Ġpl antes
aire d
av ance
ue ill
Ġave ugle
Ġdes p
ess ence
Ġab ility
ul er
ouv Ã©
Ġus ing
Ġgr amm
Ġbeau x
Ġent ier
Ġco ffre
ck y
Ã©r ant
Ġcont acter
Ġdemand ez
Ġsp read
Ġsp ace
Ġpouv ions
Ġpri ces
Ġacc ent
Ġint im
ra w
Ġcare less
Ġsm aller
Ġcour te
Ġcour rier
Ġprop ri
Ġrem ain
Ġrem ark
Ġhur ried
Ġrais ed
Ġinc omp
ĠdÃ©p rim
Ġrend ue
Ġord ers
Ġtemp Ã©r
Ġsuiv ant
Ġsouhait erais
Ġspend ing
Ġprud ents
Ġcolle ct
Ġlum iÃ¨res
inst ituteur
Ġpress ure
ĠnÃ© gl
Ġpuiss iez
Aim erais
Ġrecomm end
ĠSunday s
Ġclim bed
Ġimpatient e
Ġdivor ced
Ġdriv es
Ġsucceed ed
Ġpersu ade
Ġrecogn ized
Gard ez
ĠÃ©te int
Ġassist ant
Ġsauv Ã©
Ġdiscut Ã©
Ġmemb res
Ġstri ct
ĠdÃ©Ã§ ue
Ã©te indre
Ġmisunderst and
Ġargu ing
Ġremb ours
espÃ© rais
Ġquotid ienne
Ġfurn iture
Ġstam ps
Ġbeur re
F rom
L eur
M oi
O ubl
S el
e us
i Ã©s
r at
r ure
r ise
Ġp ond
Ġl at
Ġc iv
Ġf ous
Ġf ence
qu ante
as es
Ġh ill
Ġg Ãª
le ver
Ġque ue
Ġj azz
our ces
Ġo il
ri l
oi ff
Ġin utile
Ġen qu
ch iez
Ġch and
Ġch all
Ġon es
ver se
tu d
Ġdon nÃ©es
av ions
Ġyour selves
Ġall um
ue lle
ĠdÃ© ch
ort able
ive z
Ġapp elle
Ne ither
Ġtou ched
Ġche ese
Ġimp ress
Ġatt ach
Ġbr an
Ġlove ly
ach Ã¨te
Ġvie illes
ĠA n
Ġrest a
Ġfl ower
Ġfl ics
iqu Ã©e
Ġim age
ĠS p
Ġvol ume
Ġfac ture
Ġgard Ã©
Ġbless Ã©s
Ġinter rupt
Ch acun
aut or
Quelqu es
Ġclass room
Ġcomple x
Ġdispos Ã©
Ġconnaiss ais
Ġbat ter
Ġdist rib
ĠD ay
ĠH arvard
Ġenseign ante
ĠÃ©l oig
Ġviol in
Ġmod el
Ġamb ulance
Ġtrad ition
Ġmang es
Ġmang ez
Ãīt iez
Ġpull ed
Ġfool ish
Ġvolont aire
Ġmid night
Ġservi ette
Ġdocu ments
Ġcigare ttes
Ġinvest ig
Ġclient s
Ġpract ice
Ã©chapp er
Ġspect acle
Ġtremble ment
ĠcÃ©libat aire
Ġexemp le
Ġcontrar iÃ©
Accord ing
Ġpantal on
Ġcele br
ĠtempÃ©r ature
S it
b ri
u ves
w ord
Ġd ame
on es
Ġc rai
Ã© rence
Ġn one
om ac
Ġb ite
Ġqu inze
Ġth in
eu res
te red
au riez
Ġse ats
Ġfor ces
am Ã©l
ac es
Ġgo Ã»
Ġall ong
all ow
Ġav enir
ave d
Ġfait e
Ġri g
Ġam our
Ġsa oul
Ġpart it
Ġpart ager
app l
app el
ĠÃ© gard
Ġlong s
Ġwork ers
Ġfrom age
ck ed
Ġoff ert
Ġexp ress
Ġvis a
Ġple ure
Ġrep aired
Ġhand ed
Ġsc ar
Ġsc are
Ġinc l
Ġtravaill ent
Ġpetit es
ĠdÃ©p rimÃ©
Ġcor ner
Ġbad ly
Ġtomb a
ĠÃ©p oque
Ġretour ne
Ġcertain es
Ġir on
Ġind ust
Ġworry ing
Ġdispos er
zz y
Ġparc our
Ġpress Ã©
Ġplain t
Ġmang ent
Ġnerve use
Ġpleas ant
Ġcuri eux
Ġrid icul
Ġrav ie
Ġ5 0
Ġhabitu Ã©e
Ġignore d
irm iÃ¨re
ordin ateur
Ġmerve ille
Ret our
Ġsoud aine
Ġmemb ers
Ġobvious ly
Ġplaisant er
Fe w
Ġneg ot
Ġdam age
ĠamÃ©l ior
Ġgor ge
Ġhous es
Ġmonn aie
Ġdrown ed
F ather
S pe
m i
n om
Ġa unt
Ġp al
Ġp oig
Ġs age
en ing
Ġc reat
Ġc Ã©rÃ©
in ing
Ã© ro
Ġw it
Ġb oi
Ġb anc
Ġb omb
Ġh i
ous t
eu ble
oi ent
Ġme l
Ġr ater
Ġpr oof
au d
Ã©t ude
Ġse par
Ġpar mi
Ġfor c
Ġdon n
ad es
Ġje ans
Ġst airs
Ġso ft
Ġso cial
ens ion
Ġfr ustr
ose z
Ã©c he
Ġal cohol
ul s
Ġsa fety
ense igner
Ġcr ain
Ġtou che
app ellerai
Ġjust ice
ign it
Ã©l ic
ound s
Ġdeux iÃ¨me
As s
Ġdi zzy
Ġye llow
Ġvis itÃ©
Ġplan ned
Ġsent ie
Ġop er
Ġsens ible
Ġlate ly
Ġadv ance
ĠdÃ©p Ãª
ĠdÃ©p Ãªcher
Ġcompl iquÃ©
Ġtra Ã®
Ġins ul
Par lons
Ġrencont rÃ©es
Ġwonder ing
ĠprÃ©sent Ã©
Ġwrit er
Ġserv ir
Ġsour ce
Ces sez
Ġru ined
Ġparfait e
Ġsuffis ant
Ġdesc endre
Ġress ens
Ġpuiss es
aim ais
Des c
Ġatte indre
Ġenvir ons
Ġsoup er
Ġremp l
Ġtalent ed
Ġentend ue
Ġrelax ed
Ġpersuad ed
pose z
ĠdÃ©ranger ait
Ġmas ter
ĠÃ©lÃ© g
Jus qu
Ġromp u
Ġaud ience
Ġfaill i
cens eur
Ġairpl ane
Ġelev ator
Sel on
H Ã©
Y es
i est
o ff
t Ã©e
Ġt at
Ġt ante
Ġp ity
is a
Ġm ons
Ġn ons
Ġf arm
Ġb ow
Ġv an
Ġh ug
Ġg ym
Ġj oking
Ġun us
Ã©t ique
Ġse ason
Ġfor Ãªt
Ġau prÃ¨s
ag eux
op in
Ġst un
if iÃ©
Ġsom eday
Ġex ist
Ġar riÃ¨re
Ġal ent
Do ing
Ġus age
Ġdis iez
Ġgr ab
Ġren de
Ġren vers
Ġher o
Ġser ved
rent ly
Ġtravai lles
Ġlo an
Ġpass ait
Ġfin al
Ġbl ag
iss ant
aiss ance
On ly
Ġshe lf
Ġenf ance
Ġret ire
pt ion
As se
ĠdÃ©s ir
Ġpu zz
Ġdern iÃ¨res
Ġter me
Ġveu illez
Ġwhere ver
Ġemp Ãª
Ġconf ess
Ġconf ront
Ġmor tes
Ġaim erais
Ġcoup s
Ġref user
Ġviv ons
Ġrapp elles
ĠprÃ©s ence
Ġpo ker
Be c
Par le
util iser
Ġinvit Ã©e
Ġfall ing
Dis posez
Ġchat te
Ġbri ef
Ġutil isÃ©
Ġsurpris es
Ġcontinu ed
Ġouv rit
Ġgre et
ĠÃ©v ident
Ġsignif ic
Ġill Ã©g
Ġfas h
ĠlÃ©g er
Ġremar qu
Ġsouff le
Ġprogr Ã¨s
Ġlim ite
Ġcess er
Ġtend ance
Ġsusp icious
Ġbur st
Dev rais
inter romp
Ġdifficul tÃ©
Ġcapit ale
Ġtir oir
ĠÃ©n orme
Ġentire ly
Ġprevent ed
Ġrentr Ã©e
Ġdeter min
Ġanx ious
Ġevent ually
Ġrejoin dre
Ġiss ue
Ġdisag ree
Ġedu cation
Ġeffic ace
T oute
a Ã®
g o
i ants
m and
o om
u ch
x ante
Ġt ong
ou e
Ġd ors
Ġa id
Ġa ction
en nemi
in a
Ġw ays
as ons
Ġb Ãªte
ai ment
ent rer
le ction
et Ã©
Ġne ck
Ġch Ã¢
Ġce re
Ġte lles
ad d
Ġau quel
Ġall ions
Ġst ate
Ġst ars
if ier
mp ed
ol i
Ġex ception
Th ree
oy al
oy Ã©e
Ġcr ack
Ġcr ise
Ġman if
Ġbeau tÃ©
Ġsais on
Ġparl ait
Ġad ult
Ġnow here
Ġwr ites
Ġcomm ettre
Ġph ys
Ġpa le
Ġmo de
Ġcour ut
Ġten ue
rÃ© h
iqu a
Ġinv ite
Ġfu ri
ph ab
Ġemp Ãªcher
Ġrem onter
Ġdisp ut
Ã©d er
Ġmont ra
Ġpat r
Ġbou g
Ġrend rai
ĠprÃ©f Ã¨res
ale d
Ġpo ches
Ġrev iens
Ġnu ages
led ge
Ch oose
Ġexam ens
Ġbag ue
ib i
Ġcomple t
Ġru b
Ġchauss ettes
Ġclean ing
Ġarm y
Ġsembl ent
Ġtre ize
ĠrÃ©ve illÃ©e
Ã¯ n
ĠAmeric ans
Ġenseign Ã©
Ġpie ces
Ġfrapp er
ĠrÃ©al isÃ©
Ġappro ach
Ġset tle
Ġinnoc ence
ĠmÃ©t h
Ġcondu ite
Ġev idence
Av ant
hum eur
Ġrecommand Ã©
Pas sez
Ġretr ouver
ĠCanad a
Ġskin ny
With out
ĠhÃ©r os
Ġescal iers
Ġfroi de
Bec ause
Ġfash ion
Ġtong ue
C her
L ui
W ater
a ments
er tÃ©
er ves
Ġc y
Ġm Ãª
Ġm Ãªmes
he mat
Ġf og
Ġb ais
Ġb ond
Ġv ague
un ch
le x
Ġun if
Ġo d
Ġme mber
Ġr ound
Ġest im
Ã©t age
Ã©t agÃ¨re
Ġse arch
Ġpar king
Ġwe alth
av iez
Ġcon te
Ġdes ert
ĠM ars
Ã©c ris
Ġhis toi
Ġam ount
Ġsa ble
Ġsa chiez
bl ing
Ġser p
Ġbien venue
Ġcar p
Ġtoi le
Ġper cent
Ġdemand ed
Ġpre par
Ġdr ag
Ġmal ch
Ġph arm
ĠdÃ©c ouv
ĠdÃ©c Ã©dÃ©
ach Ã¨ter
ph ants
Ġconf ond
Ġsc ene
Ġfriends hip
Ġtrouv Ã©e
Ġfo rest
Ġadv ise
Ġstud ies
Ġcou pe
Ġcap ables
Ġfall en
Ġamus Ã©e
Ġinst ituteur
Ces se
ĠthÃ© Ã¢tre
Ġregret ter
urg ence
Ġteach es
Ġbill ets
Ġtrait Ã©
Ġtrave led
Ġill ness
ĠrÃ©pond it
Ġrare ly
Ġble ue
Ġposs ession
ĠrÃ©c up
Ġmer c
Ġsell ing
Ġprudent es
Ãīt ais
Ġopt ion
ĠhÃ´ pital
ĠmÃ©dic aments
Ġemploy e
ĠÃ©che c
Ġpartici per
Ġaugment ation
Cr oyez
ĠU S
llem agne
Ġsurf ace
Essay ons
Ġore illes
Ġgradu ated
oublier ai
Ġpoup Ã©e
Ġaill eurs
amÃ©l i
Ġhistoi res
P art
S chool
S ommes
a bl
i us
Ġ i
Ġ Do
Ġd or
Ġp Ãªche
Ġs ite
Ġc ad
Ġc oiff
Ġf umÃ©e
Ġv oc
Ġv Ã©h
Ġh ost
ar c
Ġg el
Ġne iger
Ġo dd
ri me
Ġla vÃ©
Ġin habit
ch Ã©s
Ġr at
Ġr ough
Ġr Ã´le
Ġce inture
ir ts
Ġpour rai
Ġau rions
ill on
ut ation
Ġst ories
Ġmy s
ore ille
if iques
Ġsh orter
ap ers
Ġwh ose
Ġma Ã®tre
Ġar mes
Ġcr Ã¨me
Ġren v
app orter
oun ce
Ġtravai llez
Ġco Ã¯n
mb ers
Ġca us
Ġbr own
Ġpass a
Ġpass word
Ġcont est
ud es
Ġbl anche
Ġpos ter
ĠÃ©c ras
ĠdÃ©c Ã©d
Ġgu ard
Ġmo que
Ġjou es
Ġjou ait
Ġjob s
Ġaw ful
anc ed
att ention
Ġunderstand s
Ġsc old
Ġdep art
Ġass um
ng th
Re c
Ġdou z
Ġexc itÃ©
Ġfatigu Ã©es
Ġabs or
erreur s
Ġsk ill
ĠdiffÃ© rents
Ġrel ation
Ġrel iable
Ġnat if
Ġcop ie
Ã©p oque
ĠÃ©tudi ante
Ġsuff ering
ĠdÃ® nÃ©
Ġstre ngth
Ġmen u
Ġdream ing
Ġsurv ived
attend rai
Ġdiscuss ed
ĠgÃ©n ie
App orte
Ġproduit s
ĠÃ©g al
Ġdro ve
ric itÃ©
Ġexper ien
Ġcoll ine
Ġemprun tÃ©
Ġappe ared
Ġremp li
Dem and
Ġfamil ier
Ãªt etÃ©
Ġimpro ve
Ġmagaz ines
Ġpersuad er
erm any
Ġfass ions
Ġdipl om
Ġcommit ted
Ġlev a
Ġador able
Ġcrimin al
Ġrespe cter
ĠÃ©ve illÃ©
Ġcuisin ier
Ġclou ds
Ġtar te
Ġfinan ci
Ġgentilles se
Ġdispon ible
ĠÃ©pous Ã©
Ġfal se
Ġcong Ã©s
Ġbud get
Ġmisunderstand ing
. .
5 0
M ar
P res
c om
c ents
i as
m is
p ock
v iens
Ġ That
Ġp Ã©t
Ġp ression
Ġp neu
Ġc aut
Ġm ente
Ġm oust
an ou
Ġw ounded
Ġb Ã©nÃ©
Ġv iennes
at is
ent ial
Ġthe ater
Ġg ain
Ġg Ã©nÃ©
us ion
Ġj oy
Ġme as
Ġle Ã§on
Ġbe ard
Ã¨ che
Ġr ug
Ã©t iez
Ġpar te
ill Ã©es
Ġmy st
ĠdÃ© n
Ġknow ing
ang ez
if ic
ust ing
Ġdev iner
ation al
ici p
la w
Ġtou chÃ©
Ġbeau ty
Ġgood s
Ġmar riage
Ġent ra
Ġbr uy
Ġbr ouill
Ġpass eng
Ġcont ents
Ġbl ank
Ġspe ll
Ġpa quet
ĠdÃ©s or
Ġsm iling
asse mbl
ĠdÃ©t ail
Ġconf Ã©rence
Ġsc rew
pect ed
Ġtrouv es
Ġrais onnable
Ġchance use
Ġrapp elez
Ġcap tain
Ġbeg ins
Ġsho e
Ġbless Ã©es
Ġact ions
Ġact iv
Ġresp ond
Ġchant Ã©
Ġinter romp
ĠdÃ©b at
Ġrel ieved
Ġris ques
Ġcin quante
Ġreste z
Ġsour is
Ġtax es
Ġconnaiss ent
Ġconnaiss ons
arrÃª ta
Ġaccept able
Ġpun i
Ġkn ock
Ġfrapp a
Ġautor isÃ©e
Ġautor isÃ©s
ĠR ome
Ġrece voir
Ġmod ern
Ġdeb t
Ġble ed
Ġ19 7
Ġess aie
Ġembrass er
Ġvict im
Ġcess Ã©
Ġdeep ly
inqui Ã©ter
isse ment
Ġrom ant
Ġele ction
Ġsoud ain
Ġprisonn iers
Ġlour d
Esp Ã©rons
Ġambit ious
Ġloup Ã©
Ġcance l
ĠÃ©chapp Ã©
Ġquart ier
aband onner
ĠÃ¢g Ã©e
Ġsteal ing
Ġpoursui v
apprÃ©cier ais
Ġfie ld
Ġconsul ter
Ã©conom ie
Ġmondi ale
orre ct
Ġquotidienne ment
Ġchall en
hemat ics
Ġpasseng ers
E at
G u
H av
S eriez
T our
c ue
f ond
h y
i pped
l ant
l ook
m os
t ons
x pected
Ġt it
Ġt Ã¢che
Ġp ants
en u
er as
Ġm aire
Ġm Ã©tÃ©
Ġm ettez
Ġn Ã´
Ġn aissance
om pe
Ġf irm
Ġde ce
Ġh ole
us te
Ġun lu
Ġre asons
te e
Ġla v
Ġin de
ce an
Ġen nem
Ġdo zen
ch ent
ch au
Ġr it
Ġan ger
al er
ver rai
Ġpl ants
os Ã©
ir urg
Ġpar venu
ill y
Ġall umÃ©
Ġso cks
Ġex ag
Ġdu mb
Ġhapp ier
Ġlong ues
Ġdire ctement
Ġent h
Ġparl ais
ck et
Ġper ds
Ġfau tes
Ġfer as
Ġmal in
On ce
Ġint rig
En v
Ġsent it
Ġsent ait
ĠA l
Ġprop erly
Ġmet h
Ġfu lly
Ġregard es
ĠdÃ©t on
Ġunderstand ing
Ġrem ise
Ġtrouv a
ĠS h
Ġinc ome
Ġass urance
Ġbo ard
Ġcher ches
Ġviv ait
Ġimportant es
Ġgreat est
Ġgen ius
Ãī te
Ġact or
Ġarg ue
Ġtemp or
Ġmen ac
vel op
ib ly
ĠrÃª ver
Ġadd ition
Ġsurv Ã©cu
App elez
Ġval ises
Ġbox es
Ġfonction nÃ©
igne z
Ġstrong er
occup e
ĠÃ©v iter
Ġkn ocked
Ġplain te
tres s
Ġpolit ics
ĠrÃ©al iser
Ġsatisfait e
mon ie
Ġhold ing
Ġappe ars
Ãīc rivez
Ġpou red
Ġappl ication
Ġnewsp apers
Ġremerc ie
Ġdoub ts
Ġconst amment
Ġrepro d
Ġscient ifique
Ġfly ing
Ġcommit tee
Ġcrow ded
Ġdef inite
ĠdÃ©mÃ©n agÃ©
Ġannul Ã©
Ġfif ty
Ġfif teen
Ġcapit aine
Ġracont Ã©
Ġcance led
ĠdÃ©pourv u
ĠÃ©criv ain
Ġterm s
Ġincred ible
Ġliqu ide
Ġbott om
Ġcast le
Ġwit ness
ĠchÃ¢ teau
Ġbrouill ard
Ġunlu cky
A ide
C le
K yoto
d is
i o
n eur
p re
r an
u mb
Ġ eur
Ġ Ce
Ġt al
Ġt Ã©m
re en
Ġd ot
Ġd ri
is Ã©es
Ġl ou
Ġl Ã¢
er k
er al
Ġm Ã©c
Ã© ant
Ã© rez
an a
Ġn amed
om be
Ġf oi
Ġf out
Ġb arg
Ġb aked
ar row
ent endu
Ġth ick
Ġg ate
Ġla ck
Ġtr ack
Ġr ate
Ã©t aient
ren ez
Ġas tu
Ġas ide
ol n
ol er
Ġsh ame
Ġex ige
Ġfait h
Ġar rog
ci ation
are z
Ġsi este
Ġson nÃ©
Ġapp orter
ten ce
Ġdem ie
La quelle
Ġag it
Ġche ated
Ã® le
ress eux
art icle
Ġatt rib
Ġgot ta
Ġoff ered
Ġdemand es
Ġdemand ais
Ġfer ons
ĠprÃ© venu
ĠprÃ© nom
Ġlast ed
Ġor anges
Ġpa resseux
Ġwon dered
Ġporte z
Ġtrois iÃ¨me
Ġconf irm
Ġarriv ent
Ġrem Ã¨de
Ġhur ler
Ġaim eriez
ace book
Ġob st
Ġkind ness
Ġcompl iment
Ġdou Ã©
Ġstr uck
Ġmeill eures
Ġquit te
ip s
Ġcam bri
Ġfi rent
Ġsal ade
Ġsau ce
Ġpap a
Ġbit ter
inc oln
Ġhor reur
Ġbag s
ĠdÃ©r angÃ©
Ġadm ire
Ġsince re
Ġrob bed
Ġopin ions
Ġhands ome
Ġmour ut
Ġpatient s
Ġval u
Ġval ue
Ġcoin cidence
Ġpick pock
Ġparticul iÃ¨rement
ĠR ussi
Ġform ulaire
Ġaccomp li
Ġhaut eur
Ġpossib ilitÃ©s
ĠvÃ©rif iÃ©
Ġprodu ct
DÃ©s olÃ©e
Ġcharg er
Ġconsid Ã©rÃ©
Ġpower ful
Ġmensong es
Ġden y
Ġplant ed
Ġquant itÃ©
Ġjal ouse
Ġdraw er
Ġrepr Ã©s
ĠÃ©ner vÃ©
ĠnÃ©g oci
Ġbaiss er
Ġpratique ment
ĠsupplÃ©ment aire
Fr ank
ĠpÃ©nÃ©t rer
Ġchauff eur
Ġhesit ate
ĠrÃ©gl er
ĠmÃ©dec ins
Ġbecom ing
Ġdestroy ed
Ġchand ail
Ġunus ual
add ition
Ġi P
ĠtÃ©m oin
B on
C eux
M an
N on
O ui
P ro
P rices
c ope
e ared
h and
h uit
m it
w er
w rit
z ed
Ġd otÃ©
Ġa mp
Ġa llem
Ġs ain
Ġs ink
Ġs ail
Ġs aig
is ent
Ġl ines
Ġl ouer
Ġc asse
Ġm all
Ġm Ã©n
Ġm obile
Ġm aman
Ġn et
Ġn arrow
it ter
Ġf ake
Ġv illes
or mer
est re
est omac
Tom orrow
ais on
ot tes
il i
id Ã©es
lle y
ch ait
Ġr ues
Ġhe ur
Ġhe ight
ie w
tu red
Ġpar la
ren ces
Ġwe igh
Ġau rons
av es
Ġune xpected
Ġas si
Ġst ared
Ġles son
ĠdÃ© velopp
ĠdÃ© rob
Ġpro ver
ois eau
ĠM ex
her be
Ã©c l
ap a
Ġam ical
Ġpart age
Ġcr oyez
Ġman iÃ¨res
uis s
Ġcl aim
Ġes prit
Ġhelp s
ob Ã©
Ġtrain ed
Ġca res
Ġpass age
Ġsav ing
Ġsp are
Ġmal entendu
Ġint ent
Ġcour ri
Ġplan Ã¨te
ĠfranÃ§ais e
Ġrest Ã©s
acc us
Ġfind ing
Ġgar Ã©
aider ai
Ġfort un
Ġproch es
ĠmÃ© pr
Ġcrois s
Ġrev iendra
Ġcam ar
util ise
Ãī tud
Ġdoll ar
Ġpap ers
Ġhigh er
Ġsour i
Ġir ons
App ortez
Ġlib ertÃ©
Ġbar king
Ġdel ayed
Ġordin ateurs
Ġwar ning
Ġcomplain ts
Ġapolog ized
Ġcade aux
Ġeng aged
Ġperd ue
ĠrÃ©flÃ©ch i
Ġclim at
lo ge
ari an
Ġtot al
Ġchev aux
Ġrid icule
Al most
Ġcand y
Ġnote book
Ġpou let
Ġprote ction
ograp he
Ġlim it
Ġdirect eur
Ġdet ail
env oyer
Ġvot Ã©
Ġemploy Ã©s
Ġelect ed
For get
Ġgrat uite
Ġholid ays
Ġrom ans
Ġdoig ts
Ġmarch and
Ġadop ted
Ġpock ets
lac er
Ġcens Ã©e
DÃ©p Ãª
Ġappa rence
Ġearn s
Ġrepe at
Ġdescri be
Ġben ch
Ġcontrari Ã©e
Ġaj outer
Ġclos et
Ġtap is
Ġlamp e
Ġrelations hip
Ġfoc us
ĠblÃ¢ mer
Ġrab b
Ass ure
Ġgreet ed
Ġdetermin ed
Ġcere mon
Ġpatr onne
Ġbais er
ĠcoÃ¯n cidence
A ngleterre
E urope
M ais
P ard
P endant
b s
m ates
o ffe
r oid
s te
u mp
Ġ The
Ġ Le
Ġ Pourquoi
Ġt ente
ou ff
re uses
Ġd urer
Ġa ver
Ġa ussitÃ´t
Ġs avaient
Ġl ion
Ġl ux
Ġl ower
Ġl Ã¢che
Ġc out
om fortable
Ġf Ã»mes
Ġb asse
Ġb ark
Ġv ar
Ġde af
eu le
Ġj og
te ctive
se ction
Ġen reg
Ġr ail
Ġhe in
out ons
Ġch im
Ġpr os
ic ag
Ġte x
Ġon ze
Ġpl ate
ie v
Ġpar oles
Ġcom itÃ©
Ġit self
ac tÃ©
ne lle
op s
ly mp
Ġdes perate
Ġsh ock
Ã©c art
Ġquel s
Ġcomp rÃ©h
che tte
Ġapp rend
Ġag ir
ven ez
Ã©r Ã©s
Ã©r ateur
Ġpre uves
Ġbl ow
Ġmat iÃ¨re
Ġven ait
ĠF acebook
Ġret irÃ©
Ã´t s
Ġfais iez
Ġvie ill
ĠrÃ©p arÃ©
Ġregard ez
Ġgl o
Ġlaiss es
Ġconf ortable
Ġsc ol
Ġsc Ã¨ne
Ġtrouv ent
Ġfo ld
Ġtravaill ons
Ġass ume
Ġconc erne
Ġtable aux
Ġgar ant
Ġopen ing
Ġdoct ors
Ġbeg un
Ġmis er
ĠÃ©p arg
Ġsal ad
Ġown s
ĠCh icag
Ġinter v
Ġcook ed
Ġattend ed
Ġtru ly
Ġcontinu a
Ġclose ly
ĠrÃ©f rig
Ġsac rif
Ġdisapp oint
Ġsuper be
Ġthir teen
ĠÃ©g oÃ¯
Ġsoi xante
Ġmill ions
Ġurg ence
Ġsuccess ful
Ġdonne z
Ġprep are
ĠdÃ©l icieux
Ġnovel s
Ġtromp er
ĠÃ©trang Ã¨res
Ġloc uteur
Ġpainting s
Ġpauv res
Ġnature l
Ġhop es
Ġmention nÃ©
Ġobject if
Ġvolont Ã©
Ġdanc ed
Ġcherch ais
Ġfle x
ĠÃ©m ot
Ġnation al
import ant
Ġremind s
Ġunc omfortable
Ġlarg er
Ġlarg est
Ġpronon cer
Lis ten
Ġlog ique
DÃ©p Ãªche
Ġrelig ion
Ġannoy ing
Ġthreat ened
Ġconclus ion
ĠdiplÃ´ mÃ©
auc un
Ġtext book
Ġeconom y
Ġing Ã©n
Ġconcentr ate
Ġpoll ution
Ġamen Ã©
ĠnÃ©gl ig
Ġnons ense
Ġstun ned
Ġmente use
Frank ly
ĠChicag o
A llemagne
C on
C ats
F ind
F rench
H eure
P erm
R Ã©p
T ime
c o
c tes
g s
g est
l ou
m bles
r ud
u rent
v res
w are
y si
Ġ :
Ġp y
Ġp or
Ġp ure
Ġp ig
Ġp ist
Ġs igner
Ġs illy
on y
is hing
is tence
en vers
Ġl us
er vÃ©
Ġc ure
Ġc Ã´t
it eur
Ġf ate
as sez
as censeur
Ġde g
Ġde velop
ar ture
Ġun de
Ġun iver
Ġre tenir
oi ds
ant ly
se pt
il ities
Ġtr ompe
Ã¨ ce
Ã¨ ner
ch oir
Ġr assembl
Ġch irurg
ie uses
ons t
Ġwe apon
ag Ã©e
ill ed
ue z
Ġsh ook
Ġsur r
Th ink
ense ign
onne ment
Com men
Ġres ist
Ġche aper
ĠÃ© pr
ĠÃ© quip
Ġhelp ful
Ġmar teau
ob tenir
Ġtrain s
Ġpers onn
Ġpass agers
Ġsomet ime
Ġbl uff
Ġcomm ande
um mer
Ġlit er
ĠprÃ© venir
Ġbel t
Ġint ended
Ġph ysi
ĠdÃ©c oll
ĠrÃ©p ar
endre z
Ġput ting
Ġdep arture
Ġmor al
Ġ1 2
Ġob jection
Ġwalk s
Ġmot or
Ġcor riger
Ġmay be
Ġdou ce
Ġdou lou
Ġbig gest
Ġaff air
Ġconse ille
Ġins ane
Ġchange ments
ĠmÃ© chant
Ġsol aire
Ġchoi ces
Ġvisit ing
arm Ã©e
Ġretour nÃ©
apprÃ©c i
Ġinter section
Ġempl oyÃ©
Ġcri er
Ġgent ils
emp orter
Ġmess ages
Ġinform ed
Ġsour it
ward s
Ġsy mb
Ġdess in
Ġreason able
ĠL une
Ġhabit s
Ġtre mbl
Ġouv rage
Ġcomputer s
Ġcu ill
ĠÅĵ uv
Ġcent er
ĠMonday s
Ã©tud iants
Ġviol ent
Ġsatisfait s
Tr ois
Ġtim id
Ġsty l
Ġamb ition
Ġsuppos Ã©e
ĠrÃ©c ol
Ġferm Ã©s
sh irt
Ġcuri os
ĠmÃ©r it
Ġconstr uction
Ãīc ris
Ġconvainc ue
Ġmir oir
Ġmir ror
imag in
Ġadmit ted
Any body
ĠprÃ©fÃ©r able
Ġmou choir
ĠÃ©cl air
ĠÃ©te indre
Ġlig nes
Ġfle uve
adm ets
Ġpack age
ĠV alent
Ġhang ing
Ġele ven
Ġfing ers
ĠdÃ©mÃ©n ager
ĠAm Ã©ric
Ġgener ous
Ġinvent Ã©
pir ation
Ġattack ed
Ġallerg ic
Esp agne
neu f
Ġemm ener
auc une
ĠÃ©puis Ã©
Ġmeu bles
Ġdistur b
ĠÃ©toi les
Ġham mer
Ġaltern ative
ĠnaÃ¯ f
Che ck
Sm oking
endorm ir
Ġwebs ite
Ġperform ance
Ġsup Ã©ri
Ġmerveille use
Ġsoudaine ment
ĠcÃ©rÃ© monie
Ġblag ues
Ġprepar ing
Ġscold ed
ĠAl ice
Ġceremon y
ĠrÃ©frig Ã©rateur
Commen Ã§ons
A idez
B l
D u
E ach
S ever
i pt
k y
m n
m ar
o ved
v ant
v ille
Ġ Est
Ġ Let
Ġt att
Ġs ons
Ġs op
Ġc ult
Ġm os
Ġm iens
Ġm Ã¨tres
Ã© an
Ã© lect
qu it
Ġb ol
Ġb ale
Ġv Ã©g
ar ily
ai led
Ġg ants
eu l
Ġo cean
Ġre du
il os
im ate
Ġha mb
Ġpr at
al if
Ġpl omb
ir ais
Ġfor ts
Ġwe ap
ag nes
ag issait
Ġex prÃ¨s
Ã©c ut
ong e
Ġam itiÃ©
Ġsa ou
Ġcr is
Ġcr ash
Ġup on
Ġser rÃ©
Ġcl Ã´
app artient
app rends
oun ced
Ġres ervation
Ġco ach
Ġca user
iv id
Ġbr oss
Ġpass es
Ġcont ag
Ġpren ons
Ġpla fond
Ġmat er
ĠÃ©c rite
Ġret ira
ĠdÃ©c or
Ġfais aient
Ġmin im
Ġrec ons
Ġplan et
Åĵ ufs
Ġroom s
Ġsec ours
iz ation
Ġdisc our
Ġdisc overed
Ġdisp ute
esp ace
Ġaim ons
Ġces se
Ġconc ours
Ġdec l
Ġref riger
Ġprof onde
gg age
Ġcor resp
Ġrend ra
Ġlu ggage
Ġaff am
Ġstr u
St and
ĠpiÃ¨ ge
Ġrev iend
Ġperm an
Ġperm ett
Ġ2 00
hab itu
Ġfar mer
Ġinter pr
Ġpartie l
Ġbit ten
emp run
Ġsugg Ã©rÃ©
Ġcop ies
Ġport ent
Ġsit ue
Pren ons
Ġamus Ã©s
Ġmen ace
Ġir resp
Ġrou ges
Ġdispos ais
Ġdream ed
Ġfa Ã§ons
Ġkiss ing
Ġfou dre
Ġvers ion
let tes
Ġswe ar
Ġapolog y
ĠÃ©l Ã¨ve
Ġimpression nÃ©e
Ġress ources
Ġleg al
Ġterrible ment
Ġjet a
Ġferm a
ĠN ag
Ġhors es
Ġinj uste
Ġcoll Ã¨
ĠdÃ©l ic
Plus ieurs
Ġmount ains
Ġpot atoes
Ġbother ing
Ġtransl ated
Ġpard on
ĠIn d
ĠprÃ©fÃ© rez
Ġach ieve
ĠtÃ©lÃ©phon Ã©
ĠÃ©cl ata
Ġsurp ren
Ġpleur ait
Ġkil os
Ġprofession al
Ġer r
Ġinvent ed
Ġcustom ers
Ġscream ing
ĠprÃ©t end
Ġgross ier
Ġmord u
Ġfre ez
Ouv rez
Ġdisg usting
Ġdrug s
ĠdÃ©tr uit
ĠfrÃ©qu ence
Ġelectric ity
Ġbull et
Ġridicul ous
Ġnegot i
phab et
ĠmÃ©th ode
Ġassum ed
Ġdouz aine
Pres que
Ġchallen ge
Ġphysi que
Sever al
Ġsop hist
ĠvÃ©g Ã©t
ilos oph
Ġweap ons
Ġirresp ons
A meric
A ctu
F ill
M oney
T oi
b b
c ri
j am
r ut
Ġt aux
Ġd ata
Ġp us
Ġp el
Ġs ir
Ġs ne
Ġs onne
on est
Ġl oser
Ã© ducation
he ures
Ġf ought
Ġf uss
Ġv irer
at hered
or ce
Ġg out
Ġg athered
Ġpas sez
Ġj up
Ġo k
ri min
ant ed
Ġin fect
Ġr attraper
ir ing
Ġfor cer
Ġfor cÃ©e
ĠÃ©t asun
ur ity
all ait
Ġso re
ue ls
Ġat h
Ġknow ledge
Ġsh out
Ġfr aÃ®
Ġar rest
Ġal ike
Ġdu mped
Ġcomp ar
Ġcr oir
Ġapp r
Ġent rÃ©e
Ġent rance
Ġad ap
Ġad vert
ab ilitÃ©s
Ġsp y
Ġsp ite
Ġmat Ã©ri
ĠB rit
Ġva ches
Ġsupp er
ĠdÃ©c our
Ġcons idÃ©
Ġcons omm
Ġple uve
Ġjou ez
Ġpol i
Ġpol ici
Ġten ez
essay ais
Ġpay e
Ġfl ood
Ġhand y
Ġarriv Ã©es
Ġrem oved
oc Ã©an
Ġenv oyer
Ġaim erait
Ġstart s
Ġinc ident
Ġ1 7
Ġob t
All ume
Ġsleep s
Ġense igner
Ġrend ent
Ġpo et
Ġtri c
ia que
Ġappel Ã©e
Ġemb au
Ġinvit er
Ġsitu ations
Ġinter dit
Ġrencon tres
adore rais
Ġsouhait ez
Ġinform Ã©
Ġstupid es
Ġstre ets
Ġpubl ished
Ġhair cut
Ġadm ettre
Ġind iff
Ġarriver ait
Ġfa usse
cu le
Ġmontre rai
uy a
Ġbat tu
Ġdisapp eared
Ġdist rait
ĠsÃ© v
Ġtent er
ric a
Ġcass er
Ã¨ve ment
Ġimagin ed
Ġwar mer
Ġeng agÃ©
Ġaccomp an
Ġsell s
Ġinqui Ã¨te
Ġpur se
Any one
Ġcharg es
Ġexcell ente
Ġloud er
ĠtÃ©lÃ©phon er
Ġconfe rence
adm ire
ĠbrÃ» lÃ©
Ġgrat uit
Ġring ing
Ġflu ently
Ġincroyable ment
Ġannul er
entend is
Ġdom icile
Prom ise
Ouv re
Ġdisting uer
Ġjug er
Ġinflu ence
ĠfantÃ´ mes
Ġenvis ager
Ġstat ue
pa rents
Ġtur ning
Ġrese arch
Spe ak
Ġalent ours
ĠillÃ©g al
Ġemploye es
Ġdefinite ly
Ġglo ves
Ġrefriger ator
B u
F o
L uck
M ore
M ange
R es
b age
f lÃ©ch
g age
h ib
k in
n ait
p as
x y
y ear
Ġ ign
Ġa per
Ġa isÃ©
Ġp omp
Ġs in
Ġs ienne
Ġs ites
on ce
Ġc ities
Ġc ott
Ġm un
Ġm iel
Ġm ix
an ches
Ġn ive
Ġf Ãªtes
as ing
Ġv ache
Ġh o
Ġh ook
ous ias
Ġqu as
ai lles
un g
ĠÃ ®
le ased
ais es
Ġj ury
Ġun b
Ġre b
oi res
Ġe ager
Ã¨ tre
ch ite
Ġr alent
Ġr af
Ġhe llo
Ġan al
Ã©t offe
ic ien
Ġse ated
tu mn
ir mer
Ġwas ted
Ãª tu
It al
ct Ã©
ĠM t
Ã©c out
ap acitÃ©
Ġar chite
Wh ile
Ġal iment
bl ige
Ġdis ais
onne z
Ġgr anted
ite ment
Ġcr aint
ĠrÃ© chau
uis ent
Ġag ress
Ġres erve
ĠÃ© qu
ob e
Ġco ver
Ġbien venu
mb ered
Ġimp uiss
Ġbr and
onn Ã¨rent
Ġbl onde
Ġsp oi
iss ante
Ġgu eule
Ġconn ait
Ġconn ue
Ġye lling
ĠdÃ©s accord
Ġrec ent
Ġrec overed
Ġpay Ã©e
min ist
Ġregard ait
Ġhand led
Ġconf idence
Ġsens itive
ĠS aint
Ġinc onn
Ġfun eral
Ġprof it
Ġrev iendrai
Ġretard Ã©
ignore r
Ġfi able
Ġsign Ã©
Ġsign ed
Ġsal on
Ġeff et
Ġgros siÃ¨re
Ġact eur
Ġsau tÃ©
Ġpap iers
Ġdir a
Ġinter rup
Ġrestau rants
inc onvÃ©nient
inc apacitÃ©
Ġbeh ave
Ġsound ed
Ġpubl iÃ©
Ġnear by
Sh all
Ġplais ante
Ġsurpris ing
Ġhum ains
Ġarm ed
Ġsnow ing
Ġsub way
Ġoblig Ã©s
Ġswe at
Ġpleuv ait
Ġimpat ience
Ġnois y
Ġjet Ã©
Ġble w
ĠPar k
Ġexper iment
Ġnoir s
Ġpossib ly
Ġpriv Ã©e
Lors qu
ĠdÃ©g oÃ»t
Ġcrit ic
Ġjol i
Ġball on
Ġendorm ie
Any thing
Ġchante use
Ġsurviv re
Ġeffe ct
ĠmÃ©t ro
Ġvot er
Ġcho quÃ©
Ġenem ies
Ġqual itÃ©
Ġbur ning
Should n
ĠarrÃªt Ã©e
Ġressent i
Ġprofession nel
Ġvolunte er
Ġlour de
accomp agner
Ġhyp oth
mpl oy
Ġincred ibly
Ġeffectu er
ĠamÃ©ric ain
Ġdistur bed
Ġfab ri
ĠcoÃ»ter a
ĠpÃ¢ le
Enf in
Ġdrog ue
Dr ink
Ġteen ager
Ġindust ry
Ġpharm ac
Ġbleed ing
Gu ess
ĠmÃ©tÃ© o
Ġmeth od
Ġtal ents
Ġbarg ain
Ġallem and
Ġintent ions
Ġaver age
Ġjog ging
ĠÃ©goÃ¯ ste
Ġuniver se
Ġtatt oo
Ġsophist icated
ĠvÃ©gÃ©t ar
Ġaccompan ied
A d
D ieu
F umer
M aman
P apa
S oon
a x
c an
j ud
o ffre
y ond
Ġ ur
Ġ She
Ġ Que
Ġt ense
Ġt ip
Ġt ape
Ġd angers
Ġp Ã©tr
on ques
Ġl ut
Ġl ois
Ġc ave
Ġc uire
Ã© en
Ġn ag
Ġn ord
Ġw ild
qu in
as y
Ġb re
Ġb ound
Ġh ar
Ġh il
Ġqu arante
ve ille
or gan
Ġth ro
Ġne at
ot a
Ġre qui
te aux
Ġle ak
id s
Ġbe yond
Ġtr ous
ch on
Ġr and
Ġpr ince
au les
Ġan g
Ġce iling
ic les
Ġpar tez
end ue
end rier
ag ir
Ġas tr
Ãª ter
ut ed
Ġall ais
Ġst amp
que lles
Ġdes erves
Ġpro cess
Ã©c rit
ap es
Ġver res
Ġus eless
Ġgr Ã¢ce
Ġcr oient
Ġfe rez
Ġout r
Ġson ner
Ġren ted
Ne xt
Ġdem eure
Ġcl ar
Ġag es
Ġche ek
Ġent iÃ¨re
ob il
aid es
Ġatt ends
Ġfin it
Ġpe au
ud ed
iss ue
Ġmat erne
Ġpos itive
Ġexp Ã©ri
Ġbon jour
Ġro ll
Ġreg ular
Ġph ilosoph
Ġmin ce
Ġpol icy
Ġcour ageux
Ġtw in
ĠA si
essay ez
Ġac tress
Ġrep orter
Ġsort is
Ġgl ac
Ġache ta
enc re
Ġsc and
th ough
Ġmus ician
Ġaim ait
ĠS e
Ġexpl ications
Ġlis ez
Ġessay ez
Ġcher chez
Ġdou x
Ġbou ge
Ġrain y
Ġvoy agÃ©
Ġins ult
Ġcontr aire
Ġsk irt
Ġbless ure
Ġdeven us
Ġpasser a
hab iller
Ġrel ated
Ġkid n
Ġcri mes
In s
Does n
Ġstre t
Ġprison er
ĠcÃ´ te
Ġadm is
Ġind ivid
Ġfast est
Ġru in
Ġhead ed
attend ait
Ġhum or
Ġtrans p
Ġtrans port
ĠrÃ©f lex
Ġcorre cte
Ġmange a
Ġbat tle
Ġdead line
Ġesp Ã©rons
Ġdaughter s
ĠG r
ĠG ermany
Ġdark er
Ġpleuv ra
Ġfact ory
Ġappro che
Ġclim ate
Ġtrad uit
Ġtrad uction
Ġthank s
Ġpriv acy
Ġembarrass ing
Ġprodu cts
Ġrisk s
Ġappl au
Ġeffray Ã©e
Ġentend it
Ġpouss Ã©
exc use
Ġignor Ã©
Ġhorri f
alle mand
Ġvict ime
Ġquelc onques
Ġsouvenir s
Ġcondu cteur
Ġsurp rendre
Ġscient ist
enn uyer
ĠrÃ©d uire
ĠdÃ©test ent
Ġcoo per
hum our
Ġed ge
ĠsÃ©jour nÃ©
Ġsimil aire
Ġkil om
oph one
Ġself ish
Ġmeur t
Ġrespe cte
Ġprisonn ier
Gr ab
ĠrÃ©v Ã©l
Jus te
ĠdÃ©termin Ã©
ĠsupplÃ©ment aires
ĠpÃ©ri ode
Ġcoun ting
Ġsqu are
Ġauthor ity
ĠÃ©toi le
ĠfÃ¢ chÃ©
Ġpred ict
ĠÃ©lev Ã©s
Ġja une
Ġbatter ie
Ġinvestig ation
appl ique
Ġtat ou
ĠrÃ©cup Ã©rer
Ġmys tery
Demand ez
ĠreprÃ©s ent
Ġcourri el
Ġfortun ate
ĠcÃ´t Ã©s
ĠValent ine
ĠclÃ´ ture
Ġcorresp ond
Ġok ay
Ġnive au
ĠÃ® le
Ġhil ar
Ġthro at
C ut
C ond
M Ã¨re
O b
P Ã¨re
P ass
R ac
S al
b ly
i um
m a
m ine
n ons
o blige
r al
r ation
r asse
t o
u ri
u Ã©e
w ood
Ġt ig
Ġt arg
Ġt endu
Ġd outes
Ġp areil
is on
en fu
Ġc ise
in os
Ġm i
Ã© pr
an Ã§a
qu ette
as ter
Ġb ombe
Ġv ente
Ġde fe
Ġh Ã©s
ve re
ent iel
ot er
ot te
Ġo ven
Ġre ject
Ġin k
Ġen nemi
Ġr ush
au tÃ©
Ġan cient
al f
me mber
Ġfor tes
ons tr
ons cious
Ġk icked
Ġpour raient
am ie
Ġat om
Ġav ancer
Ġcon ce
ig ine
ol ution
Ġsh all
Ġwh ist
ici al
Ġpart ons
Ġson na
ide mment
ven ant
Ã§ ait
Ġco c
ist ance
Ġad orent
Ġpass Ã©es
Ġmu d
Ġsp l
Ġsp oon
iss ors
Ġmat hematics
Ġexp rimer
ĠB e
Ġbu vez
Ġlit tÃ©
Ġshe ep
Ġwho ever
Ġbel ow
Ġor dre
Ġdi able
gl asses
Ġjou ent
Ġrec over
Ġpersonne lle
Ġprom it
Ġprom otion
Ġsec urity
Ġter ror
Ġfl ag
Ġsimp ly
Ġemp orter
Ġemp ortÃ©
Ġemp lettes
Ġsc issors
Ġarriv es
ĠÃ©tud es
Ġinc ons
ĠdÃ©p enser
Ġmont agnes
Ġcher chÃ©
Ġreme mbered
Ġpat h
Re member
Ġhab illÃ©
Ġtrouver ais
Ġmist ook
ĠprÃ©s ents
ĠrÃ©s ervation
Ġanswer ing
Ġinf irmiÃ¨re
Ġrev ienne
Ġabs ur
ĠÃ©p ouser
ĠÃ©p aule
ĠÃ©p aules
ĠO lymp
olog ist
Ġprod uise
we ight
Ġvoi ent
Ġbag gage
Ġinst itutrice
ĠsÃ»re ment
Ġir rit
ĠrÃª vÃ©
iend rait
Ġagree ment
oig nez
Ġbois sons
Ġsus h
Ġlib res
ĠnÃ©cess aires
intÃ© rÃªt
Ġbill s
ĠP rÃ©s
Ġcent aines
Ġpublic itÃ©
Att ention
Ġsignif ication
ĠÃ©l u
Ġassis tÃ©
Ġtall est
Ġem men
ĠrÃ©uss ite
ĠdÃ©f i
ĠdÃ©f in
Ġorgan isÃ©
od eur
Ġrequ ired
Ġcand les
expl osion
Ġpou le
Ġsouc ier
arriver a
raÃ® ch
Ġhop ed
Ġcharg Ã©
ĠprÃ©p are
ĠrÃ©g ul
Ġtend it
Ġloud ly
ĠdÃ©cl arÃ©
Ġach Ã¨te
Ġrepro cher
Ġvole urs
Ġvot ed
ĠW ar
Ġfle w
ĠbrÃ» l
Ġcroy ait
Ġer ror
Ġstri ke
Ġself ie
Ġallerg ique
Ġfourn ir
Ġconsac rÃ©
ĠÃ¢g Ã©es
Ġgrimp er
Ġressembl ent
Ġunf air
Ġghost s
Ġpostp oned
ĠAf rica
Ġos es
Ġattemp t
Ġappear ance
Chois is
ĠdÃ©prim Ã©e
Ġcollect ing
ĠamÃ©lior Ã©
Ġoper ation
Ġserp ents
ĠUS A
Ġvalu able
Ġpickpock ets
Ġmarchand ises
Ġflex ible
Heure usement
ĠfraÃ® che
Ġcott age
Ġquas iment
Ġcise aux
ĠPrÃ©s ident
1 0
H ad
H ang
I gn
M angez
R ends
S er
W omen
a wn
c ast
c lÃ©
f um
l am
m ate
m ail
o v
r ine
t own
u ed
u pp
u ct
u tement
w ed
Ġ Elle
Ġt in
Ġt Ã©l
Ġt Ã¢
Ġa ie
Ġa ient
Ġp es
Ġs oigne
is ing
Ġm ouse
Ġm irent
he art
Ġn in
Ġn icer
Ġn ana
it i
Ġw re
Ġw est
Ġf Ã©lic
at ors
Ġqu arter
Ġj ui
Ġj oie
Ġla wn
Ġha utement
Ġe ase
Ġen ds
Ġpr ude
al arme
Ġte int
Ġdon nÃ©e
end ent
ill ons
Ġtu Ã©s
Ġpro hib
Ġsh aken
Ġfr o
ĠM ay
Ġex ig
st ick
Ġab at
Ġta b
Ġal ibi
Ġcomp ared
Ġpart s
Ġgr own
Ġcr o
Ġman ip
Ġman ques
Com m
Ġser ions
Ġtou chez
Ġcl assi
Ġres cu
Ġsais i
Ġlong u
ob sc
Ġpens ons
Ġcar ottes
Ġimp Ã´ts
Ġatt a
Ã©r ait
Ġbes ide
Ġper ple
Ġcont ro
Ġbl ond
Ġbl ock
Ġsp ont
ĠprÃ© d
ert y
Ġmes ures
Ġacc ur
Ġpa resse
Ġfaut eu
Ġdi riez
Ġcons Ã©qu
ĠrÃ©p and
ĠdÃ©s ert
Ġfran che
Ġpris es
Ġtw ins
ĠA p
Ġfl ash
Ġsouv enez
og ram
ĠdÃ©t our
Ġaim ed
Ġinc endie
Ġfo lles
Ġass ure
Ġass ass
Ġcomment aire
Ġconc lu
Ġ1 5
Ġcond am
Ġmot o
Ġturn s
Ġrapp el
Ġkeep ing
Ġhab illÃ©e
Ġcle ared
Ġfac tures
Ġlang age
Ġaider ai
Ġwish es
ĠmÃ© ch
ĠintÃ©ress Ã©s
Ãī l
Ġment ally
Ġforg iven
Ġsau ve
Ġsau rait
Ġ2 5
Ġtour nÃ©
Ġinter fe
Ġentre tenir
Ġcri Ã©
Ch ristmas
Ġfavor i
Dis p
aut om
Ġattend ent
ĠÃ©tudi antes
Ġty ph
Ġinst all
Ġrespons abilitÃ©s
Ġmusic ien
Ġtax is
Ġrou g
Ġsuc rÃ©
Ġrob ber
Ġhon or
Ġban ane
Ġsac s
ĠG ree
Ġsun glasses
Ġsto pping
Ġviend rait
Ġgrow s
Ġtent a
Ġsuit s
Ġcoin s
Ġmagas ins
Att rap
Ġmed ical
Ġkn it
Was hing
Ġplain tes
Ġbuilding s
Ġrece ive
Ġmod erne
Ġ19 9
Ġposs Ã©d
Ġpan ier
Ġess ai
Ġcard iaque
Ġdivor cer
Ġcir cle
Ġcamp ing
Ġprodu ction
ĠinvitÃ© es
Ġmoyen ne
Ġignor ance
Ġimpro ved
Ġdet tes
Ġtransl ation
Ġsurviv ors
Ġplac ard
Comp are
Ġimpl iqu
Ġrepro che
Ġlic enci
Ġfant astic
Ġcho quÃ©e
Av ons
Ġexcit ant
Ġparticular ly
ĠÃ©lect ron
Ġprincip al
Ġanc ien
Rem ettez
Ġcit iz
ĠprÃ©t endu
Ġcompos ition
Ġambit ieux
Ġbanan a
Ġvoisin age
Ġaccompl ir
Ġpoin te
Ġtyp es
Ġorigin al
Continue z
ĠfrÃ©qu ent
Ġpostp one
esc al
Ġequ al
het ic
Ġlap in
Ġfain ted
ĠlÃ¨ vres
Ġdistr acted
Ġexch ange
Ġadul tes
ĠSp ain
Ġallong Ã©
Ġparcour ir
Ġpuzz le
Ġsignific ant
Ġfuri eux
Ġdor ment
Ġenth ousias
ĠdÃ©ton ation
ĠRussi an
Ġmiser able
Ġunde rest
Ġmotor cy
Ġcuill Ã¨re
Ã©lect ricitÃ©
Ġminim um
jam as
Ġraf raÃ®ch
Ġtatou age
Ġtarg et
enfu ir
Ġsoigne usement
Ġjui ce
Ġclassi que
Ġperple x
B ut
B ois
L Ã¢che
M en
S te
T en
W on
c ure
d om
d rai
m ain
m Ã©e
p he
r os
u eux
u yez
x ophone
y th
Ġ How
Ġ Why
Ġ Tout
Ġ Please
Ġp ages
Ġp itiÃ©
is ant
is tÃ©
Ġl oose
Ġl ancer
Ġc ot
Ġc uit
Ġc ord
Ġm and
Ġm ouve
Ġm ile
Ġm iennes
Ġf reak
Ġv o
Ġh ers
Ġto ol
or dre
Ġg au
Ġj erk
our di
Ġun l
Ġre leased
ri gÃ©
Ã¨ nes
ch ief
Ġr out
Ġr aw
Ġch ic
Ġch iff
Ġch aises
Ġte ls
ain ted
Ġon Ã©
Ġse es
Ġfor k
ag ez
ĠÃ©t endu
ne llement
Ġst aff
Ġst raw
Ġso ins
Ġat ter
ĠdÃ© fait
Ġmon te
tes se
Ġcon gr
ess ai
ĠM ar
st ances
Ġab e
el ve
Ġsa xophone
ff er
Ġman uel
Ġapp ren
Ġren omm
Ce lle
si eds
ĠÃªtre s
Ġcl ot
app elez
pr int
Ġpens iez
Ġad ress
ign ed
ign ons
Ġstu bb
Ġcont ient
Ġoff ens
Ġmal grÃ©
ole t
Ġbu g
ique z
Ġint ime
ĠdÃ©c rire
As sieds
Mon te
En joy
Ġgu arante
hui le
Ġmin or
Ġvis ion
Ġter mes
Ġmet ers
Ġid Ã©
Ġdown town
Ġop Ã©ration
Ġfu ite
ĠtÃ©lÃ© vis
ph ant
Ġim it
ĠdÃ©t endu
ex t
Ġrem ains
Ġput s
Ġtrouv ais
Ġaim able
Ġdec or
Ġbo ots
Ġkne es
Ġmot ion
Ġgar bage
Ġrend rait
Ġstr angers
Ġgard es
Ġpo Ã¨te
ĠintÃ© rÃªt
Ġperson ally
Ġnu mbers
Ġcommenc es
Ġcommenc ent
Ġgen oux
Ġperm et
Ġtour ists
Ġtour istes
apprÃ©c ient
Ġrel ative
Ġnat ale
Ġattend ons
Ġris quÃ©
Ġcal mes
Ġexam iner
Ġinst in
Ġrespons ables
Ġreconn ais
Ġexac te
Ġchang ing
Ġadm ired
Ġfour chette
ĠprÃ©v oyez
Ġsil ver
Ġterri bly
Ġhum ide
Ġtrans m
Ġdess ous
lect ed
ron om
Ġdist ances
Ġesp ion
Ġesp Ã¨re
Ġpun ish
Ġtent ative
Ġcomplain t
Ġtest s
Ġpoi l
Ġeng agement
Ġmod Ã¨le
Ġmill iers
Ġrecomm enc
Ġferm Ã©es
Ġrequ is
Ġrequ ire
Ġembarrass Ã©
Ġdivor cÃ©
Al though
Ġ5 00
Ġnett oyÃ©
Ġcamp us
reed om
Ġcand le
Ġprodu ctive
lev ant
Ġhonest y
rop h
Ġignor ant
Ġbreat he
Ġeffe ctive
Ġsn akes
Ġconsid Ã¨re
Ġpersuad Ã©
Ġcherch ait
Ġscient ifiques
Ġobs erv
Ġqual if
Ġpack ed
Ġsoul agÃ©
enn uie
Ġgrad es
Ġsuitc ases
Ġcell phone
acqu Ã©rir
Ġverrou illÃ©e
Ġadop tÃ©
Ġmalheure use
Lis ez
Ġant icip
Ġdom est
Ġtrah i
Ġcens Ã©s
Ġvolunte ered
Ġterrif ied
Ġconsac rer
ĠdÃ©brou iller
Ġgross es
Ġbaiss Ã©
Ġhyp not
Ġbanan es
Ġbrill ant
Ġpil ot
Ġgam bling
Ġcommer ce
Ġbasket ball
Ġcanad ien
Ġcanad ienne
ĠdÃ©termin er
ĠprÃ©occup e
Ġtoward s
Ġincre ase
ĠItal y
Ġcomprom ise
Ġappropri ate
ĠobÃ© ir
Chois issez
Ġciv il
Ġrempl ir
Ġboug ies
Ġcaut ious
Ġexag ger
DÃ©pÃª chez
Ġrabb it
Ġsurr ounded
Ġmos quit
alif orn
Ġcris is
Actu ally
Ġjup e
Fo llow
Ġmaterne lle
Ġkilom Ã¨tres
Ġlongu eur
Ġstubb orn
D Ã©
E ither
L ight
L ock
P r
S w
S erais
T ra
V alent
c rit
f s
m or
o blig
t ation
u a
w ise
Ġ La
Ġt un
Ġt aire
Ġt ail
Ġt ied
ou ille
Ġa ig
Ġs arc
on se
is p
er mÃ©
Ġm aid
Ġm Ã©l
Ã© rent
an Ã§
Ġn ue
it ables
Ġw ire
Ġf est
Ġb aig
at ic
at rice
Ġde tte
Ġto es
un ivers
Ġg ather
Ġg ear
Ġg Ã©rant
Ġj ette
Ġun es
ri ra
Ġle an
im ul
Ġe ld
Ġtr ap
Ġen vel
ch arg
ch Ã©es
Ġch op
Ã©t ang
ĠI f
al Ã©
Ġpl aig
os ition
oo led
Ġit em
ad er
ad Ã©
Ġau raient
end ons
Ġune mploy
ag ent
ac cept
Ġgo als
ard e
ig r
Ġsh ared
Ġsh irts
st ore
ook ie
Ġwh iche
oin s
Ġdev iens
Ġdev ras
Ġdev oted
ouv ant
ouv rez
ense igne
pe red
Ġgr as
Ġapp ellerai
ro le
ro che
Ġser rure
Ã» te
ast ed
Ġent our
ob jet
Ġtrain ing
Ġimp ol
Ġatt ic
Ġbesoin s
Ġoff rir
Ġoff icer
Ġdemand ai
Ġpe in
Ġpren iez
Ġbl amed
Ġsp lit
Ġread s
On t
Ġbu cket
ert ain
fe ction
Ġenf re
ach es
Ġcons ult
Ġjou ais
Åĵ uf
Ġpersonne llement
ĠA r
ĠA ngleterre
Ġprop ose
Ġover weight
Ġconf us
Ġautre ment
Ġdisp oses
Ġnuit s
Ġessay e
Ġass oci
ĠdÃ©p it
ĠdÃ©p enses
Ġbo ite
Re viens
Ġdou ze
Ġcou chÃ©
ĠrÃ©s erv
Ġins p
Ġins piration
Ġbeg inner
Ġsecret ary
Ġcam per
Ġtri ck
ĠÃ©p ic
Ġdeven ues
Ġvois ine
Ġbreak ing
di x
Ġinter pre
Ġempl oyer
Ġvoi lÃł
Ġbri Ã¨vement
Ġconfi ant
Ġsouhait er
Ġamus Ã©es
ĠdÃ©r ang
Ġir re
Ġfit s
Ġsy n
Ġbat aille
Ġbat tery
Ġlib rai
Ġouv re
Ġsold at
Ġsold ier
Ġbout ique
Ġoblig Ã©es
Ġstrong ly
Ġsecond es
ric ul
ĠH aw
Ġcent ury
Ġfront iÃ¨re
aw a
Ġform ed
Ġrespect ed
Ġrece ipt
Ġwhe el
Ġem otion
Ġwall s
Ġdeb ate
Ġdeb ts
Ġaccomp ag
Ġcoll ier
ĠprÃ©par Ã©e
ĠdÃ©l ai
An d
Ġsouc is
Ġbord er
Ġmign ons
Ġmention ed
Ġattent ive
Ġcross ing
Ġmath s
Ġcondition nÃ©
Ġach ieved
Ġ3 00
Ġmillion aire
Ġdanc er
Ġcondu ct
Ġinstru ment
Ġprov ide
Dev ine
Ġaugment Ã©
Ġremind ed
ĠsÃ©jour ner
ĠsiÃ¨ cle
Ġunc onscious
Ġcrimin el
Ġchamp agne
Ġplaisant erie
Ġconne ction
Ġappa rent
Ġcandid at
Ġgunsh ots
Ġchinois e
Ġcuisin iÃ¨re
Ġgasp iller
velopp e
Ġconclus ions
Ġben ef
gu ard
Ġconven ient
hÃ©s itez
Ġmic ro
Ġhom es
ĠmÃ©dec ine
Ġaltern atives
Ġponctu el
RÃ© flÃ©ch
ĠdÃ©sesp Ã©rÃ©
Ġsecr Ã©taire
Ġattir ante
Ġmass age
Ġmaig re
ĠfantÃ´ me
Ġexch anged
ĠcÃ¢ lin
Ġded icated
Ġgren ier
Ġdesp ise
Ġenqu Ãªte
Ġcrai gn
Ġpoig nÃ©e
Ġgrab bed
Ġrenvers Ã©
Asse yons
Ġmanif est
Ġcarp et
achÃ¨ter ais
ĠvÃ©h icule
Ġdepart ment
ĠpÃ©t role
Ġrug by
Ġennem is
hand ed
Ġheur tÃ©
ĠdÃ©rob Ã©
Ġtex te
RÃ©p ond
Ġdoulou reux
habitu er
ĠpÃ©tr in
Ġreject ed
ĠtÃ¢ ches
Ġrescu ed
obsc uritÃ©
autom ne
Ġenvel ope
Ġwhiche ver
A j
B ir
B onne
C or
C ons
D ix
H ist
H um
R endez
S ou
S ummer
U til
V is
i k
l or
l ic
p te
r ing
t able
u ine
v ente
Ġ ot
Ġ Washing
Ġd ust
Ġp in
Ġs ke
Ġs iff
Ġs outh
on cer
Ġl ing
Ġl ancÃ©
Ġc ough
Ġc Ã©lÃ©
Ġc rew
in ci
Ġm Ã¨ne
Ġn oire
it ution
Ġf ol
Ġv ive
Ġv ies
Ġv ivez
Ġto y
Ġto ys
ar ies
ar tement
or de
ent ez
est im
ĠÃ ĩa
Ġg Ã©
le ure
ed y
eu t
Ġj ure
Ġun re
Ġre tenu
Ġsu d
Ġsu ffe
Ġbe ating
Ġr ot
Ġr ad
Ġr aff
Ġr usse
Ġch est
Ġch airs
au rions
Ã©t it
Ã©t ions
ic ale
Ġon gles
Ġse au
ir on
Ġpar an
Ġfor ty
Ġcom fort
Ġdon nes
tre et
ons ieur
Ġpour v
ag on
ag het
am use
ĠÃ©t onnÃ©
Ġst ing
ui es
ort a
Ġwh ale
Ġma Ã®t
Ġdis like
are mment
Ġpart en
Ġgr ond
Ġout do
Ġman che
la b
ro chÃ©
uis it
uis se
app r
app elles
Ġag gress
Ġag rees
ven ait
iff el
iv al
ord s
Ġoff ensÃ©
Ġparler ai
ab e
Ġsp aghet
ĠB ible
Ġbu ried
Ġjour ney
Ġven ais
Ġpouv aient
Ġacc ess
Ġacc ueill
Ã¢ chez
Ġpa jamas
Ġdi rig
Ġcons erv
Ġjou ets
Ġsm ok
Ġcour us
Ġcour ts
Ġrec rut
Ġprom ettre
Ġrest ed
ouver te
Ġrep rendre
Ġpay Ã©s
Ġfl ic
Ġhand ker
Ġache tÃ©e
Ġdisc ount
Ġconf use
Ġfind s
Ġmus cles
ĠC aliforn
Ġenv oy
ĠS treet
Ġpres ence
ĠdÃ©p ense
Ġ1 1
Ġprof iter
Ġdur Ã©
Ġpat tes
Ġbed time
Re mpl
Ġbou e
Ġtrouver as
Ġtrouver ai
Ġcou l
Ġcou che
Ġgard erai
Ġconse qu
Ġrev ient
ip ed
Ġcam Ã©ra
Ġabs ente
Ġsk ate
accord er
Ġeff ront
Ġeff icient
Ġnour ri
Ġnour ris
Ġsau ta
Ġresp irer
Ġdifficult ies
ok k
Ġtour ist
Ġprofess eurs
cin q
aut eur
Ġattend ez
Ġris ing
Ġvoi ci
Ġexam ined
ger y
Ġclass mates
Ġind o
Ġind Ã©p
Ġind isp
Ġdispos ent
Ġtravers a
ĠprÃ©v oir
Ġhum ain
Ġsafe ly
Ġpatient e
Ġjournal iste
Ġdisapp ear
Ã®tre s
ĠE iffel
Ġdiv ided
rou ille
Ġenseign ants
inst itutrice
Ġdispose z
Ġmur s
Ġidiot s
Ġdesc endu
Ġbring ing
ĠlÃ©g Ã¨rement
Ġner fs
Tr ouve
Ġsatisf aire
Ġhid den
Ġhalf way
Ġess aies
Ġtas k
Ġblack board
Ġcuri euse
Ġcrit ici
Ġcrit ical
Ġcommun ication
ann Ã©es
ĠprÃªter ai
Ġtranqu illes
Ġcous ins
Ġobject ifs
Ġthrow n
Ġacqu ainted
ĠdÃ©mission nÃ©
Ġpleur a
Ġfant astique
Ġcho qu
ĠbrÃ» le
Ġflu ent
Ġrecommand a
ĠÃ©lect rique
eng th
Ġverrou iller
Ġarr ange
Ġ4 0
Ġvir us
Ġrepr ises
Ġconne cted
Fin alement
Ġcandid ature
Ġpanne au
Ġbanan as
Essay e
Japan ese
Ġmisunderst ood
Ġaccompl ish
Ġcow ard
Ġeffectu Ã©
Ġfascin ating
Ġoptim iste
Ġoptim istic
Jou ons
ĠdÃ©rou lÃ©
Ġsinc Ã¨rement
Ġjume aux
ĠAf rique
Ġsecr Ã¨te
Ġdescend it
Ġcomprom is
Ġdiam ond
honn ÃªtetÃ©
Ġrejet Ã©
Ġgal erie
Ġadul te
Ġlif ted
ĠempÃª chÃ©
Ġod eur
Ġexperien ced
Ġmyst Ã¨re
Ãīte ins
Ġeur os
Ġarrog ant
Ã©cl air
Ġgratuite ment
Ġfold ed
Ġpor c
Ġpist olet
Ġsurpren ant
Ġpel ouse
Ġpolici ers
inos au
Ign ore
Ġwre ck
Ġprohib ited
Ġfranche ment
Ġinterfe re
Ġmotorcy cle
Ġvo lley
essai erai
ĠtÃ©lÃ©vis eur
ĠWashing ton
Ġsuffe red
Ġaggress ive
Ġspaghet t
Ġhandker chief
. Â»
C al
D Ã©b
L ove
P re
S c
S ort
V oy
W he
W alk
Y ork
b u
c ing
f l
j ug
t out
v aisse
w as
Ġ 000
Ġt Ã©
Ġd ict
Ġd igne
Ġd rew
Ġp ag
Ġp ige
Ġs cept
Ġs Ã©p
Ġl ed
Ġl anÃ§a
Ġc ible
Ġm outons
Ġn ier
Ġn ia
Ġn orth
it z
it if
Ġw ound
Ġf id
Ġf um
Ġb one
Ġb aign
Ġv ul
at ul
Ġh oney
Ġto ler
ar riÃ¨re
ar ched
or ough
or igine
ent ure
un s
Ġth orough
Ġne uve
Ġj un
our ce
Ġo vers
Ġre ver
ow ning
Ġin Ã©v
id able
Ġbe e
ay ons
Ġr ow
Ġr ass
Ġr attrap
Ġr yth
Ġch Ã¨que
Ġch uch
Ġpr ay
ic o
ic ing
Ġse w
Ġse arched
Ġpl astique
ir ait
ir ation
ad or
Ġau tumn
ag Ã¨res
ac te
ur ant
now n
Ġat mos
ang le
ig me
ol a
Ġsh ake
Ġdans Ã©
ĠM in
Ġar aig
Ġsur venir
Ġsur gery
Ġdev iennent
Ġdev iendra
Ġdev inÃ©
Ġwor n
Ġpart agÃ©
Ġgr is
Ġcr ashed
ĠrÃ© vÃ©
ĠrÃ© ception
Ġapp et
Pour rions
je une
Ġcl ue
Ġche ating
Ġhelp less
Ġwork er
Ġparl iez
Ġcar b
Ġbr anche
Ġad venu
Ġlo aded
Ġdiff er
elle ment
Ġpre gn
Ġpren ne
Ġpren nes
Ġbl oom
Ġdr apeau
iss age
Ġmal heur
Ġexp enses
Ġou Ã¯
ĠprÃ© venue
Ġpri de
Ġsupp ly
Ġenf ui
Ġph ras
ĠdÃ©c id
ĠdÃ©c Ã¨s
Ġfais ant
Mon tez
Ġpa rent
Ġcons cious
ĠrÃ©p Ã©t
ĠrÃ©p are
Ġfam illes
act iv
Ġjou eurs
Ġsm o
Ġtw elve
Ġweek ends
essay erai
Ġaw fully
Ġregard ais
Ġsouv ient
ph Ã¨re
Ġsort ons
Ġgl anced
Ġsc ary
Ġsc ener
ĠC ould
Ġsw ord
Ġpartir ai
Ġinc orrect
Ġfo x
Ġtravaill ais
Ġass urer
Ġcha leure
ĠdÃ©p oser
Ġob jet
Ġdec isions
Ġref er
Ġkne e
Ġvol can
Ġrend iez
ĠrÃ©s ister
ĠrÃ©s erver
Ġvoy ons
Ġcap ac
Ġquit ta
Ġchange a
ĠmÃ© mor
Ġyoung est
Ġstop s
Ġinf ormer
Ġvisit eurs
ĠintÃ©ress Ã©es
Ġact ive
Ġact rice
Ar riv
Ġfall s
olog ue
Ġattend it
Ġport Ã©e
Ġvoi es
Ã©p aule
Ġlight ning
Ġsuff er
Ġclass es
Ġprud ence
Ġdispos Ã©e
Ġguess ed
Ġendroit s
ett ons
Ġjoin ed
Ġhabit udes
ĠP ac
Ġsun sc
Ġtent ation
Ġsecond s
Ġcoin cÃ©
ĠboÃ® tes
Ġfier tÃ©
Ġdim in
Ġpress Ã©e
Ġfrapp Ã©e
Ġresse mbles
Tr avai
Ġappro ved
Ġtim bre
Ġsuppos Ã©s
Ġchem ises
Ġmanque z
Ġtreat ing
Ġconstr uire
ĠdÃ©g uis
Ġrum eurs
Ġball es
Ġstar ved
Ġstar ving
Ġcouleur s
agn ol
Ġentend us
exc us
Ġcommand er
Ġcharg Ã©e
Ġpron ounce
Ġtop ic
Ġvict imes
Ġouver tes
Ġsn ack
ĠtÃ©lÃ©phon erai
Ġvolont aires
Ġproc urer
Ġacqu it
Ġmillion naire
Ġfri dge
Ġsandwich es
Ġprofond eur
Ġev il
Ġsupport ive
Ġbur gl
Ġprov ided
Ġchar acter
Ġveget arian
hum an
Ġlev Ã©e
Ġcray ons
Ġpenc ils
Ġsout ien
ĠvÃ´ tres
Ġpersonal ity
Ġferme ment
Ġgener al
Ġador Ã©
Ġmanqu ent
Ġchamp ion
Ġscream ed
ĠdÃ©brou illÃ©
Ġrelig ious
Ġparticip Ã©
Ġneg ative
Ġcommer cial
Ġautom obile
Ġgradu ate
ĠprÃ©cip it
ĠdÃ©ce voir
Ġcouver ture
Ġclos est
Ġsuppl ies
ĠCD s
Ġclef s
Ġsympath ique
appro che
Ġadoles cent
emm ener
Ãīcoute z
Ġmaig ri
imm euble
Ġfich ier
Ġpill s
Ġpous siÃ¨re
Ġpropri Ã©tÃ©
Ġrembours er
Ġlat est
Ġimpress ive
Ġcreat ive
opin ion
Ġbrief ly
Ġsettle d
Ġbond Ã©
Ġconte mp
Ġdesert ed
Ġmalch anceux
Ġinhabit uel
ĠdÃ©sor ient
ĠnÃ´ tre
Ġdot Ã©e
Ġcamar ades
Ġinterv iew
Perm ettez
Ġdeg rees
Ġsymb ol
Ġstru gg
Ġur b
ĠAp ril
ĠÃ©lectron ique
Ġcongr atul
Ġlibrai rie
Bir ds
Whe ther
vaisse lle
Ġryth me
Ġscener y
Ġsunsc reen
A ir
A dd
B et
F l
G ener
H ab
H alf
L ond
O K
P ay
R appelle
S ave
S oit
S oud
T ie
a vert
b ou
b Ã©c
c ard
d ie
f or
m m
o z
o ch
r Ã©t
v Ã©e
v ol
Ġ orte
Ġ OÃ¹
Ġ Si
Ġ ult
Ġt ue
Ġd ai
Ġp ressed
Ġp airs
Ġs ien
Ġs la
Ġs aurais
Ġs ages
Ġl oyal
er y
Ġc auche
in tes
Ġm amm
an ish
Ġn oyÃ©
it or
Ġw aved
Ġf oire
Ġf rig
Ġf reedom
qu atre
Ġb av
Ġb unch
Ġb Åĵuf
at in
Ġh ais
ar ly
Ġg e
Ġg osse
us Ã©e
Ġo ignons
ri ers
Ġla und
Ġin e
Ġin qu
il a
il Ã©
Ġe igh
Ġtr unk
Ġr ats
Ġch Ã´
Ġch asse
Ġon line
Ġpl ats
Ġfor mÃ©
Ġdon ated
ad ap
ad ays
end er
Ġas ton
Ġas pir
am ies
op t
ur a
ur ing
Ġles quelles
Ġso Ã»
Ġat ro
ĠdÃ© d
ĠdÃ© jeune
Ġav isÃ©
Ġav ril
Ġave u
Ġpro ceed
Ġsh ave
ens able
ens ible
Ġfr ac
ĠM ont
Ġex istence
Ã©c outes
oin ting
ong er
Do gs
Ġam ener
ul se
Ġdev ra
Ġver ify
ouv rit
Ġus es
ci ente
Ġcomp ass
Ġcomp orter
pe are
Ġgr ay
Ġcr aw
Ġman ners
Ġag ent
Ġres ource
ĠÃ© vÃ©
Ã® n
Ġent ret
Ġent rÃ©s
ress er
Ġcar r
Ġatt endant
Ġatt aque
Ġatt aqu
Ġbr ace
Ġbr osse
ign Ã©
Ġper haps
Ġcont en
Ġfin ie
Ġdemand ait
Ġbus h
ab s
iss ions
aiss er
um s
um stances
Ġbu v
ge on
Ġbook store
Ġpi quÃ©
Ġor ch
Ġcons om
Ġcons ists
ĠrÃ©p utation
ĠJ une
Ġsou lever
Ġnom me
Ġpol ie
Si x
Ġrec all
Ġnight m
Ġprom oted
ouver ture
Ġrep lace
Ġop era
Ġmoment s
Ġinv ention
anc Ã©e
Ġregard ant
ĠdÃ©t ester
Ġarriv Ã¨rent
Ġrem ets
Ġsw am
Ġimport ants
ĠT it
Ġaim Ã©e
ĠS ud
erre ment
Ġass ur
Ġ1 3
Ġdec ent
Ġbo ld
Ġviv id
Ġcham bres
Ġbou ill
Ġexc ess
Ġwatch es
Ġfac es
Ġcou lÃ©
St art
Ġentendu es
Ġcap acitÃ©
Ġquit t
Ġsing s
Ġfai lle
Ġbless ures
Ġimm euble
Ġmag ic
Be fore
Ġbreak s
Ġment ez
Ġhun ting
Ġsau ra
Ġ2 1
Ġoubl ia
Ġretour na
Ġtour na
Ġtrouve rez
Ġfall ut
Ch ange
Ġsong er
Ġcal mer
Ġexam s
ĠprÃ©sent a
Ġtemp tation
Ġsuiv ante
Ġvit re
Ġvit am
Ġchang ent
Ġrob ot
Ġadd ressed
Ġsil enc
Ġhum id
Ġcontent es
anche ment
urg ers
Ġmange ons
Ġvers Ã©
Ġarm Ã©e
Ġjournal ist
akes peare
Ġdisapp ointing
Ġlaw s
Ġbab ys
ĠÃ©ch ouer
Ġbar b
Ġrich est
Ġtrait ement
Ġviend rais
Ġprin ces
Ã©tr ange
Ġz one
Ġju in
Ġfrapp e
Ġdroit s
Ġpolit ical
Ġpolit ician
ĠlÃ©g al
Tr ust
Tr ouvez
Ġnorm ale
ccas ions
Ġ19 4
Ġsouff rir
dess ous
ĠsÃ©rie uses
ĠmÃ©r itez
Ġremp ortÃ©
Ġtromp es
Ġride au
Ġembrass Ã©e
Ġendorm is
Ġheav ily
Ġintro d
Ġnature lle
Ġrisk y
Ã©v idence
Ġlim ites
Ġjeunes se
imag iner
Ġmalad ies
Ġpard onnÃ©
Ġsurviv ants
Ġconsid Ã©ration
Ġcur tain
Comp renez
Ġpai erai
Ġconst antly
Ġcondition er
Ġenviron ment
ĠÃ©cl atÃ©
Ġcarry ing
Ġdeserve d
Ġsurp oids
Ġdish was
Ġobs erve
Ġqual ity
Ġhu gged
Dev rions
Ġgrave ment
Ġcre ep
Ġretr ouvÃ©
Ġadop t
Ġarr anger
Ġlog ical
Ġencour age
ĠÃ©lÃ© phants
Read ing
ĠCanad ien
Prom ets
Ġparticip ate
Ġbrill ante
Ġpil ote
Ġterm ine
Ġaimer ions
Ġpsych ic
Ġspot ted
Ġtrac asse
hÃ©s ite
Ġcharm ing
Ġcharm ant
Ġfinan cial
ĠdÃ©rou le
Ġsinc Ã¨re
ĠfÃ¢ chÃ©e
Ġadoles cents
intÃ©ress ant
Pl ay
honn eur
Ġow es
Ab out
Entre z
Ġmotiv ated
Ġgramm aire
Ġintim id
Ġremark s
Ġincomp et
Oubl ie
Ġcrain dre
Ġmons ieur
Ġconfess ed
Ġneck lace
Ġunif orm
Ġrenv oyÃ©
Hav en
look ing
Assure z
iev able
Ġcurios itÃ©
Ġbale ine
Ġprat iquer
Ġdiscour aged
Ġcritic ism
Ġhypoth Ã¨se
obil ier
ĠlittÃ© r
Ġflash light
Ġcondam nÃ©
Ġclot hing
Ġrecommenc er
Valent in
Ġenfre int
Ġoutdo ors
Ġindo ors
ĠtÃ© moi
ĠrÃ©vÃ© la
Ġphras es
Ġsmo oth
Arriv es
human itÃ©
Ġbrace let
Ġdishwas her
A c
A ussitÃ´t
D Ã©g
D raw
H onest
I ci
J ud
L Ã¨ve
L incoln
M om
S end
S oyons
T alk
U se
V Ã©rif
a ffe
e en
i pp
i Ã©es
i endrez
j ama
k nown
l ation
m age
n iez
o ard
o very
r Ã´
r Ã¨rent
r ages
z ard
Ġ They
Ġ Ne
Ġ Qu
Ġ As
Ġ Re
Ġt int
Ġt ira
Ġt iendra
Ġt aill
ou le
ou lÃ©
re l
re usement
Ġd us
Ġa ck
Ġp ne
Ġp itch
Ġp Ã¨se
Ġs que
Ġs ides
Ġs Ã¨che
en verrai
er o
Ġm aux
Ã© que
an es
Ġn ie
Ġn iÃ©
Ġw ol
qu al
Ġb er
Ġb ul
Ġb ars
Ġy ard
at o
Ġde tective
Ġto wer
ai i
or ld
Ġth erm
Ġth umb
ĠÃ ´
Ġg ained
Ġj alous
Ġun w
Ġun iversitÃ©
ri mp
Ġla pt
Ġbe gged
Ã¨ ques
Ġr anger
Ġch i
Ġch ap
Ġch ass
ic it
Ġse vente
Ġpl aire
Ġpl aign
os a
os si
ir ty
Ġpar venue
Ġpar venus
and s
Ġpour ra
end ing
am ing
ac ting
ac les
res ent
op Ã©en
Ġst age
ui vez
ol ic
ust ri
Ġfr og
ort ed
Ġab as
Ġab st
Ġab oard
Ġri dden
Ġsur geon
Ġal phabet
Ġam m
Ġam end
ul p
ul ous
Ġdev rez
Ġdis ob
Ġcomp tes
Ġcomp ose
Ġcr ut
Ġcr ue
Ġcr amp
Ġcr ops
ro ite
Ġdem onstr
Ġag i
Ġres cue
Ġsais ir
ĠÃ© du
ass urance
ob s
ob t
Ġca uses
Ġbr ag
Ġad j
Ġad minist
Ġlo ge
Ġpass ent
Ġvoul ut
Ġvoul ions
Ġthan ked
Ġpre f
Ġpre cious
ud d
Ġbl own
ab out
Ġsp in
Ġfer ont
Ġcomm ission
ĠÃ©c oulÃ©
Ġshe l
ĠdÃ©c isions
ident itÃ©
Ġsou levÃ©
Ġvis ible
Ġpu pp
Ġcour tes
Ġplay ers
Ġfl ir
iqu erai
Ġregard s
Ġhand ic
Ġache vÃ©
Ġsoir s
uss es
Ġsw itch
Ġsw allow
oc r
oc rat
ĠS outh
Ġexpl iqua
Ġinc on
Ġtravaill ait
Ġtravaill eurs
Ġconc l
Ġref roid
Ġshow s
Ġpain ful
Ġpo Ã¨mes
Ġann ounced
ĠmÃ© prise
Ġdorm ait
Ġmis es
ĠarrÃª ta
Ġvisit ors
iste red
ĠÃ©p oux
Ãī v
Ġnour r
Ġmari Ã©es
Ġment ent
toi e
Ġoubl ie
Ġprofess or
Ar rivez
ĠdÃ©b ord
Ġentre pr
ving t
Ġnat ation
Ġcal endrier
Ġfeu ille
Ġsl ice
Ġtemp le
Ġamus er
Ġbi Ã¨res
Ġsour d
Ġreconn us
Ġreconn ue
Ġmil it
Ġir as
Ġir ait
Ġrou ler
Ġart icles
Ġind ique
Ġeyes ight
Ġadd ed
Ġadd icted
Ġconnaiss iez
iend ras
iend ront
Ġtru mp
Ġappreci ated
ĠgÃ¢ teaux
Ġval id
Ġtre mp
ĠÃ©ch ou
Ġesp Ã©rait
Ġbas ed
Ġchanger a
Ġviend ras
Ġsub sc
Ġrac onte
Ġcommence z
Ġmach ines
ĠprÃ©c ieux
Ġgagner a
ĠÃ©v anou
Ex pl
Ġpress er
Was h
Ġform idable
Ġbot hered
Ġsatisfait es
Ġaccomp agner
aff aires
Ġve iller
Ġremar quer
Ġmer cy
ĠN on
Ġess ential
ĠbÃ¢t iments
Ġavoc ate
Ġavoc ats
ĠmÃ©r ites
Ġsoup Ã§
Ġremer ci
Ġjeu di
Ġtreat s
Ġappe lez
Ġrum ors
ber g
Ġfamil ies
Ġgif ts
Ġappl ies
Ġconcern ant
Ġdirect ions
Ġhop eless
Ġignore r
ĠÃīt asun
Ġattent if
Ġsuspect s
ĠrÃ©e l
Comp rends
ĠdÃ©cl en
ĠdÃ©cl ara
Ġobject ive
env ie
Ġvolont iers
Ġproc Ã©der
Ġacqu Ã©rir
Ġmem or
Ġpauvre tÃ©
Ġnav ig
Ġqual ified
Ġsuic idÃ©
Ġcer is
Ġland ed
Ġmorce aux
rupt ion
Ġaffe cte
urs day
ĠdÃ©mÃ©n age
Ġbehav ing
Ġverrou illÃ©
Ġpronon ciation
Ġcustom er
ĠÃ©ve illÃ©e
Ġdom aine
Ġcit oy
Ġrepr is
Ġallerg ies
Ġding ues
Prom ettez
Fe el
Gr and
Gr Ã¢ce
Ġpoem s
Ġcommer ci
ĠdÃ©pourv ue
Ġtechn ique
Ġclimb ing
ĠentraÃ® nÃ©
Ġdescri ption
Ġpoursui vre
ĠdÃ©ce vant
Ġmeu rent
Ġpretend ing
PrÃ© p
ĠcompÃ©t ition
ĠnaÃ¯ ve
Ġbecom es
Ġattemp ted
Ġlap ins
Ġdiam ant
Ġinsist ed
Ġslight ly
Ġracc our
Ġpermit ted
ĠTh ursday
Ġdy ed
Ġpropri Ã©taire
Ġincomp Ã©t
Ġallum ette
Ġcelebr ating
Asse yez
Ġadult s
Ġapproach ing
amÃ©li orer
ĠÃ©cras Ã©
.. .
ĠbÃ©nÃ© f
Ġbruy ant
Ġknock ing
co at
Ġpy jama
Ġpersonn alitÃ©
ĠsupÃ©ri eur
Ġcult iv
Ġmater ial
ĠdÃ©lic ieuse
cri ption
Ġsne ak
Ins tead
Ġtin y
Ġprude mment
Ġfro zen
Ġexig ences
Ġabat tu
Comm ence
Ġaccur ate
Ġtyph oon
Ġunderest imate
Ġmand at
Ġtun nel
ricul ture
Ġemotion al
Ġaccompag nÃ©
Sou hait
Ġske pt
Ġappet ite
Ġpregn ant
Ġlaund ry
Ġeigh teen
ĠchÃ´ mage
Ġcompass ion
Ã®n mes
Ġcarr ots
Ġack now
Ġpne us
Ã©que mment
Ġlapt op
Ġdisob ey
Ġsubsc ri
B oy
C o
D Ã©t
D inner
F ortun
L Ã¢chez
O r
P ens
P rÃªte
R un
R ed
R el
S au
S ud
S uivez
W ords
c orn
i ance
i aux
j ong
k ward
l on
l ers
p lace
Ã Ķ
Ġ There
Ġt une
Ġt ires
Ġt asted
Ġd inosau
Ġa idÃ©e
Ġp ir
Ġp ess
Ġp ointed
Ġp ounds
Ġs ch
Ġs aint
on tez
en qu
en ess
Ġl ength
er land
Ġc erve
Ġm ult
Ġn us
Ġn Ã©s
Ġw ide
Ġw iped
om s
Ġf oir
Ġf ooled
as ure
Ġv ig
Ġv ends
Ġv ari
Ġv Ã©cut
at te
at ter
at oire
Ġyou th
Ġh arv
ous se
ent es
Je tte
Ġg Ã¨re
et er
Ġo l
Ġre de
Ġre ven
Ġre venus
ri d
Ġme ch
Ġin app
il ton
im ming
Ġbe ef
Ġtr ouvez
Ġtr omb
Ġtr istes
Ġen ce
Ġen levÃ©
Ġr ag
Ġr ise
Ġr ole
Ġr amen
Ġr acket
Ġr aqu
Ġch oir
Ġch Ã¨vre
Ġpr inc
au ts
al d
Ġse ction
Ġse vere
os Ã©e
tu es
tu rÃ©
Ġpar tes
Ġpar aiss
Ġfor mer
Ġfor tement
ill ages
am itiÃ©
ĠÃ©t onn
res ident
Ġall ant
Ġall umer
Ġall umÃ©e
ur ger
Ġst ro
all ai
if t
Ġdes ire
Ġdans eur
Ġfr ites
Ġfr Ã©quemment
Ġar row
Ġsur mon
Ġal cool
Ġam ends
Ġdev ast
Ġus ine
ci eux
Ġpart iez
Ġgr av
ive red
Ġout ils
Com par
Ġren ouve
uis h
uis ait
Ġser rer
Ġcl ung
app areil
app rend
Ġshould ers
Ġno dd
ĠÃ© glise
Ġmar ath
Ġco g
Ġbien venus
ress ing
Ġpens ions
aid o
Ġbr on
Ġbr ain
Ã©r Ã©es
Ġcont ain
Ġcont ains
Ġoff rit
Ġfin ed
Ġdemand s
Ġdemand erai
Ġpe el
Ġpe pper
Ġpre c
Ġmu le
Ġlet ting
Ġpren nent
Ġbl o
Ġbl ocked
Ġask s
Ġdr owning
Ġsp illed
Ġspe lling
iss es
ole ur
Ġtom ates
Ġven ons
Ġpri rent
Ġback wards
Ġacc out
Ġreg ister
Ġreg istered
Ġph ares
Ġdi vers
Ġdi vert
ach ing
Ġgu Ã©ri
Ġcons erver
ident s
Ġmo quer
ĠJ ust
ĠdÃ©s as
ĠdÃ©s ag
ĠdÃ©s irez
Ġcare d
act ory
Ġaw kward
Ġrest ait
Ġhard est
Ġover he
Ġrep ose
Ġrep ouss
Ġrep resent
Ġfl ies
Ġinv inci
Ġsimp les
anc ier
Ġregard ent
att endu
Ġgl iss
Ġemp ire
Ġlaiss Ã©es
ÃĬ tre
Ġarriv ing
Ġrem ote
Ġavant age
Ġhur ting
Ġend omm
Ġsens ation
Ġpres ents
Ġcha Ã®
Ġadv ienne
Ġfun d
Ġcher ry
Ġviv ants
Ġvol ant
Ġvol Ã©e
gg ing
oss es
Ġcou le
ĠrÃ©s ide
ĠrÃ©s ervÃ©
Ġcap tured
Ġstup Ã©
Ġfai bles
Ġnu clÃ©
Ġdorm it
Ġfil es
Ġcommenc Ã¨rent
Ġgen ou
Be ing
Ġrencont riez
Ġsign s
Ġforg ave
ĠCh opin
Ġempl ois
Ġsong e
Ġhor loge
Ġtrust s
Ġsl ipped
Ġbri be
Ġty phon
Ġtemp les
Ġutil es
Ġutil itÃ©
Ġstand s
Ġclass ical
Ġmen a
Ġpubl ique
Ġadm ir
Ġind iquÃ©
ĠprÃ©v oit
ĠÂ» .
Ġhum il
Ġtrans f
Ġdess iner
Ġste pped
ĠgÃ¢ cher
Ġval ait
Ġval able
orth ographe
ĠP resident
Ġtele phon
ĠG u
Ġouv riers
ctu eux
Ġdel ay
Ġdel ivered
Ġsuggest ing
Ġintellig ence
Ġintellig ents
Ġattrap a
ĠÅĵ uf
Ġaband on
ĠbÃ©b Ã©s
Ġopp on
Ġmur dered
Ġimpression nant
Ġperd ez
Ġmod est
Ġurg ed
ĠprÃ©fÃ¨re rais
Ġve in
ĠdÃ©f auts
Ġorgan isÃ©e
Ġ19 5
Ġatte ignit
ĠrÃ©c ente
ĠrÃ©c omp
Ġsymp t
Ġmang Ã©e
Ġcorrect ly
Ãīt ant
Ġfond s
Ġfond u
exp rimer
Ġrecher ches
Ġcommen Ã§ons
Ġloc ation
Ġconsider ation
Ġtalent ueux
Ġbath tu
Ã©v iter
Ġwarm th
Ġappl ied
Ġbal ance
Ġconsc ien
ĠrÃ©g ion
Ġouver ts
ĠmÃ©t ier
Ġimpl iquÃ©e
Ġsauv Ã©e
Ġsurp rend
ĠbrÃ» ler
Ġhorrible ment
Ġsuic ider
ĠarrÃªt Ã©s
Ġcer f
ĠrÃ©d uit
Ġwel com
Ġcoo perate
Ġpier res
Ġplu mber
amb ition
ograph ie
Ġretr ouv
Ġrej oint
Ġprincip ale
Ġcab inet
Ġespoir s
lac Ã©
Ġencour aged
Ġfourn i
accep te
rÃªt ons
Ġracont a
Ġram ener
Ġannoy ed
Ġfre qu
Ġromp re
ĠdiplÃ´ me
Fr anchement
Ġ7 0
ĠamÃ©l i
Ġchauff age
Ġoppos ite
PrÃ© v
inf irmiÃ¨re
Ġlab or
den ly
Ġannon cÃ©
Ġintern ational
Ġsurve iller
Ġcoop Ã©rer
Ġcirc onst
Ġwhis pered
ĠÃ©lev Ã©e
Ġwebs ites
Ġpous se
Ġbran ch
Ġcelebr ate
Ġcrai g
allow een
Retour ne
Ġsepar ated
Ġforc Ã©s
ĠtraÃ® ner
Desc ends
Desc endez
ĠÃ©lÃ©g ant
Ġdisput ent
Cher chez
Ġmalch ance
amÃ©li ore
Ġvoc ation
ĠdÃ©cÃ©d Ã©e
ĠgÃ©nÃ© reux
Ġblank et
Ġinterromp re
Ġromant ic
ĠSh akespeare
ĠiP ad
writ er
Ġclaim s
Ġlux e
Ġrail road
Ġscol aire
ĠÃ©mot ions
enseign ant
Ġbluff ing
ĠrÃ©col te
Ġhamb urger
Ġplomb ier
ĠInd ia
Ġindiff Ã©rent
Ital ie
Ġpharmac ie
Soon er
ĠrÃ©flex ion
Cond uis
Rac onte
Ġemmen Ã©
Ser vez
heart ed
Ġmanip ul
Ġatta quÃ©
Disp oses
Ġlicenci Ã©
Ġperplex e
Ġcord es
Ġmouve ment
Ġunemploy ed
Ġinterpre ter
ĠHaw aii
Ġling e
okk aido
Ġpag aille
Ġtoler ate
Ġburgl ar
Gener ally
Soud ain
oz art
Ġorte ils
Ġfrig o
Ġresource ful
ĠTit anic
Ġprinces se
Ġintrod uit
Ġincompet ent
ĠtÃ©moi g
Fortun ately
Sud denly
Ġpess im
Ġharv est
Ġinapp ropri
Ġprinc ess
Ġwelcom ed
? "
? Â»
B I
B ad
D ad
F irst
O ver
P le
P ars
P ortez
S tu
a bli
c ente
d el
d ies
f our
h in
h am
h ol
j u
m ons
m onn
n t
n ette
p ack
p endant
t ies
y ant
z il
Ġ This
Ġ Les
Ġ iv
Ġ En
Ġt ache
Ġt iers
Ġt iennent
ou est
ou pe
Ġp it
Ġp Ãª
Ġp ac
Ġs Ã©d
Ġl oses
Ġc Ã©d
in Ã©e
Ġm ai
Ġm Ã¢
Ã© chÃ©
Ã© lection
an im
it Ã©e
Ġw ished
Ġf Ã»t
qu a
Ġb Ã»
Ġb ande
ll er
Ġv om
Ġv ides
Ġde als
Ġh oc
Ġh ib
Ġto re
or ange
ent er
un ciation
Ġth ieves
Ġg Ã©rÃ©
le te
Ġo ys
Ġre ne
Ġre venue
Ġme re
ow ed
id y
id ing
im age
Ġha Ã¯
ce voir
Ġtr ag
Ġr age
out Ã©
Ġch ers
au rez
au ras
au raient
ic iel
ver rou
Ġpl astic
ir mÃ©
Ġpar aÃ®tre
Ġpar fum
Ġdon nent
Ġk ar
Ġau dit
av ing
av Ã©ra
ill et
am us
ĠÃ©t ant
ne ls
op Ã©ra
ur t
Ġst ays
Ġtu y
ig es
Ġsh ade
Ġsh aking
ust rie
Ġfr ot
ĠM onsieur
Ġex Ã©c
Ġex igÃ©
Ġab ol
Ġab oyer
Ġar na
Ġany time
Ġal itÃ©
de main
Ġsa chant
ici ans
imp l
Ġpart ent
Ġgr Ã¨ve
Ġpeu ple
ind ed
ind ustrie
Ġman ual
Ġren ard
Ġser aient
Ġcl in
app art
app orte
Ġmar que
Ġmar ron
ass istance
Ġpens Ã©es
Ġimp oli
Ġlo ad
Ġbes ides
Ġcont Ã©
ud ing
Ġtom atoes
ĠF r
ĠF BI
Ġthought s
Ġpri est
Ã¢ ts
Ġpi pe
Ġlot tery
Ġpa ce
ra zil
Ġeu rent
Ġjou et
Ġsm okes
Ġrec y
Åĵ uv
Ġjuste ment
Ġsent ent
Ġroom mate
Ġover c
Ġover work
Ġrep lac
Ġfl in
iz on
ĠtÃ©lÃ© charg
Ġconf irmer
Ġsc r
Ġarriv ait
Ġarriv Ã¢mes
Ġrem onte
ĠC ol
ĠC ong
When ever
Ġenv y
ĠT w
ĠS c
cle ar
Ġcoup a
Ġessay ait
Ġessay ons
Ġass ert
ĠdÃ©p l
ĠdÃ©p lace
ĠdÃ©p lacer
int im
Ġdur s
Ġrend ons
Ġfac iles
ris er
Ġcou ler
Ġconse iller
este ment
Ġquit tez
ins ul
Ġpropos Ã©
Ġtomb Ã©s
Ġsol ide
Ġrev ue
Ġrev int
Ġfi Ã¨res
Ġfi anÃ§
Ġfi ancÃ©e
Ġswim mer
ĠintÃ©ress antes
Ġgag n
Ġtri b
Ġgen uine
Ġexpect ations
Ġemb oute
Ġown ed
hab ille
Ġcri a
Ġcri e
Ġgent ly
In d
Ġforget ting
Ġattend ais
Ġport rait
Ġport ail
Ġhor aire
Ġbag u
Ġtemp ted
Ġstand ards
Ġsuiv ie
Ġsuiv rai
Ġsouhait ons
Ġrap id
Ġpian ist
Ġpian iste
Ġreconn aÃ®tre
Ġfour mis
Ġdispos ition
attend ez
Ġfa x
ĠL incoln
Ġste ps
ĠgÃ©n iale
App aremment
ĠgÃ¢ chÃ©
Ġsembl ables
gr Ã©s
ĠÃ©ch angÃ©
ĠrÃ©ve il
ĠrÃ©ve ille
Ġsun set
Ġsto res
Ġlau ghter
Ġsuit able
ĠprÃ©c Ã©d
Ġordin ary
Ġpick ing
Ġchois it
Att ache
ĠÃ©v itÃ©
Ex p
Ġdeal ing
Ġz Ã©ro
Ġz ero
Ġhit ting
Ġdesc ends
Ġrespect Ã©
Ġperd us
Ġbot tes
ĠrÃ©pond s
Ġaccomp any
Ġappro ve
Ġpossi bles
ĠdÃ©f aut
Ġremar ques
Ġ19 3
Ġ19 8
ĠrÃ©c lam
Ġferm ier
Ġpan icked
Ġless ons
Ġpost ale
Ġpost card
ĠmÃ©r itÃ©
Ġconstr u
ĠdÃ©g Ã¢ts
Ġhonn eur
Ġhonn ÃªtetÃ©
Ġrecher cher
Ġcommen Ã§ais
ĠÃ©trang es
Ġsang lot
Ġsouc iez
Ġcommun ity
ber ries
Ġbord el
Ã©v anou
Ġdirect or
Ġeffray Ã©s
Ġfaul ts
Ġbreat hing
ĠdÃ©but ant
Ġpron unciation
Ġsle e
Ġforeign ers
Comp ared
Ġthrow ing
Ġservi ettes
Ġmem ories
Ġboute illes
Ġhy d
Ġennuy Ã©
Ġsusp ic
Ġcul tures
enn uis
Ġly cÃ©
Ġkil ogram
ograph y
Ġaffe ct
Ġsout iens
Ġvert ige
Ġ8 0
Ġmarch ant
Ġgener ally
Ġavoid ed
Ġamaz ed
ĠdÃ©mar rÃ©
Ġanc iens
ĠdÃ©Ã§ us
Rem ove
Ġcens Ã©es
Sur veille
Fin issons
Ġdomm ages
ĠnÃ©g oc
ĠÃ©chapp er
Ġearn ed
ĠrÃ©v Ã©lÃ©
hor reur
hor loge
Ġshoot ing
Ġgam in
aband onne
ĠcoÃ»t ent
Ġdeter mine
Ġcollection ner
Ġrepe ated
Ġclou dy
ĠpÃ©nÃ©t rÃ©
Ġavert i
Ġpose z
ĠamÃ©ric aine
Ġoppos Ã©
Ġmic roph
ĠrÃ©gl Ã©
Ġprior ity
Ġpardonner ai
Ġsuppl ie
appro cher
Ġinse cure
Ġdispon ibles
Ġbott les
ox y
Ġsurve ill
Ġcheer ful
ĠÃ©coute z
Ġcoop Ã©ration
Ġpill ow
ĠaÃ® nÃ©
ĠaÃ® nÃ©e
Ġremark able
Ġrembours erai
Oubl iez
Ġlat in
ĠAn glais
Ġscar f
Ġplaisanter ies
Ġgorge ous
Ġpoig n
Ġhi king
Ã©che c
Ġcrain te
Ġwealth y
Ġvoc ab
Ġmoust iques
Ġromant ique
Ġpoursuiv i
Hav ing
Tour ne
Tour nez
Ġtit re
Ġdece ived
Ġinde p
Ġassi ette
Ġcroiss ance
Ġstyl ish
Ġaffam Ã©
ĠcollÃ¨ ge
ĠBrit ish
ĠconsidÃ© rer
Ġmun itions
Ġtrous ers
Ġrand onnÃ©e
Ġoutr aged
Ġscand ale
Ġhilar ious
Ã©pr ouve
Ġspl end
Ġsush i
Ġfauteu il
ĠconsÃ©qu ences
ĠmÃ©ch ante
Ġunl ocked
Ġfest ival
Ġplaig nent
Ġirre levant
Ġbaign oire
Ġcapac itÃ©s
Ġatro ce
ĠlittÃ©r ature
Ġsevente en
Ġpref ers
Ġtrump et
ĠÃītasun iens
Ġskept ical
Ġfoir Ã©
Ġvig il
Ġtromb one
Ġence inte
Ġsurmon ter
Ġbathtu b
del Ãł
monn aie
Ġoys ters
Åĵuv re
ĠfianÃ§ ailles
" .
% .
A che
A ussi
B us
B uy
D esp
D rop
G rimp
L ire
M us
N ul
N ice
P a
P ick
R aise
T okyo
b a
b ons
b urn
c eur
c Ã©s
d ent
f le
g en
h on
i at
i pper
j o
k a
k u
l ande
n ois
o e
p here
s ier
s wer
t Ã©s
t ier
u ries
v itable
w h
Ġ om
Ġ Are
Ġ Did
Ġ No
Ġ De
Ġt iss
Ġt aper
ou ge
ou illes
Ġd ried
Ġd ining
Ġa ida
Ġp oo
Ġp ue
Ġp endu
Ġs ank
on dre
is ible
en ger
Ġl ouÃ©
er lin
Ġc age
in vent
Ġm igr
an u
Ġn a
Ġn oy
Ġw ins
Ġw ings
Ġf eux
Ġf ries
Ġf aint
Ġb id
Ġb Ã©n
Ġb aisse
Ġb anged
Ġy og
Ġv ire
Ġv Ã®mes
at mos
Ġde grÃ©s
Ġqu arre
ent rez
un ted
Ġth ri
Ġg osses
Ġque re
ed nes
Ġj unk
ot el
Ġo xy
Ġo ccasions
Ġre ve
ri rai
oi x
Ġle vel
Ġla dd
il ient
id ers
Ġha unted
Ġe Ã»mes
Ġtr ade
Ġtr act
Ġtr apped
ay Ã©
Ġr onf
Ġhe ated
Ġpr aise
au rons
Ġte ens
Ġli en
ver ted
Ġpl uv
pp e
Ġpar ais
He llo
Ġpour ras
ag an
Ġje wel
am Ã¨ne
Ġnot er
ac er
Ġall Ã¢mes
Ġso ll
ĠdÃ© verrou
Ġmon ument
Ġmon key
ers on
ure u
ol ve
Ġfr ag
Ġfr ost
Ġex e
Ġex empl
Ġri ding
Ġma h
Ġam er
ul f
Ġdev rons
de rer
Ġver te
ouv es
ci ally
Ġdis ant
Ġdis que
Ġcomp ort
pe cte
pe cially
Ġpart ner
Ġgr ounded
Ġgr otte
Ġapp uyer
uis ed
Ce lles
Ġser ra
Ġser vent
Ġcl o
app ell
Ġres ilient
pr oof
Ġes pecially
Ã§ ant
Ġlong est
Ġmar ches
Ġmar gar
Ġent ends
ass ister
Ġparl aient
Ġbien s
Ġpens Ã©e
aid iez
Ġcar riÃ¨re
Ġca cha
Ġbr it
Ġbr ushed
Ġpass erai
Ġpe inte
orm Ã©ment
Ġmu tu
bre r
Ġbl Ã©
Ġsem ester
Ġsem estre
Ġjus que
Ġspe c
Ġfat ter
Ġpos tu
Ġcomm ets
Ġright s
ĠB razil
Ġpri m
Ġback ed
Ġpi Ã©g
Ġret ent
Ġspeak ers
ĠdÃ©s er
Ġcare er
Ġjou ions
Ġrec ond
iÃ© tez
red i
Ġprop erty
Ġrest Ã©es
Ġter rain
Ġover re
Ġrep utation
Ġfl am
og ue
Ġdisc rimin
Ġcompren iez
Ġlaiss ent
Ġlaiss Ã©s
Ġsc ore
th irty
Ġbuy s
Ġenv ious
Ġenv oya
ĠT ex
ĠT ower
Ġtrouv aient
ĠS an
ĠS uisse
Ġpres se
be ll
Ġconc ur
Ġother wise
Ġref rain
Ġrester a
Ġprof itÃ©
Puis que
Ġshow ing
Ġgar Ã©e
Ġcompl iquÃ©e
Ġexc Ã¨s
Ġexc usÃ©
Ġvi rent
Ġtrouver ons
Ġcou dre
ĠrÃ©s erve
Ġvoy iez
Ġsing e
Ġord onnÃ©
Ġcontr ad
Ġcol ors
Ġrev iennes
Ġmis jud
ĠvÃ©r itables
Ġswim s
Ġtri cked
Ġcount less
ustr oph
Par les
Ġdeven ait
Ġappel s
Ġresp onse
Ġresp iration
Ar rÃªtons
Ġrel Ã¢
Ġchau ve
Ġforget ful
Ġris ked
Ġmess ed
Ġexam ine
Ġprend rais
Ġtrou bles
Ġbag n
Ġsouhait es
Ġsouhait Ã©
Ġserv ices
Ġir rÃ©
Ġcompte z
Ġregret s
Ġrob ots
Ġhead ing
Ġhum ili
Ġtrans form
Ġtor ture
Ġchauss ure
Ġcas quette
ĠL atin
Ġste ad
uy Ã©
Ġdau ph
App rendre
Ġred ire
Ġban jo
Ġsembl Ã©
Ġsuper vis
ĠapprÃ©c ient
Ġbas ic
Ġsun ny
Ġsun rise
Ġdel icate
Ġsub ir
let te
Ġoblig ation
ĠprÃ©c ieuse
Ġcu ir
ĠH ilton
ĠH otel
Ġgre edy
Ġimagin Ã©e
Ġcheck ing
Ġcoin cÃ©e
Ġopp osed
Ġmur derer
Ġparticul iÃ¨re
Ġimpression nÃ©s
ĠarrÃªtÃ© es
Ġlist ens
Ġrece v
Ġner ves
Ġwhe at
Ġpuiss ant
Ġsatisf ais
Ġsatisf actory
Ġrecomm ande
Ġdange reuse
od or
Ġfis c
Ġnett oya
Ġinqui ets
ĠdÃ©l icate
Ġlawy ers
Ġtromp ette
An swer
Ġrecher chent
Ġbank rupt
Ġconsider ing
lev a
ann once
Ġjaponais es
Ġentend Ã®mes
Ġsentir as
Ġressemble z
Ġdos sier
Ġmaj eure
ĠEurope an
Ġvict oire
Ġcomprend rais
Ġgri ppe
Ġcur rently
Ġcous ine
ĠtÃ©lÃ©phon ique
Ġopportun itÃ©
vious ly
Ġcondu irai
Ġblanc s
Ġcherch ent
Ġennuy euse
ĠW ednes
Ġscient ists
Ġnav igu
Ġcho res
Ġhundre ds
Ġhu Ã®tres
ĠarrÃªt iez
Ġchar ity
ĠdÃ©test es
ĠdÃ©test ait
Ġbody guard
Ġcompagn on
Ret ire
urs ion
Ġdraw ing
Ġmarch ait
Ġannul Ã©e
Ġavoid ing
Ġarr anged
bo x
Ġvir Ã©e
Rem ets
Ġvolunte ers
Ġexpert s
Ġrecord s
inv iter
inv itation
Ġthreat ening
Ġhyp oc
Ġdam aged
Ġautom atique
Ġmajor itÃ©
Mal grÃ©
Ġcoun ter
Ġcompt able
Ġargu ed
Ġresponsib ilities
Ġsqu ir
Ġserve ur
ĠÃ©conom ique
ĠÃ©conom iser
Jou ez
Ġressembl ait
Ġprior itÃ©s
Ġincre ased
Ġincre asing
Ġlab eur
ĠItal ie
ĠItal ian
Ġponctu elle
entraÃ® ne
entraÃ® nement
Ġintern ation
Ġjuge ment
Ġfain Ã©ant
Ġfoc used
Ġphotograph ie
Ġcla ustroph
Ġwhis ky
Ġdy e
Ġja unes
Ġbatter ies
appel ait
Ã©che cs
Ġremarqu a
Ġunif orme
Ġestim Ã©
Ġdrag ged
Ġconfond u
Ġhost ages
ĠmaÃ®tre s
atis f
Ġjoy eux
Ġvictim s
Ġtempor ary
Ġmenac Ã©
Ġreprod uire
Cle an
Ġtrack ed
Ġexige a
Ġcambri oleur
Pro f
ĠmÃ©n agÃ¨res
Ġvar ious
Ġblow ing
Ã¨ner ai
Ġchirurg ien
Ġliter ature
Ġdouce ment
Ġtrembl er
Ġstyl os
Ġbross er
Ġcontag ious
Ġrecons ider
Ġdecl ined
emprun ter
ĠNag oya
Ġirrespons ible
Bu vez
Ġaper Ã§u
Ġarchite ct
Ġinterrup ted
Ġglac Ã©e
ĠrÃ©vÃ©l er
Sal ut
Ġdefe at
Attrap e
Ġknit ting
Ste p
ĠHow ever
print s
Ġoffens Ã©e
Ġguarante e
ĠidÃ© al
Ġpunish ment
Sw imming
oblig ez
Ġitem s
Ġsiff ler
Ġrot ten
Rempl issez
bÃ©c ile
Ġcauche mar
Ġine vitable
Ġinqu iÃ©tez
Ġconsom mer
Ġnightm are
Jud ging
Ġcramp onnÃ¨rent
Ġpupp y
Ġcommerci ale
Ġsubscri be
Ġdevast ated
Ġmarath on
ĠdÃ©sas tre
Ġtelephon ed
ĠamÃ©li orer
Ġhoc key
Ġscr atch
Pa rents
atmos phÃ¨re
Ġmisjud ged
ĠWednes day
1 4
B el
C ar
C ows
C orrect
E mm
F aut
G l
J ouer
L ong
L eurs
N ap
N ett
P ose
P osez
S om
S uch
T Ã´t
W ar
W ake
a rently
b ack
b ib
c il
c ieuse
g ue
l ait
m inded
n iques
o ons
s ol
t ion
v in
v Ã©es
Ġ Dis
Ĭ tes
Ġt ank
Ġt iendrai
Ġt Ãªtu
Ġd awn
Ġa iles
Ġp end
Ġp ile
Ġp ulse
Ġs en
Ġs aine
Ġs amp
on ym
is ons
en veloppe
er cer
Ġc ic
Ġc ouvre
Ġc ueill
in n
in u
in ez
Ġm ans
Ġm eurs
Ã© quip
an ji
Ġn ause
Ġn iche
Ġf Ã©ri
Ġf oyer
as te
Ġb ak
Ġv rais
Ġv entre
Ġv Ãªtu
at ures
at les
at ifs
Ġh ant
ous ly
ar res
ar pe
or tu
or ient
or king
un ition
ĠÃ Ĭtes
Ġg onna
Ġg ossi
le pt
Ġne igÃ©
Ġun be
Ġun known
Ġre ci
ri ct
Ġle ather
ant a
Ġsu eur
Ġin ch
Ġin iti
id Ã©rÃ©
Ġbe ans
Ġbe ers
ce lle
Ġtr ace
Ã¨ g
Ã¨ nent
Ġr uth
Ġr ushed
Ġhe l
Ġhe ater
Ġpr Ãªtre
au l
au dit
Ġan ge
ĠI s
al iste
ic an
Ġli ps
Ġse lected
Ġse pte
Ġpl air
Ġpl ates
Ġpl uies
ie ld
Ġpar ag
Ġpar venues
Ġau di
ac u
ne au
ut Ã©
op ter
Ġst ain
Ġst ink
Ġst ade
Ġst ab
Ġst ric
Ġst ones
Ġso ap
Ġtu a
ĠdÃ© te
ĠdÃ© vis
ĠdÃ© tective
Ġcon cept
ig era
ig rants
Ġpro ven
ol ine
Ġsh amp
ez e
Ġex it
Ġex ting
st orm
Ġri p
Ġri rent
Ã©c riv
Ġar ra
Ġar tif
Ġar rÃªte
Ġsur men
Ġsur venait
Th ousand
Ġdev ions
ouv rage
Ġsa ke
ci es
Ġdis li
Ġcomp arÃ©
Ġcomp rise
age a
Ġgr apes
Ġcr an
Ġet h
ĠrÃ© du
Ġman uels
Ġapp ell
la Ã§a
Ġneed ing
Ġher bes
Ġtou x
Ġtou bib
Ġcl iff
Ġres ources
pr ing
Ġche at
able ment
Ġent rÃ©es
ass y
ass is
ass ade
Ġpens a
Ġpens ion
Ġcar t
Ġimp rud
Ġca ches
Ġatt ached
Ġbr iser
Ġlo ving
Ġper de
Ġsav on
Ġsav ions
Ġpre v
Ġbl ast
Ġbl anches
Ġdr am
ab ri
Ġjus tesse
Ġsp at
Ġont o
Ġfat ig
Ġmal ins
Ġmal igne
Ġexp ression
Ġexp uls
ick ering
ĠÃ©c riture
Ġpri er
Ġbon homme
Ġbon bons
Ã¢ ne
ĠdÃ©c idÃ©e
ĠdÃ©c ouverte
Ġgu Ã©rir
Ġmin istre
ĠdÃ©s obÃ©
Who ever
Ġpu b
Ġfran k
Ġnom bres
Ġpol iment
Ġsm ashed
rÃ© d
Ġter rit
Ġac te
Ġmet al
Ġpay ment
Ġfl Ã¨che
Ġfu g
Ġfu rie
Ġchild ish
iz ing
ĠdÃ©t end
ĠdÃ©t aill
Ġcompren nes
Ġsc ulp
ĠC el
Ġmor dre
Ã©d ie
Ġenv ah
Ġenv oyÃ©e
ĠT ur
Ġtrouv Ã¨rent
Ġexpl or
Ġpartir ons
Ġcoup Ã©e
Ġchien ne
be lles
ĠdÃ©p asse
Ġmont a
Ġlun dis
ĠderniÃ¨re ment
Ġfem ale
Ġviv aient
Ġcham ps
Ġphot ograp
Ġcor p
Ġrapp ellerai
Ġrend es
Ġtrouver a
Ġpo ing
Ġaider a
Ġins ensÃ©
Ġtomb Ã©es
Ġsol itaire
ĠarrÃª tes
Ġgreat ly
Ġbro ch
Ġtri cks
ĠÃ©p ais
Ġrencont ra
Ġsign es
ĠO ui
Ġment al
Ġment alement
Ġemb Ãªt
Ġchant es
Ġfall oir
Ġrel ief
Ġrel uct
Ġdiffe rences
Ġgent iment
Ġcuis ines
Ġcuis inÃ©
Dis cut
Ġsugg Ã©rer
Ġcook s
Ġkill ing
Ġattend ait
Ġattend ue
Ġreal ity
Ġvoi ces
Ġvac ant
Ġsix ty
Ġprend rait
Ġhigh est
Ġamus ing
Ġsour nois
ĠrÃª v
Ġdispos ait
Ġrob inet
Ġconnaiss ances
Ġhum aine
Ġtor n
ett ent
Ġcolle cted
Ġhabit er
Ġhabit ent
App rÃ©c
App arently
Ġfix a
Ġfix ing
ron ter
ĠE ve
Ġpopul aires
Ġesp Ã©
Ġbar ber
Ġouv rages
Ġsuggest ions
Ġsub i
Ġsub st
Ġbusiness man
Ġcommence ment
ĠprÃ©c is
Ġfore igner
Ġfore cast
Ġwar rant
Ġamou reuses
Ġlaugh s
ĠK y
ĠK ore
Ġautor itÃ©
Ġform al
Ġpoi vre
Ġperd ant
Ġbring s
ĠlÃ©g Ã¨re
Ġmod if
Ġmod este
ĠrÃ©uss ira
Ġmill i
Ġrecomm ended
Ġappro xim
ĠdÃ©f ense
Ġremar que
Ġ19 6
Ġfus il
ari um
Ġcourt ois
enf uit
Ġsouff ert
Ġpriv ately
Ġembarrass ant
erv ice
Ġsoup Ã©
ĠgÃ©nÃ©r ale
Ġbiz arres
Ġprodu ira
dÃ© jeun
Ġremp lacer
Ġguitar ist
Ġguitar iste
Me et
Ġloc ated
Ġtalent ue
Ġeffray ant
Ġpouss a
Ġpull ing
Ġmaj eur
Ġdestin Ã©e
Ġvict ory
Ġsend ing
ĠspÃ©c iale
Ġcur t
ĠdÃ©cl ar
Ġvend ent
Ġobject ed
Ġconst itu
env is
Ġsucre ries
Ġrepro du
Ġpower less
Ġproc Ã©d
Ġacqu is
Ġacqu ired
Ġdispar ut
Ġdispar aÃ®tre
Ġprov o
isse ments
Ġgrat te
ĠdÃ©test ais
Ġwood en
ĠCanadi ans
Ġburn t
Ġdiscut ons
Ġkil omet
ĠspÃ©cial itÃ©
Ġaffe ction
Ġaffe cts
Ġcre ate
Ġcre vÃ©
Ġrecommand er
Ġvert iges
amm ed
Ġprincip alement
Ġasse yez
Ġpronon ce
Ġcustom s
Ġpract icing
Ġenter rÃ©
Ġpolite ly
Ġtrah ie
ĠÃ©n ormÃ©ment
ney land
accomp agne
Ġrentr Ã©s
ĠrÃ©v ol
Ġemm Ã©n
Ġengine er
Ġmajor ity
Ġvain c
Ġriches se
ĠÃ©criv it
Ġbarbe cue
Ġtooth ache
Ġexcept ions
Ġcontrari Ã©s
Ġcontrari Ã©es
Ġfaill ite
Ver riez
Ġrejoin drai
Ġmic ros
Ġfab ulous
PrÃ© f
ĠsÃ©par Ã©s
ĠsÃ©par Ã©es
ĠcompÃ©t ent
Ġinse cts
Ġinse ctes
Ġhuman ity
icie lle
Ġaccus ing
Ġappropri Ã©
Ġdig est
Ġfich iers
Ġcirc umstances
endorm it
Ġcompet ition
Ġteen agers
ĠgÃª nÃ©
autor iser
ĠÃ©loig nÃ©
ĠgoÃ» tÃ©
Retour nez
Ġmel ted
go ing
Ġmanif estement
ĠmÃª ler
Ġsearch ing
Ġregretter as
Ġmerc redi
Ġcad av
Ġabsor bed
Ġskill s
Ġexperien ces
Ġmeas ures
Ġinterromp u
ĠnÃ´ tres
Ãīte ignez
Cle arly
Ġdri ll
Ġprover be
Pard on
Ġcout ume
Ġenreg ist
Ġgarant ie
Ġtextbook s
ĠÅĵuv res
ĠmÃ©rit ent
imagin ais
ĠAmÃ©ric ain
Ġdisturb ing
Ġredu ce
Ġirrespons able
Ġgout te
ĠmatÃ©ri el
Luck ily
Ġunb el
Ġralent ir
Ġeffect ivement
Ġrequi res
Ġang el
ĠexpÃ©ri ences
Ġkidn apped
Ġstret ched
Ġcooper ation
Ġmeurt rier
Ob viously
ĠBe atles
Ġabsur de
ĠrÃ©gul iÃ¨rement
ĠtÃ©l Ã©c
Ġparesse use
Ġassass inÃ©
ĠpossÃ©d ait
Ġimpliqu Ã©s
Ġcitiz ens
escal ier
Ġtool s
ĠonÃ© reux
Ġrelative ment
Ġlean ed
accept able
RÃ©flÃ©ch is
RÃ©pond ez
Ġot ages
Ġenvoy Ã©es
Ġconsequ ences
Ġscept ique
ĠsÃ©p arer
itz erland
Ġovers lept
ĠinÃ©v itable
Ġatmos phere
Ġobjet s
ĠdÃ©sorient Ã©
Ġdai ly
ĠÃ©vÃ© nement
Ġwol f
Ġabas ourdi
Ġamm unition
Ġflir ting
Ġentrepr ises
Ġsneak y
enqu Ãªte
Ġraqu ette
Ġnodd ed
Ġprec ise
Ġoverhe ard
Ġinvinci ble
ĠchaÃ® ne
Ġfrequ ently
Ġcirconst ances
Ġoverwork ed
Ġreplac ed
ĠnÃ©goc ier
Ġmicroph one
Ġindep endent
Bus iness
Ġladd er
Ġsoll ic
Ġbrit ann
Ġdiscrimin ation
Ġbagn ole
Ġhumili ated
Som eday
ĠfÃ©ri Ã©
Ġgossi p
Ġruth less
Ġsepte mbre
Thousand s
Discut ons
B ientÃ´t
C in
D Ã©c
D iv
E le
E mp
E ff
E mb
H ope
L un
L aiss
M ove
O saka
P asser
R ome
S ers
S ouv
S upp
V ivre
W ow
Y ours
b Ã©
c ir
c tez
c iel
f ord
g Ã©e
g ade
g ique
g Ã¨ne
i ait
i ans
i als
l Ã©s
l Ã¨ve
o ed
o ot
o ven
o lly
p art
p oint
t ent
t rait
u in
u ll
v al
v ier
w ell
w orking
y le
Ġ X
Ġ Z
Ġ Es
Ġ Thomas
Ġt oup
Ġt rent
Ġt ends
Ġt idy
re mment
re uve
Ġd ign
Ġa lle
Ġa pt
Ġp oit
Ġp ound
Ġp uits
Ġs or
Ġs oig
es is
es cl
Ġl ions
Ġl aide
Ġc ured
Ġc ows
Ġc Ã©dÃ©
in ent
in rent
Ġm Ã»
Ġm ild
Ã© rai
an Ã©ment
an vier
Ġn ul
Ġn Åĵ
it oy
it ious
Ġw id
Ġf use
Ġf iez
Ġf uit
Ġf ric
as p
as er
as ion
Ġb ore
Ġv ins
at ically
Ġh int
Ġh omet
ve illez
or a
or age
or ium
ent errement
Ġth er
ing ap
Ġg ay
Ġg uise
Ġg Ã¨le
et ch
us hing
Ġne igera
ot ions
our die
Ġre ine
Ġre ward
ri ent
Ġle mon
Ġla cks
Ġsu e
se as
se ment
Ġin her
Ġin ond
id ote
Ġtr out
ay er
Ġen r
Ġen ch
Ġr ation
Ġr Ã¢
Ġr ings
Ġest ate
Ġch ol
Ġch ute
Ġch ips
Ġan gl
Ġan Ã©ant
Ã©t oi
Ã©t end
Ġce ase
ic ass
ic iens
Ġte ased
Ġse ize
Ġse xy
Ġpl ong
Ġpl ier
Ġpl iÃ©
os it
os ons
ir ons
Ġpar i
Ġpar al
Ġfor b
Ġcom a
Ġk ick
Ġk anji
Ġpour b
Ġpour par
Ãª le
ill ai
ut eurs
ur Ã©e
ien ces
Ġst all
Ġst iff
Ġcan on
ue il
Ġtu Ã©es
Ġtu be
if ication
if rice
Ġsom ep
Ġpro ced
ook ed
Ġab ord
Ġab ond
Ġri cher
Ġri fle
Wh ite
Ġta qu
Th row
Ġdev rai
Ġver rons
Ġdis aster
Ġcomp oser
Ġcomp atis
Le vez
Le arning
Ġgr og
Ġcr ush
Ġcr ushed
Ġcr uelle
ind ows
Ġout rage
ten ez
Ġup side
rais on
Ġhapp iest
app e
Ġag ac
ak i
ĠÃ© ducation
Ġmar ient
Ġmar cha
Ġmar ks
Ġent ertain
Ġco qu
Ġco al
aid a
Ġcar n
Ġimp itoy
ep t
Ġatt or
Ġbr ise
Ġtalk ative
Ġdiff ers
Ġsav ings
Ġoff end
ient s
Ġpre vious
Ġbl og
Ġparler ons
Ġpla Ã§a
Ġsp ir
Ġsp iders
Ġfat al
Ġgrand ir
Ġgrand parents
Ġcomm et
Ġexp osÃ©
aiss es
ĠÃ©c ris
Ġpri me
Ġacc Ã¨s
Ġshe ets
Ġro cks
Ġenf ermÃ©
Ġret ires
ĠdÃ©c rochÃ©
ra ce
Ġdi ab
Ġgu ards
Ġcons iste
ĠrÃ©p Ã¨te
Ġye lled
Ġpet s
Ġmin ister
Ġeu e
Ġsent irez
Ġsent ences
Ġprom Ã¨ne
Ġprop er
Ġover seas
anc isc
Ġhand writ
Ġsouv en
Ġsouv iendrai
Ġsort ies
Ġemp re
Ġafter wards
ĠdÃ©t ient
Ġlaiss era
ex iste
ex cell
ex ception
uss ie
Ġrem ett
Ġrem ove
Ġautre fois
ĠC ath
Ġsw ept
oc at
Ġend ing
ĠÃ©tud ions
ĠÃ©tud ies
ĠS w
ĠS anta
Ġcoup les
Ġlis ait
Ġcat ast
Ġcat hol
Ġtravaill erai
Ġass urÃ©
Ġcomment s
Ġcomment aires
ffe ctu
ĠdÃ©p ou
All ow
Ġviv ais
Ġviv ante
Ġvol a
Ġvol s
Ġphot og
Ġphot ographe
Ġdur a
Ġdur Ã©e
Ġpat iner
Ġprob abilitÃ©
Re venez
Ġdou ceur
Ġpolice men
aider a
Ġhab ile
Ġbou le
Ġbou gie
Ġexc itÃ©s
Ġrend us
Ġvi endrez
qui Ã¨me
Ġvoy ages
Ġtra verse
ache ver
Ġquit ting
Ġann ivers
Ġpropos er
Ġcontr aint
Ġtard er
Ã©g ard
Ġcold s
Ġpret tier
Ġfew er
Ġabs ents
Ġimm ense
Ġtri cher
Par is
ĠÃ©p Ã©e
ĠÃ©p ouvant
Ġappel a
Ġsal Ã©e
Ġsal uer
Ġnour rit
Ġact if
Ġsau mon
Ġgrande ment
ĠCh rist
Ġenjoy s
ĠdiffÃ© remment
Ġrel atives
Ġchau ds
olog ical
Ch ante
Ġsugg Ã©ra
Ġhor ror
Ġsl ip
Ġbeh aved
Ġsuiv it
Ġamus ez
Ġamus ante
ĠdÃ©m od
Ġserv ant
Ġpays age
Ġplais antes
Ġfour rure
Ġhead s
Ġadd ict
Ġagree ing
ande red
Ġtru ite
em ain
Ġsus cept
Ġmour urent
Ġhabit ait
Ġsuper f
Ġtre asure
Ġbill ion
Ġsnow man
Ġdist ant
ĠÃ©ch arpe
Am Ã¨ne
Ġparfait s
Ġchanger ai
Ġpun ched
Ġdel i
ĠsÃ© isme
Ġsto ve
oh ama
Ġtouch ing
Ã©m ar
Ġoblig ed
Ġtrave ls
ĠprÃ©c ises
ĠH alloween
occup erai
Att endons
ĠÃ©v idemment
Ġdim anches
Ġpress Ã©s
Ġsorte z
ĠK obe
Ġrent ra
li est
Ġautor isÃ©es
ĠR ussie
Ġeng ager
Ġperd ons
Ġfas ten
ĠrÃ©flÃ©ch is
Ġnecess arily
Ġquiet ly
ĠmÃ©d aille
aim ons
Tr ouvons
Ġappro ached
Ġnorm alement
Ġve ine
Ġfinir a
Ġthank ful
ari o
Ġtot ale
Ġtot alitÃ©
Ġhaut s
Ġimpatient s
Ġpan ic
emb Ãªte
ĠN ord
ĠN orth
sh ip
ĠvÃ©rif ie
Ġsmell ed
Ġroad s
ĠdÃ©l ib
ĠdÃ©l icie
Ġtreat ment
Ġtromp ez
ĠdÃ©g u
ĠdÃ©g otÃ©
exp osition
Ġdent ifrice
Ġpur ch
Ġpou ls
Ġride aux
Ġcrit iques
Ġappar ition
Ġconvainc us
Ġappl ic
Ġlim its
Ġchair man
Ġbal c
Ġsoci ety
ĠmÃ©dic ale
Ġpot able
Ġpot ato
Ġmir acles
Ġcommand es
Ġlend emain
Ġdestin y
ĠIn de
Ġcomprend riez
Ġcourage use
ĠdÃ©cl arez
Ġproc Ã¨s
Ġservi able
eth oven
empl oyer
Ġcherch iez
ĠW orld
ĠcÃ©lÃ¨ bres
Ġsusp end
ĠÃ©m u
Ġprinci pe
Ġsoul agement
Ġchar bon
ĠrÃ©d igÃ©
Ġconduis e
Ġconduis ez
Ġexh ib
Ġrefus ait
Ġressent ir
rim and
amb assade
Ġaccord ing
ĠSt ation
Ġaffe cted
Ġsout enir
Ret irez
ĠÃ©lect ricitÃ©
Ġaccount ant
Ġfile d
Ġconfection na
Acc idents
Ġband es
Ġchamp ions
ĠdiffÃ©ren ces
Ġfourn it
Ġflat tered
Fin ally
Ġcandid ats
Ġcompos Ã©
habit ue
Ġearthqu akes
Ġextra vert
Ġdisg usted
ĠcoÃ»t eux
Ġtooth pas
ĠÃ©puis Ã©e
Ġtremble ments
ĠentraÃ® neur
Ġavert ir
ĠprÃ©occup Ã©
Jou es
Ġtyp ical
Ġeconom ic
Ġhesit ated
Ġjume au
Ġadoles cente
Ġfonctionner a
Sp ending
Ġattir ant
Ġintern et
Ġfal aise
ĠreÃ§ ut
Ġstat ist
Ġpassion nant
Ġded ans
Ġgramm ar
Ġattach Ã©
Ġbran ches
Ġrig oler
appl ication
Ġscar ce
Ġsoft ware
Ġfrustr ated
Ġconfront Ã©s
interromp s
Ġaid Ã©s
Ġfuri ous
Cher che
Ġcy cl
Ġcoiff eur
ĠvÃ©h icul
ĠdÃ©cÃ©d Ã©s
Ġdiplom at
Ġcaut ion
Ġfield s
Ġlav Ã©e
Env oyez
Ġtempor aire
ĠmÃ©c anic
Ġconfirm ed
Ġsincere ly
ĠnÃ©goci ations
Ġsink ing
Ġprover b
ĠMex ique
ĠMex ico
accus a
Ãītud iez
ĠnÃ©glig ent
Ġdevelop ed
ĠÃ©quip age
ĠrÃ©par Ã©e
Ġhamb urgers
Ġperman ent
Ġinterpr Ã¨te
Ġerr ors
Ġath l
Ġcroir a
Ġappr ouv
Ġadvert ise
Ġconsomm ation
ĠsÃ©v Ã¨re
Res pect
Ġreserve d
ĠÃ©qu itable
Ġspoi led
Ġinconn u
Ġinterrup ting
Ġclar ifier
ĠexpÃ©ri ment
ĠSe ine
Ġkidn app
Ġapplau di
Ġhorrif ied
ĠdÃ©fin itive
Ġnin ety
stick s
Ġtab ac
Ġspont ane
Ġrappel Ã©
ĠGree k
Ġrenomm Ã©e
Ġinstin ct
Ġobserv ant
Ġbaig ner
Ġchop sticks
Ġimpol ite
Ġhomes ick
Ġmanifest ation
Aj oute
Ġindisp ensable
Ġspaghett i
Ġfid Ã¨le
Ġjun gle
Ġaraig nÃ©es
Ġstrugg led
Bet ter
Ġbav ard
ĠsoÃ» l
Ġbabys itter
Honest y
Ġchi ot
Ġloge ment
Ġshel ter
Ġceris iers
Souhait ez
Ġol ives
Ġramen Ã©
ĠnuclÃ© aire
Ġvom ir
appart iens
ĠFr ancisc
ĠTw itter
Ġemboute illage
Ġbagu ettes
anu ary
Ġoxy gen
Ġmargar ine
Ġspec ific
ĠmaÃ®tres se
Ġhant Ã©e
Ġreci pe
Ġparag rap
Ġcurt ains
Ġreprodu ira
Ġmicros cope
Ġcadav re
Eff orce
Ġpoit rine
ĠnÅĵ ud
Ġhomet own
icass o
Ġpourpar lers
Ġsomep lace
Ġhandwrit ing
ĠÃ©pouvant able
Ġtoothpas te
ĠFrancisc o
A g
A h
A ch
B oston
B reak
C ount
C oupe
E mpl
F O
F ood
F ish
H appy
L ie
L ave
L ike
M ettons
N orm
O u
P h
P ol
P asses
R ight
R ab
R entre
R appelez
S eu
S ign
S pring
V N
V ivez
Y e
a j
b ag
b oy
c as
c ase
c ond
c ils
c tur
d a
d eux
f aire
f ire
f les
g ent
h ommes
i aire
i chÃ©
l im
l ir
l come
n u
n am
o vers
p ed
p ro
r s
r ante
r acted
s ervice
t ar
t les
u ly
u rie
y en
y ard
Ġ '
Ġ ut
Ġ Don
Ġ Have
Ġ Puis
Ġt ons
Ġt ours
Ġt endre
Ġt asses
Ġt ension
ou Ã©e
ou che
Ġd ies
Ġd read
Ġd ates
Ġd iner
Ġp aient
Ġp aires
Ġs ets
is trer
is dom
er ons
Ġc i
Ġc ing
Ġc end
Ġn ut
Ġn ail
Ġn oyer
Ġn ails
Ġw andered
Ġf iction
Ġf uel
Ġf law
qu is
as ant
as pir
Ġb um
Ġb az
Ġy ach
Ġv acc
Ġv Ãªt
at hetic
Ġto lÃ©
ent ie
ent ures
Ġg est
us c
us ine
ot es
Ġun t
Ġun ne
Ġre ception
te mber
Ġla dies
Ġin util
Ġin attendu
Ġbe es
Ġtr on
Ġtr Ã©s
Ã¨ ge
Ġdo lp
Ġr ond
Ġr onde
Ġch ain
Ġch ief
au ter
au ghter
au gment
Ġan ts
Ġan gle
al phabet
ke ys
ic aux
Ġte ar
ver ty
Ġpl ot
os h
os sible
You ng
Ġpar ad
Ġpar ier
Ġcom ic
oo ze
Ġk it
Ġk im
Ġwe eds
Ġpour rons
Ġau ront
end a
av age
ag r
ag ing
ag Ã©s
ag isse
ont Ã©
ĠÃ©t abl
ac tes
ne ments
ut ions
Ġgo at
Ġgo be
ien na
We lcome
all Ã©
all onger
if ul
Ġsh r
Ġsh ining
Ġsh ift
ĠM us
Ġex agÃ©
Ġex ercice
Ġab oie
Ġri dd
Ġma Ã¯
Ġsur rend
Ġal ert
Ġam used
ul ation
ul ations
Ġsa b
Ġsa fer
ici lement
Ġcomp ens
Ġcomp ortÃ©
ense mble
pe lled
Ġpart ners
oy ait
age ons
Ġsi ed
Ġgr Ã©
Ġgr ac
Ġgr ade
Ġcr Ã¨ve
Ġcr af
Ġcr oche
Ġcr Ã¢ne
ff s
ff Ã©
Ġout come
Ġman uelle
Ġapp uyÃ©
Ġren for
oup es
ten ue
ro chez
app artement
tÃ© es
tÃ© ri
Ġag is
pr Ã©h
Ġche ered
ast iques
ast ronom
ĠÃ© vent
Ġmar ie
Ġent endez
Ġent ering
ass a
ass ure
ob jection
Ġco ck
Ġbien venues
Ġcar act
Ġcar bon
ist ed
ist ible
Ġimp rim
ep tember
Ġca hier
Ġca chÃ©e
Qu ant
Ġatt racted
Ġbr ut
Ġad ieux
Ġad venir
Ġdiff icilement
Ġcont enir
Ġoff ensive
Ġdemand ent
Ġpe ar
Ġpe ign
Ġpe igne
Ġpre aching
Ġbus es
Ã©l u
Ã©l Ã¨ve
Ġfau chÃ©
Ġpren ais
Ġpren ant
Ġbl ouse
Ġbl oss
Ġbl aming
Ġaller gie
Ġsp icy
ĠB rÃ©s
ĠÃ©c oles
ĠÃ©c oul
ĠprÃ© venant
ĠprÃ© jug
ile z
Ġshe et
Ġro ot
Ġro lled
Ġint ends
Ġph ase
Ġph oned
ern itÃ©
ĠdÃ©c rit
Ġor ient
Ġor ph
row s
En c
du le
Ġcons erve
Ġcons ciente
Ġsou mis
Ġpu Ã©ri
Ġcall ous
Ġcour ait
Ġaw ait
Ġrest ais
Ġover look
Ġrep ar
Ġrep asser
Ġmet er
Ġfl ows
iqu Ã©es
anc y
anc ien
Ġregard iez
att irer
Ġsouv ienne
Ġdisc re
Ġdisc ute
Ġdisc over
Ġcompren ons
Ġconf ier
Ġconf lit
enc on
ex istence
Ġsc ie
Ġrem et
ĠC ookie
Ġtrouv ai
Ġtrouv Ã©s
Ġtrouv iez
Ġsens Ã©
Ġsens ibles
ĠS in
ĠS eptember
erre r
Ġpartir a
Ġaut o
Ġaut eur
Ġinc or
Ġmont Ã©e
Ġ1 50
Would n
Ġref orm
Ġref lect
Ġchance uses
Ġvol ent
Ġbou l
Ġbou chÃ©e
Ġexc user
Ġaff airs
ĠdÃ©sol Ã©s
Ġprem iers
Ġvoy ait
Ġpo verty
Ġins upp
Ġins crit
raid er
Ġcap turÃ©
Ġwater me
Ġsol id
Ġsing es
Ġord onna
Ġrev ol
Ġnu clear
ip es
Ġvisit s
Ġbro ad
Ġglad ly
Ġsho vel
ĠintÃ©ress ants
Be ware
accord Ã¨rent
Ġtravailler ons
Ġsujet s
Ġsal ua
Ġment eurs
Ġemb ar
Ġemb rasse
Ġwind y
Ġhun ger
ĠÃ¢ me
Ġ2 3
ok ohama
Ġcontin ues
olog ique
Ġdress er
Ġcri cket
omm ande
emp irer
Ġport a
Ġpouvoir s
Ġvoi le
Ġutil ise
Ġutil isant
ĠdÃ©r oul
Ġserv iteur
Ġsour de
Ġsour cils
Ġfollow s
tur ned
ib er
Ġind ice
Ġdispos Ã©s
Ġregret table
iend rons
Ġhum ble
Ġcontent ed
Ġtor tues
ĠrÃ©f ug
Ġcas ier
Regard ons
Ġmange ant
Ġaccept a
Ġhabit ez
Ġsac rÃ©e
Ġsembl erait
Ġconcert s
Ġsnow storm
gr ound
ĠE t
ĠP Ã¨re
Ġesp Ã¨ce
Ġbas is
ĠrÃ©ve illÃ©s
Ġtype writer
Ġdel iver
Ġdel iber
Ġtrait or
Ġtrait ez
Ġviend riez
Ġsub venir
Ġlarge ment
cess ary
Ġattrap e
Ġshort age
ric ult
Ġimagin ing
Ġcheck s
Ġbase ment
Ġaband onna
ĠÃ©v idence
Ġsoi e
ĠÃ©cout a
ĠÃ©cout Ã©e
Ġdeal t
Ġkn ives
Ġreport Ã©
Ã©tud iant
li eu
Ġcup s
Ġrespect s
Ġpolit iciens
Ġworth y
Ġworth less
Ġparv ienne
Ġem otions
Ġpuiss ent
Ġpuiss ance
Tr op
Ġble us
Ġorgan ization
Ġatte ign
lo ad
Ġposs Ã¨
Ġfus ill
Ġinnoc ente
Ġmer de
emb Ãªter
enf ance
Ġenvir onnement
Ġinj uries
ĠbÃ¢t on
Ġrequ Ã©rir
Ġembarrass Ã©e
Ġcoll aps
Ġpen ny
ĠprÃ©par Ã©s
Ġhold s
Ġinqui Ã©t
Ġnovel ist
expl iquerai
Ġremp orter
Ġtromp Ã©e
Ġhonn Ãªtes
Ġlac ets
DÃ©s ormais
Ġappar ue
Ġjol ies
lev Ã©e
Ġcommun iqu
Ġcommun icate
Ġcommun autÃ©
rig ez
Ġnature llement
Ġappl aud
Ġlim ited
arriver ai
Ġbal d
Ġbal ai
Ġeffray Ã©es
Ġignor ait
Ġimpro ving
Ġcharg ed
Ġcess a
Ġconsid Ã©rÃ©e
Ġcourage ous
Ġmou ches
Ġmou illÃ©
Ġmou illÃ©e
Ġrelax ing
Ġconst it
ĠrÃ©ussir as
Cont r
ĠmÃ©t al
Ġcomb att
Ġopportun ities
ĠÃ©cl at
Ġsauv Ã©s
empl oie
Ġcoute aux
Ġcherch ons
attrap e
Ġev acu
impression ner
Ġsusp ended
Ġlead s
Ġprov isions
Ġaugment e
Ġaugment er
enn uy
Ġland ing
Ġrang Ã©e
ĠsÃ©jour n
Ġdort oir
Ġfrais es
orme z
Ġele phant
Ġsout enu
Ġlarg uÃ©
ĠÃ©lect ions
Ġador ait
Ġprincip es
Ġ6 5
Ġregrette rez
Ġarr angÃ©
Ġcrimin els
ĠÃ©ve illÃ©s
ĠU FO
Ġanc ienne
Ġanc iennes
ĠcrÃ© dule
inform ations
Ġtight ly
Ġgroup es
Ġprisonn iÃ¨res
Ġflight s
Ġrelig ieux
Ġlow ered
Ġbeat en
Ġcombat tre
Ġgam ble
Ġcontrib uer
Ġautom ne
ĠdiplÃ´ mÃ©e
Ġbour se
Ġbour rÃ©
Ġcanad iens
Ġnatur ally
Ġcalcul Ã©
Ġaccompl ished
ĠentraÃ® nÃ©e
Ġdescri bed
Ã©coute z
arriv ais
arr anger
Ver rais
Ġtrac er
Ġdiss imul
Ġconscient ious
Ġgor gÃ©e
Ġcharm ante
ĠcÃ©libat aires
Ġras Ã©
Ġpred icted
ĠdÃ©sesp Ã©rÃ©e
ĠÃ©pous a
emm Ã¨ne
Ġaccus Ã©e
Ġdirige a
Ġdrog uÃ©
Ġow ner
Ġ18 6
Ġrequest ed
ĠrÃ©t abl
Ġmotiv Ã©
Ġcomplex e
Ġdistrib uÃ©
Ġdistrib uteur
Ġrig ol
Ġincl uded
Ã©ro Ã¯
Ġforc Ã©es
Ġalcohol ic
ĠdÃ©pÃª ches
Ġbow l
Ġbow ed
Ġalent our
Ġmerc iful
Part ons
Ġcoiff ure
Ġgel Ã©
Rec onn
Rec ently
Ġmoust ache
Ġmeas ure
ĠdÃ©sor dre
Ġpoursuiv it
hy d
hy p
Ġintrig ued
Ġeur opÃ©en
ĠmÃ©c ont
Bon jour
Ġnet toie
Ġheight s
Ġcamar ade
Ġbark s
Ġbark ed
ony me
Ġlus tres
Ã¨ner a
ĠdÃ©coll er
ĠÅĵuv re
Ġcurios ity
ĠAmÃ©ric ains
Ġredu ced
Ġmater ials
Americ a
Ġgout tes
Ġshout ing
Ġappr ouvÃ©
Bu ying
Ġign ores
Ġpomp ier
Ġanal y
ĠrÃ©chau ffer
Ġagress if
Ġimpuiss ant
Ġinconn ue
Ġplaisante z
ĠdÃ©goÃ»t ant
ĠAsi a
Pass ons
Ġwhist le
Ġwhist ling
Ġincons cient
Ġabsur d
Ġpes er
Ġblock s
Ġrobber y
Ġgau cher
Ġatter ri
ĠdÃ©fait e
Ġabe ille
Ġabe illes
Ġexagger ate
Ġaig uis
ĠmÃ©l ange
Ġeld erly
Ġentour Ã©
ĠdÃ©rang Ã©e
Hist oire
Hum an
Ġconserv ative
Ġsmok ed
ĠCaliforn ie
ĠindÃ©p endant
Sort ons
Ġpige ons
Ġrass as
Ġsla pped
Ġsages se
adap ter
Ġbouill ir
Ġsilenc ieuse
Play ing
Ġjalous es
Ġamend e
about s
Ġconcl uded
Ġmilit ary
Commence z
Boy s
Ġcerve au
Ġmech anic
ĠdÃ©sag rÃ©able
ĠrÃ©comp ense
Stu dy
ĠsÃ©d uis
intim itÃ©
Ġslee ve
ĠlycÃ© en
Desp ite
wh ile
Ġna usÃ©e
Ġpluv ieux
Ġexe cut
Ġoverre acting
atisf ied
Ġnause ous
Ġphotograp her
envis age
Ġkilomet ers
ĠemmÃ©n agÃ©
ĠtÃ©lÃ©c ommande
Cin q
Laiss ons
Ġangl aise
Ġforb id
Ġattor ney
ĠCath olic
ĠdÃ©gu eul
ĠmÃ©canic ien
Ġcend res
Ġbaz ar
Ġunne cessary
ĠtrÃ©s or
Ġsurrend er
Ġcraf ty
ĠBrÃ©s il
Ġinsupp ortable
2 0
A ct
B aisse
C oup
D ou
D uring
F our
F riend
F rance
G ir
G ermany
H i
H un
H ors
H omme
I mp
J ohn
K ids
M at
M ille
M anger
M ieux
N ombre
O ld
R ester
S u
S ays
S avais
S leep
S erre
S ug
S tud
S eul
T ick
W ork
b ow
b bed
d own
f it
f ree
f roid
g ne
h ou
i op
j as
k ara
l ict
m ed
n ante
o al
o Ã»
p es
p ied
p abilitÃ©
s a
s ter
t ant
t op
t ile
t itude
u ent
u ge
u cin
w in
w he
x ion
x ford
Ġ Comment
Ġ On
Ġ Go
Ġ irez
Ġd ic
Ġa verse
Ġp ed
Ġp and
Ġp ink
Ġp omm
Ġp Ã©tÃ©
Ġs ains
es day
Ġl oo
er ies
Ġc ac
Ġc ier
Ġc akes
Ġc aisses
in se
in aire
in ards
Ġm end
Ġm ard
Ġm obilier
Ã© re
an uts
Ġn Ã©es
Ġw age
Ġw isdom
Ġf art
Ġf Ã®mes
Ġf ulf
Ġb ent
Ġv Ã©t
Ġv Åĵ
at Ã©g
Ġto l
ar able
ar win
or al
or igin
ent h
est ime
Ġg ang
Ġg ig
Ġg uts
Ġque lles
et ime
et iÃ¨re
Ġj oint
our is
our agan
Ġun mar
Ġun turned
ri ght
ri rent
Ġle Ã§ons
Ġla un
il er
im b
im uler
Ġha l
Ġis ol
Ġe ast
Ġtr au
Ġtr oo
Ġtr av
Ġtr anche
Ġtr oupes
Ã¨ ces
Ġen orm
Ġen verrai
ch i
ch ing
Ġr ay
Ġr oup
Ġr ack
Ġr ud
Ġr aide
Ġr outes
Ġr ational
Ġch ame
Ġch Ã¨res
Ġch asser
au me
au be
Ġan onym
Ã©t iques
al p
al iment
al ibi
me z
ic ots
Ġli p
Ġli ghter
Ġse in
Ġpl ante
ie ving
ir l
ir s
Ġit al
ad a
ad ow
ad resser
ag Ã¨rent
Ġas censeur
Ãª ts
am uses
ĠÃ©t roit
ac uer
ut ton
op ot
Ġst imul
all ume
que ment
Ġso ck
Ġtu erai
ĠdÃ© coup
if ie
ard Ã©
Ġcon ter
Ġdes ign
ig hed
Ġpro ved
ess ed
ĠM ad
ĠM ozart
ook s
Ġab att
up s
Ġsur s
rai ment
Ġam icale
Ġver ge
Ġwor ries
Ġdis l
Ġdis m
Ġcomp at
Ġcomp uls
imp lement
Ġpart ly
Ġsi p
onne ct
Ġcr oc
ĠrÃ© ag
ĠrÃ© action
Ġfe e
Ġman ne
Ġapp rends
Ġapp uya
Ġapp Ã©tit
la us
Ġren se
Ġren tres
ro d
ro cha
uis ez
si x
Ġser m
rent issage
Ġtou ches
app uie
app iness
app Ã©tit
Ġag enda
Ġsais is
Ġche w
ob al
Ġco ast
Ġco chons
Ġpens aient
art ender
ist ry
Ġimp art
Ġimp rÃ©
Ġimp uls
Ġpers ist
Ġatt irÃ©
Ã©r itÃ©
Ġdiff Ã¨re
Ġper fection
Ġpass ing
Ġliv raison
Ġpe anuts
rive d
Ġpren ait
Ġbl ink
Ġbl ush
iss on
ole il
Ġexp ressed
ick y
ĠÃ©c rive
ĠprÃ© venus
Ġpri Ã©
ile d
Ġshe ll
Ġbon es
Ġlot erie
Ġint ense
Ġor al
ra bles
Ġdi agon
Ġgu ilt
aimer iez
Ġcons ent
Ġcons omme
ĠrÃ©p rimand
Ġmo quÃ©
ĠJ uly
Ġmin i
Ġple ins
Ġfran c
act rice
Ġjou ons
Ġrec ul
Ġrec ette
Ġplan es
Ġpersonne lles
ĠA pp
ĠA lp
Ġprop h
Ġsec ouÃ©
Ġrest iez
Ġwait ress
Ġter res
Ġfl ing
Ġfl Ã»te
Ġinv al
Ġlivre r
Ġschool s
Un less
min ute
att ente
Every where
Ġim ages
Ġdisc overy
Ġcompren nent
Ġconf ort
Ġconf irmÃ©
Ġconf lict
acc user
ex am
Ġsc rat
Ġmus Ã©es
ĠC laus
Ġmanger ai
Ġdep osit
Ġdep rived
Ġimport s
ĠT imes
Ġtrouv ions
Ġfut on
Ġstart led
De vez
ĠS M
ĠS ingap
ĠS oleil
Ġexpl ode
Ġlis ent
Ġlis ant
Ġinc lu
Ġinc orre
Ġcat al
Ġcat ches
Ã©n Ã©r
Ġtravaill a
Ġtravaill eur
Ġessay es
Ġdec line
Ġref ait
Ġfun Ã©rai
Ġviv rai
Ġprof icient
gg er
Ġcor n
Ġremember ing
Ġear liest
Ġpat in
Ġpat hetic
Ġbeing s
Ġcompl ains
Ġcompl Ã¨te
Ġbou chon
Ġexc used
Ġexc lu
Ġrend ait
Ġaff reux
Ġaff reusement
Ġpain s
Ġpain ter
Ġarrive z
Ġstr ang
Ġstr atÃ©g
ĠprÃ©s erver
Ġpo ings
Ġins istÃ©
Ġann ounce
Ġrev u
Ġrev iew
Ġconv iendrait
Ġfai ry
Ġnu mb
Ġnu ageux
Ġfi ancÃ©
ĠachetÃ© es
Ġgag nes
Ġmag ie
Ġvoud ra
Ġvoud ront
Ġtri chÃ©
Ġtri angle
Ġtri gger
Ġcount s
ĠÃ©p inards
Ġsign ature
Ġsal mon
Ġeff ets
Ġgros si
Ġdonner a
ivers ity
Ġact s
Ġdoll s
Ġpap illons
Ġretour n
Ġtour n
Ġdir ont
Ġinter ro
olog iques
Ġdress es
emp orte
In v
Ġap eur
Ġcook ie
Ġnat ifs
pl ant
Ġattend iez
Ġcal mÃ©
Ġreal istic
Ġsl ammed
Ġprend rons
Ġlight ly
ĠprÃ©sent es
Ġcin quiÃ¨me
Ġbri lle
Ġconfi ante
Ġutil isent
Ġsuiv rait
Ġsouhait ais
Ġfig urÃ©
Ġbi o
Ġbi jou
Ġsour ces
Ġlaisser ais
Ġlaisser ont
ĠJe ux
Ġrou le
Ġcomple ts
Ġind ign
Ġdispos Ã©es
Ġregret ted
Ġru inÃ©
Ġconnaiss es
Ġsil k
Ġarriver ons
Ġtrans fer
Ġfa usses
Ġtor che
cu lez
Ġcas es
Ġcas que
Ġexplain ing
oig n
App rends
Ġred Ã©mar
Â» .
Ġfix e
Ġsembl able
orth y
ĠapprÃ©c ions
Ġesc l
gr am
ĠE x
ĠP re
Ġfonction nent
ĠÃ©ch ant
Am enez
Ġesp agnol
Ġesp Ã¨ces
Ġpun is
Ġsun g
ĠsÃ© ance
ĠsÃ© chÃ©
Ġtrait ent
ĠÃ©g arÃ©
Ġshort ly
ric ane
Ġcent im
Ġfore head
Ġordin aire
ĠnÃ©cessaire ment
Ġpick y
Ġmed al
Ġpleuv rait
Ġpress a
Ġimpression nÃ©es
Ġgun s
ĠR ed
Ġform ation
Ġpresent ed
Ġperd is
Ġpolit icien
ĠrÃ©flÃ©ch iss
Ġrece iving
Ġnois es
ĠrÃ©al iste
Ġpuiss ante
Tr ad
Tr ans
Ġve ille
Ġjet ez
Ġble ues
ouss es
ĠdÃ©f endre
ĠdÃ©f unt
Ġsymp hon
od es
Ġchem istry
Ġchev ille
Ġpan iquÃ©
ĠN ations
ĠN ara
Ġess uya
sh ips
Ġinj ury
Ġrequ ise
Ġmanque rez
Ãīt at
Al ways
ub by
Ġfond Ã©e
Ġfond ament
Ġinqui Ã©ter
Ġchocol ates
Ġrecher chons
Ġsang uin
Ġappar ut
Ġloc uteurs
Ġembrass Ã©s
Ġheav en
Ġheav ier
Ġski pped
Ã©v oque
head ed
Ġlim itÃ©
Ġignore z
ator ze
Ġmention ner
omb rables
Ġspeech less
Ġice berg
Ġeffe cts
Ġext ent
Ġsuspect ed
Ġcur se
Ġcur rent
Ġvend us
env iron
ĠmÃ©t aux
Ġlic enc
Ġvot es
Ġproc ure
Ġacqu isition
ĠÃ©che lle
Ġdish onest
ĠW indows
Ġqual ifiÃ©
Ġmarry ing
Av ance
Ġpack ing
Ġcul pabilitÃ©
Ġnation ale
enn ui
Ġintention ally
ĠV ienna
Ġcell ar
Ġexcit Ã©e
Ġressent ez
Ġaccord Ã©
Ġdef end
Ġinvest ment
Ġprofession nelle
Ġblind ed
Ġer ron
Ġaffe ctÃ©
Ġwash es
ĠTu esday
Ġunivers itaire
Ġrencontre z
Ġmanqu era
Ġpronon cÃ©
Ġant iques
Ġant idote
ĠdÃ©Ã§ ues
ĠcrÃ© er
Ġcit ron
Ġpare illes
Ġconne xion
Ġgroup s
Ġencour agÃ©
Ġvolunte ering
Ġterrif ic
Ġracont es
Ġappa rences
rog ne
Ġcandid ate
inv est
Ġgasp ille
Ġgasp illez
Ġparticip ated
Ġbrill iant
Ġore ille
Ġore iller
Ġaud ition
Ġcalcul ated
eff ort
Ġcoun cil
Ġtechn ology
Ġtechn ologie
Ġspect ac
ĠSaturday s
Ġbatt ent
arriv ent
ĠprÃ©cip ita
Ġfascin ant
arr asse
Ġserve use
Ġgrimp Ã©
Ver rouille
Ġtrac es
Ġconven able
Ġdiss ert
Ġunf or
assi rent
Ġremb our
Ġsympath y
Ġjume lles
Ġhall ucin
Ġras er
Ġalarm ed
Ġdisting uish
entraÃ® neur
Ġannon cer
Ġstress ful
Ġaccro chÃ©
Ġdirige ons
Ġpoup Ã©es
ĠlÃ¨ vent
Ġstomach ache
Ġrese mbles
Ġspeed ing
ĠrÃ©t ic
Ġmoqu Ã©s
Ġcareless ness
Ġallum a
ĠdÃ©ch irÃ©
ĠSp anish
ĠÃ©loig nÃ©s
Sit ting
ĠgoÃ» te
Ġrig ole
Ġparcour ut
Retour nons
Ġboi ling
Ġsepar ate
ĠÃ©lÃ©g ante
Ġpuzz led
ĠempÃª cha
Ġconfront Ã©
Ġremarqu able
Ġpharm acy
Ġmys ter
Ġcaus Ã©e
ĠgÃ©nÃ© reuse
ĠdÃ©bat tre
Ġ197 0
Ġtit le
Ġenth us
Env oie
Ġreprod uise
ĠCe pendant
ĠlÃ¢ cher
Ġfout u
Ġastu te
Ġfaith ful
ĠiP od
Ġsaig ner
ili bre
Ġassi ettes
accus Ã¨rent
Ġchim ney
ĠcomprÃ©h ens
Perm ets
Ġdeg ree
Ġrassembl a
onst itution
ĠdÃ©coll Ã©
Ġsymb ole
Ġdessin Ã©es
Bl ack
Ġcult ive
Ġbale ines
Ġbullet in
Ġnegoti ations
ĠÃ©tasun ien
Ġshout ed
Ġadap t
kin awa
Ġaliment aire
Ġaliment aires
ĠrÃ©chau ffe
Ġrequi ers
Ġphilosoph ie
ĠAsi an
Ġscand al
Ġtig re
Ġdefe ated
Ġcoc a
ĠbrÃ»l Ã©e
Ġnin jas
ĠprÃ©d ire
Ãīl oigne
Ãīl oignez
Ġcitiz en
Ġchiff res
Ġmosquit o
Ġmosquit oes
Ġeld ers
Ġpein tre
Ġinsp ired
ĠmaÃ®t riser
Ġparten aire
Ġparten aires
appr ouve
Ġcritici zed
Ġvolley ball
Sc ience
Walk ing
Ġcarb one
ĠouÃ¯ e
Ġcontemp or
Ġcongratul ated
Ġfoire r
Ġaston ished
Ġaveu gl
Ġcreep y
Ac cep
qual ified
ustri al
Ġdemonstr ation
Ġincon ven
Ġtremp Ã©
Ġremerci Ã©
ĠdÃ©clen chÃ©
Ġraccour ci
Ġacknow led
Ġdisobey ed
Co ffee
atte indre
ĠÃ©tonn ant
apprend rai
ĠstupÃ© fait
ĠGu erre
Ġoppon ent
Ġtuy au
Ġrapid ly
Ġsanglot s
Ġkilogram s
oxy gÃ¨ne
Mus ic
Ġtiss u
Ġpendu le
Ġquarre l
Ġthri lled
Ġjewel ry
ureu il
odor ant
Ġsquir rel
Ġinternation ale
Bel ieve
Ġcic atrice
inn ombrables
Ġmans ion
Ġhel met
Ġshamp oo
Ġfatig ue
Ġexpuls Ã©
ĠdÃ©taill Ã©e
ĠdÃ©clar ation
ĠprocÃ©d ure
Ġvainc re
Ele phants
Ġtrent aine
Ġinher ited
Ã©toi les
Ġpourb oire
Ġproced ure
Ġcathol ique
Ġsuscept ible
Ġdeli very
ĠdÃ©lib Ã©rÃ©
Ġspontane ous
aspir ine
Ġinutil es
Ġkim on
ĠexagÃ© rer
ĠmaÃ¯ s
astronom ie
ĠprÃ©jug Ã©s
Ġorph an
Enc ore
Ġdiscre et
ĠSin on
Ġincor rig
Ġboul anger
Ġfusill ade
Ġcollaps ed
Ġconstit ue
Mat hematics
Tick ets
Ġmard i
Ġfart her
Ġunmar ried
Ġtroo ps
Ġenorm ous
aliment ation
Ġscrat ched
ĠfunÃ©rai lles
A ut
B as
C ong
D rive
F ive
F ear
L end
L ance
M r
M ine
P rendre
R Ã©s
S n
S ing
S igne
T ant
T oo
T aste
V u
a cher
a ussi
a quer
b or
b ul
b ro
c ated
d rait
e uses
f r
f ish
h as
h ow
h ale
k i
k ins
l Ã©e
m ailed
n aires
n ical
n iquer
o os
p Ã©t
p ie
p ide
p les
p ipes
r ous
r ot
r issage
t ait
u ing
u Ã¨tes
w hat
w alk
x ic
z es
Ġ Where
Ġ Will
Ġ Everything
Ġ Espagne
Ġt one
Ġt iennes
Ġt ales
Ġt issue
Ġd out
Ġd up
Ġd ense
Ġd ile
Ġd act
Ġd ames
Ġa yant
Ġp Ã¢t
Ġp oudre
Ġp owers
en ic
Ġl Ã©
Ġl id
Ġl ink
Ġl oy
Ġc av
Ġc ern
Ġc aill
in ct
Ġm ette
Ġm eure
an o
an na
an nel
Ġn ations
Ġn oyÃ©e
it led
Ġw ink
Ġw ig
Ġw ages
Ġw iser
Ġw oken
Ġw ounds
om Ã¨tre
Ġf ans
qu ate
qu ila
as ten
Ġb ac
Ġb ites
Ġb ains
Ġb Ãªt
Ġb iling
Ġv est
at aires
Ġde te
Ġh ic
Ġh ont
Ġh udd
Ġqu ai
Ġqu atorze
or Ã©e
or ate
or mes
Ġg onf
ais ed
Ġque en
et ure
us ter
Ġj ules
Ġj anvier
Ġun ple
Ġun fortun
Ġsu ck
id ons
im a
ce mber
Ġtr aire
Ġtr aged
Ġdo ve
Ġdo gh
ch y
ch Ã¨rent
Ġr anc
Ġhe ating
Ġest omac
Ġest abl
Ġch utes
Ġch rÃ©t
Ġch Ã¨ques
Ġch ubby
Ġpr aised
au g
au ra
Ġan k
Ġan onyme
ĠI D
ment e
al isÃ©
al iser
Ġte quila
Ġse vent
Ġse af
Ġpl ains
Ġpl onge
ir ont
ir per
ir onnement
Ġpar ait
Ġpar iÃ©
Ġfor ment
Ġk ite
end ar
Ġune asy
Ġje an
Ġnot Ã©
ĠÃ©t ats
ĠÃ©t erne
ĠÃ©t ouff
ĠÃ©t roite
ac une
res pect
Ġall iance
Ġst able
Ġcan ne
all es
all umer
Ġso ber
Ġtu era
ĠdÃ© che
ĠdÃ© rais
ore illes
ers hip
Ġav ouÃ©
if ice
Ġcon Ã§u
Ġcon ception
Ġdes igner
Ġdes ires
Ġdes igned
Ġpro l
ct ors
ĠM oi
st yle
her n
Ġwhat so
Ġma qu
rai e
Ġta bles
Do ctors
Ġdu ll
ul tÃ©
ul aires
Ġdev iez
Ġdev ice
Ġdev aient
Ġdev iendrai
ouv ris
ici ally
Ġdis respect
Ġcomp an
onne use
che f
Ġgr asse
ĠrÃ© essayer
Ġfe llow
Ġout l
Ġout fit
Ġapp orte
la Ã®t
ro cher
uis es
Ġher oin
Ġser ment
Don c
Ġcl oud
Ġcl osing
Ġvrai es
app ar
app rentissage
Ã´ ne
Ã´ les
Ġjust ify
Ġres ort
Ġres ume
Ġche wed
ast y
ven ons
ĠÃ© rigÃ©
Ġmar chez
Ġmar rante
Ġparl ant
Ġcar rÃ©
Ġcar ries
Ġpers pect
ack ed
Ġsome what
Ġatt ente
Ġbr a
Ġbr un
Ã©r os
Ã©r able
Ã©r atif
Ġad vers
Ġper Ã§
Ġper di
Ġper ru
Ġpass ant
Ġpass Ã©s
Ġpass ager
Ġpass Ã¨rent
Ġpass enger
Ãªte ment
Ġoff icie
Ġoff icial
Ġnow adays
Ġfin ance
Ġmain tenir
Ġmain tain
Ġpre jud
Ġfau drait
Ġlet s
onn ables
Ġbl ott
Ġwr ist
Ġdr Ã´les
Ġparler a
ab ic
ab st
Ġsp ider
Ġfer mes
Ġfer tile
Ġspe cies
Ġmal Ã©d
Ġmal honn
Ġmal trait
Ġgrand it
Ġgrand ch
Ġpos ons
Ġpos itif
Ġcomm une
Ġexp ire
Ġenc oun
Ġbu ck
ge ance
ĠF ran
ĠÃ©c rivez
ĠprÃ© dit
ĠprÃ© venues
Ġpri a
Ġmes urer
Ġback yard
Ġreg ion
Ġret irez
ĠdÃ©c ouvre
As ie
Mon day
En lÃ¨ve
Ġdi rent
Ġdi pping
Ġmust ache
Ġgu Ã©r
Ġcons pir
Ġconn us
Ġmo che
ĠJ anuary
Ġye ll
Ġmin ut
Ã©ri e
Ġsou m
Ġjou aient
Ġpol is
Ġhouse work
Ġsent iez
Ġten aient
ĠA ll
essay ai
Ġsec our
Ġrest Ã¨rent
Ġover coat
Ġover whe
Ġfl ute
Ġfl ott
Ġquestion naire
iqu ette
Ġfu ir
Ġfu mes
Ġregard less
asse y
Ġgl ance
Ġgl obal
Ġache vÃ©e
Ġim bÃ©cile
ĠdÃ©t ru
ĠdÃ©t endue
Ġlaiss ons
Ġlaiss Ã¨rent
Ġconf ide
Ġconf iture
acc usÃ©
enc ed
Ġsc rap
th y
th iop
Ġmanger a
Ġdisp l
esp ion
Ã©d ition
Ġimport ed
ĠT our
Ġtrouv ons
Ġtrouv Ã©es
Ġrais ins
ĠÃ©tud ient
Ġexpl os
Ġexpl oser
Ġlis es
Ġinc ur
Ã©n igme
Ġessay Ã¨rent
Ġass id
Ġass oup
Ġass ign
Ġass ises
Ġass igned
Ġadv anced
ĠdÃ©p ass
ĠdÃ©p endre
ĠdÃ©p artement
Ġdec re
Ġref res
Ġref uge
Ġdoor bell
Ġcher cha
Ġcor nem
aider ais
aider ait
Ġmind s
Ġbou c
Ġbou cle
Ġexc itement
Ġexc ursion
Ġrend is
Ġfac ed
Ġfac ultÃ©
Ġgard a
Ġgard ien
Ġvoy ant
St r
St ock
Ġtra f
Ġins uff
ache t
Ġcap tÃ©
Ġwater ing
Ġtomb Ã¨rent
ĠmÃ© f
Ġord onn
Ġcol on
Ġinf in
Ġcold er
Ġconv iendra
Ġsecret ly
Ġfil thy
Ġcam eras
Ġbro om
tr as
Ġimm ature
Ġimm obile
Ġmag ician
Ġjouer a
Ġrencont rai
ia bles
Ġsign al
ĠO ne
ĠO VN
Ġsal ty
Ġ2 2
Ġchant age
Ġsitu Ã©e
apprÃ©c ies
Ġfar ce
Ġfar ine
Ġinter d
Ġinter rog
ĠdÃ©b out
Ġentre p
Ġdress Ã©
Ġcri ait
inc ident
aut ions
Ġattend ions
ĠrÃ©un ions
Ġsit s
Ã©p ous
Ã©p reuve
Ġsix teen
Ġtrou bl
Ġutil ises
Ġair s
Ġmost ly
Ġbicy cles
Ġinst aller
ĠdÃ©m ocrat
ason able
Ġserv it
Ġbi ology
Ġbi ologie
Ġhist or
Ġmen er
Ġmen Ã©
Ġir res
Ġrou e
Ġhair style
Ġcomple ted
Ġdispos ions
Ġru led
Ġsurv ient
oubl ions
ĠprÃ©v oyons
Ġdormir ai
Ġtant inet
Ġvoyage a
Ġtrans plant
Ġdiscuss ing
Ġtrouble d
ett iez
Ġactu el
Ġpop corn
Ġcountry side
Ġpenser ait
Ġste w
Ã©cess ion
Ġjoin ing
Ġhabit ue
Ġban lieu
Ġjournal istes
Ġfix er
Ġfix Ã©
Ġsac rÃ©
Ġdifferent ly
ĠapprÃ©c iez
Ġesc orted
Ġsnow s
Ġsnow ed
ĠP ortu
ĠP icasso
ĠÃ©ch anger
Ġesp Ã©rÃ©
Ġvin rent
Ġpun ie
Ġpun ition
ĠrÃ©ve illa
ĠsÃ© lection
Ġtrait es
Ġsub ur
Ġgrow th
Ġmarcher a
Ġrac ist
Ġrac iste
Ġrac ontez
Ġhospital ity
Ġdro gu
omet er
ĠH ong
ĠH okkaido
Ġcut ting
rou illez
occup era
Ġaband onnÃ¨rent
Ġmed ication
Ġbruit s
Ġju illet
ĠÃ©l im
Ã©tud es
ĠK ing
Ġill usion
Ġform s
Ġcommencer ons
Ġpolit icians
Ġheart bro
Ġparv ient
hist oires
ĠrÃ©al is
Ġfact eur
aim iez
ĠrÃ©uss it
Ġurg ente
Ġappro val
Ġlock er
Ġnorm ally
Ġve illÃ©
Ġsuppos Ã©es
Ġorgan ize
Ġorgan isÃ©s
Ġ19 50
Ġtravel ers
Ġtrad u
lo aded
Ġposs Ã©der
ĠY ear
Ġferm eture
Ġflo ats
emb ar
ĠN ow
ĠN ouve
Ġess entiel
sh ine
Ġcorrect ed
Ġblack mail
Ġblack mailed
Ġsouci ais
Ġcir cule
ĠprÃ©par a
Ġbate aux
Ġintelligent es
Ġprodu irait
Ġremp lacÃ©
Ġlac et
Ãīc ar
Ġpur s
Ġcommen Ã§ait
Af rique
Ġconsider ate
Ġball s
Ġcommun iquer
Ġembrass a
Ġstar ve
Ġdise ases
Now adays
Ġwarm ly
Ġgif ted
Ġconcern Ã©
Se en
Ġbal ade
Br ush
Gard ons
Ġpot ential
Ġpouss ent
imag ination
Ġmalad roit
ĠprÃ©fÃ©r Ã©s
Ġfool ing
Rest ons
Ġsurviv ra
Ġdestin Ã©
Ġvict or
ĠIn di
Ġtuer ont
Ġext ro
Ġsn ore
Ġsn ickering
Ġdeep est
Ġtend ency
Ġvend ue
Ġvend eur
Ġspecial ist
Ġmou illÃ©s
Ġconst ant
Cont act
env ironnement
Ġcomb in
opp ortun
und ant
Ġprogram m
Ġprogram s
Ġchou ettes
Ġproc Ã©dÃ©
Ġproc urÃ©
ĠÃ©te inte
ĠÃ©te intes
Ġsauv a
Ġsauv ages
Ġvent es
Ġsandwich s
Ġforce z
Ġobs essed
Ġeye b
Ġprov ient
ĠÃ©m ission
Ġsoul agÃ©e
Ġcalm ed
ĠrÃ©d action
Ġintention nellement
ĠdÃ©test ez
ĠUn ion
ĠUn iversity
ĠV ienne
Ġjud gment
Ġcell o
ĠsÃ©jour ne
Ġpier ced
Ġplant er
Ġinstant ly
Ġdoubt ful
Ġmuseum s
Ġdef ense
Ġdef ine
Ġrepos Ã©
Ġens ole
ĠdÃ©barrass Ã©
Ġunivers al
Ġstick y
ĠdÃ©pend ent
Ġbehav es
embrass a
Ġinvent a
Ġprincip les
Ġ6 0
Ġdure ra
Ġfif th
Ã©ner ver
Ġ4 5
Ġexerc ising
Ġmanqu ait
Ġcab ane
entend it
Ġrespe ctueux
Ġpeace ful
Ġflat ter
Ġbare f
ĠÃ©n igme
ĠnÃ©g ative
Ġcompos iteur
Ġambit ieuse
accomp ag
accomp lir
Ġrentr ant
Ã©chapp e
Ġgasp illage
Ġemm Ã¨ne
hor aire
Ġpant ing
Ġaud ac
Ġcontrib ute
Ġobey ed
Ġbour gade
aband onnez
eff et
eff ondre
Ġcoun ted
Ġcamion nette
ah uÃ¨tes
Ġaj outÃ©
arriv ait
Ġanx ieux
Ġbright est
Ġfascin ated
Ġavert issement
arr ange
ĠdÃ©ce v
Ġcouver te
Ġconven ait
Ġconven ience
Ġdiss u
Ġdiss imuler
ĠdÃ©tr uire
Ġhom eless
ĠdÃ©rou ler
ĠsÃ©par Ã©ment
Ġprotest ed
Ġpardonner a
Ġsinc Ã¨res
ĠcompÃ©t ence
Ġsuppl ia
Ġbass on
Ġbass oon
Ġviolon celle
RÃ© veille
Enf ant
Ġmett ent
Ġsales man
imm is
ĠdÃ©v oi
Ġaccus ations
Ġdig ital
Ġtowel s
Ġdistr act
Ġenvis agÃ©
ĠapprÃ©cier ais
Ġcla quÃ©
Ab ove
Ġtur tles
Ġcompet e
Ġident ity
Ġdy nam
Ġdesp ises
ĠgÃª nÃ©e
Ġattach a
ĠÃ©loig nÃ©e
ĠgoÃ» ts
appel a
Ġnegot iate
Ġpal ace
Ġcreat ed
Ġboi led
Ġsepar ately
Ġdonn Ã¨rent
Ġrempl ie
Ġmons ter
interromp re
interromp ez
Ġstate ment
Ġphys ical
Ġboug ez
Ġrub bed
Ġfashion able
Ġserp ent
achÃ¨ter ai
Ġemploye e
rime z
Ġcaus ing
Ġdiplom ate
Ġfinanci Ã¨rement
Ġrespond ed
Env iron
ĠdÃ©ton ations
Ġmenac Ã©e
Ġdri ven
Ġfoi es
Ġastu cieux
ĠRussi a
Ġsail or
Ġsail ing
Ġesprit s
ĠmÃ©pr is
ĠmÃ©pr isent
Ãītud ies
DÃ©pÃª chons
Pard onnez
Ġlux ury
Ġcout umes
Ġenreg istre
Ġrail way
ĠcomprÃ©h ension
Ġscol aires
ĠingÃ©n ieur
Ġpy ram
Ġchirurg ie
ĠÃ©pr ouv
ĠmÃ©rit ons
Ġsaou ls
Ġdecl ared
Ġperman ence
Ġpermett rai
emprun te
Ġachieve ment
Ġfreez ing
Americ ans
cri pt
Ġinfect ed
ĠBrit ain
Ġflood ed
Ġobt ient
Ġpomp iers
Ġsin on
Ġmun icip
Ġmix ed
Ġanal ys
Ġspoi l
ĠvÃ©gÃ©tar ien
ĠvÃ©gÃ©tar ienne
Ġnag eur
Ġhar ce
Ġastr onom
Ġcheek s
Ġindivid u
ĠGr ande
ĠGr Ã¨ce
Ġhorrif iÃ©
Ġhilar ant
Ġatom ic
Ġatom ique
ĠOlymp iques
ĠOlymp ics
Ġsush is
ĠrÃ©gul ier
Ġcontro lled
Ġblond es
Ġspont an
ĠrÃ©pand ue
Ġroug ir
Attrap ez
Ġ199 0
Ġfreak ed
Ġrout ine
Ġrout iÃ¨re
ĠMar ia
Ġrelative ly
Ġdomest iques
Light ning
Tra ce
ermÃ© able
Ġgather ing
ĠÃ©pic Ã©e
ĠdÃ©sespÃ©rÃ© ment
Ġcraign ais
Util ise
Vis it
Ġunre asonable
Ġparan oid
Ġparan oÃ¯
ĠCaliforn ia
Ġcoul oir
ĠindÃ©p end
Ġchoqu Ã©s
Ġfum ait
Ġsew ing
Ġchaleure usement
ĠmÃ©mor iser
ĠPac ific
Ġdimin uer
ĠdÃ©guis Ã©
Ġacquit tÃ©
Ġacquit ted
Lond on
Lond res
vol ant
Ġmamm if
Ġaspir in
Ġcraw ling
Ġentret ien
Ġexcess ive
Ġbul b
Ġadj ust
Ġspin ach
ocr acy
ĠdÃ©bord ante
Ġcitoy en
PrÃ©p are
ĠincompÃ©t ent
ÃĶ tez
Ġdinosau res
Ġreven ge
Ġrag oÃ»t
Ġparaiss ait
Ġstro ke
Ġbron z
PrÃ©v oyez
hearted ly
ĠbÃ» cher
Ġhib ern
Ġrene w
Ġabol ished
ĠdÃ©place ment
ĠprÃ©cÃ©d ent
Ġconstru ctive
Ġsuspic ion
Ġmigr aine
Ġbid on
Ġronf le
Ġmah jong
Ġclo chait
ĠdÃ©ser te
Ġflam mes
ĠTex as
Ġstead y
Ġdauph in
Ġclaustroph ob
ĠDis neyland
Ġsamp le
Ġcueill i
ĠvÃªtu e
Ġstink s
Ġproven ance
Ġfurie use
Ġbroch ure
Ġtalentue use
Ġunbel ievable
Ġbritann ique
Ġtoup et
escl avage
Ġcarn et
Ġimpitoy able
Ġspir its
ĠSw itzerland
Ġannivers ary
Ġpurch ase
Ġscarce ly
Seu ls
Ġnut rit
Ġyach t
Ġdolp hin
encon tre
Ġwaterme lon
ĠrÃ©fug iÃ©s
ricult eur
Coup ez
Gir ls
Sug ar
Stud ents
Ġcac ahuÃ¨tes
ĠvÃ©t Ã©r
Ġlaun ched
Ġtrau mat
Ġdism iss
Ġmanne quin
Ġinclu de
ĠstratÃ©g ie
Ġannounce ment
Ġbijou x
ĠredÃ©mar rer
ĠPre m
Ġdissert ation
Ġincorrig ible
Ġdile m
Ġdact y
Ġhont eux
Ġhudd led
Ġunple asant
Ġunfortun ate
Ġdogh ouse
Ġseaf ood
Ġwhatso ever
Ġperspect ive
Ġperdi rent
Ġperru que
ĠmalÃ©d iction
ĠFran Ã§ais
Ġoverwhe l
Ġcornem use
Ġbanlieu e
Ġheartbro ken
effondre r
! "
5 00
A ux
A part
B ack
C are
C atch
C rime
D im
D ire
F ur
F iche
F asten
G as
G ar
H eu
H onn
I A
L ang
L Ãł
M in
M ars
N u
O il
O ut
O ccup
P ours
P lace
R oll
S we
S ignez
T M
T ais
W inter
b ra
b ru
b its
b ama
c ou
c Don
d ras
e ffectu
e bru
f all
f ive
f ils
g ations
g ues
h old
i w
i et
i pe
i Ã¨rent
i od
j oint
l iness
m ith
m ade
n at
n ame
n ik
o f
o ft
p Ã©
p it
p ire
p erson
r aine
r ann
r oix
s un
s ouris
s implement
t est
t iv
t Ã¨rent
u ation
v u
v ue
v able
x ed
y eux
z ing
Ġ Elles
Ġ Laisse
Ġ Pourriez
Ġ White
Ġt ais
Ġt onne
Ġt ide
Ġt Ãªtes
Ġt apÃ©
Ġt iger
Ġt uez
ou re
re h
Ġd ated
Ġa igu
Ġa lley
Ġp ais
Ġp ion
Ġp elle
Ġp Ã©d
Ġp ente
Ġp ince
Ġp ork
Ġp iles
Ġp istÃ©
Ġp Ã©chÃ©
Ġs Ã¨
Ġs ap
Ġs Ã©n
Ġs idÃ©rÃ©
on cÃ©
en ue
Ġl ue
Ġl ise
Ġl Ã¨ves
er ce
er ia
Ġc able
Ġc itÃ©
Ġc ope
Ġc otÃ©
Ġc endrier
in de
in ate
in ated
Ġm ow
Ġm out
Ġm asse
Ġm aill
Ã© more
an as
Ġn ave
Ġn ette
Ġn um
Ġn ick
it ted
Ġw inner
Ġf ice
Ġf ount
Ġf Ã©v
as aki
Ġb ats
Ġb ache
Ġb artender
Ġv ed
Ġv il
Ġv ap
Ġv aille
at ory
Ġde er
Ġde grÃ©
Ġh one
Ġh ats
Ġh Ã¢t
Ġh oles
Ġh iring
Ġto ast
ar ant
ar ia
ar bres
ar ita
or Ã©
or ge
Je tez
Je tons
un ken
Ġthe ft
le vez
us age
us cule
Ġne ve
Ġne phe
Ġun amb
Ġre w
Ġre ck
Ġre pt
Ġre belles
te x
te in
ri ment
ri ly
ri ci
ri pt
ri dge
oi es
Ġle ap
ant ic
Ġla me
Ġsu t
Ġsu ivez
Ġin jection
Ġin fection
Ġin excus
Ġha cks
Ġe Ã»t
Ġtr ousses
Ã¨ les
Ġen veloppe
Ġdo pe
Ġdo zed
Ġdo yen
ch air
Ġr ase
Ġr ank
out ant
Ġch ased
Ġpr ouve
Ã©t at
Ã©t aires
Ã©t iquette
ĠI I
al ing
ic ros
Ġte les
ain er
Ġli Ã©
Ġse as
Ġse eds
ver si
Ġpl ag
ie usement
os te
os cope
Ġpar aissez
Ġpar ages
Ġfor ks
Ġk not
Ġk etch
Ġk oal
ad minist
Ġau rai
av ocat
Ġas i
Ġas pect
Ãª tÃ©
ill iez
am er
am ener
ĠÃ©t end
ĠÃ©t endue
ac ier
ac tez
ble d
Ġall Ã¨rent
op Ã©ration
ur al
ur ons
Ġst are
Ġst adi
Ġmy th
all as
all Ã©e
all um
Ġso bre
ĠdÃ© si
Ġav isÃ©e
Ġav Ã©rÃ©e
Ġsom n
ly ing
Ġpro g
ol ves
ens ions
ort ion
ess entiel
ct ives
ĠM other
ĠM erci
ĠM cDon
Ġex ister
Ã¨s es
st and
Ġab use
Ġab oli
Ġri b
Ã©c riture
Ġar chÃ©
Ġar mÃ©
Ġsur tout
Ã©s ie
ier t
Ġam ateur
Ġam icaux
Ġdev il
Ġdev inrent
Ġver ts
Ġwor m
ci Ã¨re
dre ds
Ġcomp are
imp ossible
Ġpart ions
ate gy
Le arn
che ttes
Ġgr in
Ġcr uels
Ġfe int
Ġsee k
Ġout re
Ġman us
Ġapp art
Ġapp elles
Ġapp ointed
si zed
Ġser ver
mer ous
Ġcl oses
Ġcl erk
Ã» tes
app auv
Ġres chedu
Ġche vel
Ġno ctur
Ã§ ue
Ã§ onneuse
Ġmar Ã©e
Ġmar rer
Ġmar quÃ©
Ġton nes
Ġparl Ã¨rent
ob iles
Ġcar rure
ade au
Ġimp ermÃ©able
Ġatt irer
iv il
Ġbr av
Ġbr Ã¨ve
Ġbr isÃ©e
Ġlo ver
Ġlo vers
Ġper t
Ġper tes
Ġper cer
Ġcont enu
Ġoff icier
Ġfin s
Ġfin ale
Ġfin icky
Ġdemand ing
Ġdemand aient
Ġpe as
Ġmain t
Ġmu g
Ġtous s
ound ing
Ġbl ushed
Ġdr aps
Ġdr unken
ab oie
Ġjus tes
Ġsp ouse
Ġmat ure
Ġmat ches
Ġcomm ettez
Ġexp ort
Ġexp rimÃ©
aiss Ã©
Ġenc aisser
ĠB ell
ĠB erlin
ĠB iw
Ġlit s
Ġven geance
ick ing
ĠF ord
ĠF ebru
Ġbook ed
ĠprÃ© tex
Ġacc ueil
Ġro de
Ġpi Ã©t
Ġsupp ortez
Ġbel ieving
Ġret ir
ern ails
ĠdÃ©c riv
ra ham
ach Ã©
Ġcons ist
Ġmo ves
Ã©ri ons
ĠdÃ©s ign
Ġple aded
Ġple urent
Ġnom mÃ©
Ġjou erai
Ġpol itesse
Ġhouse w
Ġplan che
ek ed
iÃ© v
Ġsent enced
Ġten ais
Ġprom u
ĠA t
ĠA TM
Ġprop he
Ġprop osez
Ġsec ou
Ġaw oke
Ġrest ent
Ġrest ons
Ġrest room
Ġrest ored
Ġwait er
Ġover come
Ġover time
Ġrep art
Ġrep assÃ©
Ġdown s
Ġfl irt
Ġfl ames
Ġquestion ing
Ġinv aded
Un ion
iz oph
Ġhand les
Ġhand cu
Ġhand bag
ph oto
Ġsort s
Ġsort ait
Ġdisc ret
Ġemp ois
Ġemp ris
ĠdÃ©t enu
Ġlaiss iez
ex h
ex emp
Ġsc an
Ġsc am
Ġsc iences
rÃª ts
auv es
Ġarriv al
Ġmus cle
Ġrem it
Ġrem ette
Ġrem Ã©more
ĠC ar
ĠC ross
ĠC roix
Ġdep ressing
esp agnol
Ġhur lÃ©
Ġend ur
Ġenv oyez
ĠT ime
De ath
Ġexpl oit
Ġexpl orer
Ġlis ais
Ma Ã®t
Ġcat Ã©g
Ã©n avant
Ġtravaill ant
Ġconc o
Ġadv enture
ĠdÃ©p ens
ĠdÃ©p assÃ©
Ġmont Ã©s
Ġref und
Ġlun g
int rod
Ġrester ons
Ġviv antes
Ġprof il
Ġprof its
Ġreme mbers
Ġmot if
Ġmot el
Ġgar lic
Ġcor Ã©en
Ġcor rigÃ©
Ġear ring
Ġbed s
Ġcompl ot
Ġrain coat
Ġstud io
Ġaff ronter
Ġfac ing
Ġinteres ts
par ked
Ġtrouver ont
Ġstr ing
Ġstr ategy
Ġcou rez
Ġtheir s
ĠrÃ©s ident
Ġaccident ellement
Ġpo Ãªle
Ġtra Ã®tre
Ġins c
Ġins ens
Ġins pect
Ġcap tiv
Ġquit tes
Ġquit tÃ©e
ins tein
Ġpropos ed
Ġtomb ent
ĠintÃ© resse
Ġcontr ain
Ġcontr acter
Ġcontr actÃ©
Ġcol is
Ġcrois Ã©s
Ġcrois ement
Ġinf uri
Ġfai bl
Ġnu merous
Ġretard e
Ġfil er
Ġvisit ent
Ġsk ating
tr ay
per ing
Ġbless ed
Ġimm igrants
Ġmag icien
Ġperdu es
ĠEnglish man
arm ed
Ġtri m
Ġtri pped
Par ler
Par tez
util isez
most at
Au tre
Ġsign aler
Ġvois ines
ĠO bama
Ġment ait
Ġmeeting s
Ġinvit ing
Ġsau te
Ġsau rons
Ġpap illon
Ġ2 6
Ġchant ait
Ġretour nes
Ġprofess eure
Ġentre ten
Ġdress a
emp Ãª
Ġris quer
Ġport ais
Ġcal ories
Ġcal endar
Ġhor izon
Ġtrust ing
Ġexam ina
Ġexam ples
Ġsl ower
Ġsl ipp
Ã©p ais
Ġsick ness
Ġbri de
Ġbag pipes
idi ot
Ġdemander ais
Ġutil isÃ©e
Ġsuiv is
Ġinform atique
Ġinst itut
Ġbi ased
Ġstre am
Ġstre nu
Ġmen Ã©e
Ġmen eur
Ġreconn ut
Ġreconn ues
Ġreconn aÃ®t
Ġmusic al
Ġain Ã©
Ġlaisser ait
tur Ã©e
Ġadm irÃ©
Ġfour chettes
Ġind ication
Ġcontre d
Ġchemin Ã©e
Ġdispos aient
ras sez
work s
Ġsurv ie
Ġsurv ienne
attend e
Ġguess ing
Ġsil hou
Ġsy ll
Ġcontent er
Ġcontinu ent
Ġtor se
Ġfon de
ĠL aissez
Ġsus pecte
Ġste am
Ġmour ant
Ġallow ance
Ġvers a
Ġlib Ã©rÃ©s
Ġpatient er
ĠgÃ¢ chette
ĠnÃ©cess itÃ©
Ġval ent
Ġfoot prints
Ġsembl a
Ġsembl er
Ġsuper ior
Ġesc ort
ĠE ast
Ġcatch ing
ĠP ol
Ã©b ri
ĠÃ©ch ang
ĠÃ©ch oue
Ġesp Ã©rant
ĠG re
llig ence
Ġparfait es
Ġbar riÃ¨re
Ess uie
ĠrÃ©ve illÃ©es
Ġsun light
Ġsun burn
Ġsun shine
ĠsÃ©c ur
Ġsto pper
Ġsub itement
Ġdiv ine
ĠÃ©g ar
ĠÃ©g aux
Ġtent ons
Ġrac ial
let ic
Ġtouch Ã©e
Ġhospital itÃ©
Ġhospital ized
ĠH ouse
Ġgre c
Ġcent ral
Ġteam s
Ġbegin ners
quel s
Ġgagner ait
cient ists
Ġchois is
Ġchois ie
ĠÃ©v ol
ĠÃ©v acuer
Ġprin ter
ĠÃ©cout ant
ĠÃ©cout Ã©es
Ġmed it
Ġsignif iait
Ġtest ament
Ġtest ify
ĠK ong
Ġviol ente
ĠR om
Ġchapeau x
Ġpolit iques
Ġworth while
Ġparv int
ĠmÃ©d i
Ġress ort
ĠrÃ©uss irez
Ġtim ides
Ġlibre ment
Ġamb ide
Ġamb itions
ĠdÃ©f is
Ġsuppos ition
Ġorgan is
Ġorgan isation
Ġ19 2
ĠrÃ©c on
Ġsymp athetic
Ġdange reuses
Ġnerve uses
Ġnerve usement
od ed
emb rasse
ĠN arita
Ġess entie
Ġrendu es
Ġreconnaiss ants
Ġoffer ing
Ġless ive
Cert ain
erv ations
Ġpen cha
ĠprÃ©par ation
ĠprÃ©par Ã©es
Ġnett oy
Ġinqui Ã¨tes
Ġprodu ce
Ġchocol ats
ĠdÃ©g oÃ»
Ãīc outons
Ġcommen Ã§
Ġpou ce
Ġappar u
cha Ã®
Ġhonest ly
ber ry
Ġfamil iÃ¨re
Ġbizarre ment
Ġconvainc ues
Se arch
Ġpizz as
Ġpizz eria
rop he
Ġignor ing
Ġconcent rÃ©
Ġlend ing
Ġdet ailed
Ġgrou iller
Ġmalad es
Ġchante z
Ġattent es
Ġtop ics
Ġmaj ors
Ġmaj ored
Ġcomprend rai
Ġsn ake
Ġgri ll
Ġplac er
Ġplac Ã©
Ġcur ry
Ġconst ater
Cont inu
Ġrepro ches
Ġprogram mer
Ġchou x
ĠÃ©te ignit
Ġacqu aint
Ġhy bri
adm ettre
ĠbrÃ» lant
Ġobs ervÃ©
Ġev ents
Ġash tray
Ġsusp endu
Ġlead ing
Ġcroy aient
Av ais
Av oid
arch ite
Ġgrat itude
ĠÃ©m ue
Dev ons
Dev inez
Ġnation alitÃ©
Ġaugment ent
Ġincroy ables
Ġgrad ually
ĠrÃ©d iger
ĠdÃ©test Ã©
Ġconduis it
Ġsauf s
Ġlev Ã©s
Ġrom ancier
Ġsimil aires
Ġspr ay
Ġkil o
amb ulance
Ġfeed s
ĠspÃ©cial iste
ĠspÃ©cial isÃ©
Ġele phants
Ġblind s
Ġretr ouve
ĠdÃ©pend ons
Ġdoi ve
eng ager
Ġschedu led
Ġasse mbl
Ġcrimin als
Ġant i
Ġlog iciel
entend ent
entend ais
Ġvir Ã©s
ĠcrÃ© a
Rem ain
Ġmagn ifiques
Ġpare ils
Ġterrif iÃ©
Ġlour des
Ġthousand s
Ġram assÃ©
Ġsurf ing
rog en
Ġloup s
Ġbaiss a
Ġauth ent
Ġpours uit
ĠCanad ienne
Ġharm ful
Ġunique ment
Ġgentle men
Ġfright en
Ġfright ening
Ġwise ly
Ġ9 0
Ġ9 9
Ġpil ules
Ġincap ables
Ġextra ordinaire
ym oon
Ġdisg uised
ĠcoÃ»t ait
eff ray
ĠpÃ©ri ls
ĠÃ©puis Ã©s
ubl ic
Ġdepend ent
Ġpsych iques
Ġlent illes
Ġbatt us
Ġbisc uit
arriv Ã©e
Ġescal adÃ©
ĠprÃ©cip iter
ĠamÃ©ric aines
Ġresign ed
Ġresign ation
Ver y
Ġcouver cle
Ġcouver tures
Ġdiss atisfied
Ġdiet ing
Ġtyp ist
arrÃªt ait
Ġressembl er
Ġnap kin
Ġ16 8
Ġjudge ment
Ġing red
Ġiss ues
Ġsympath iques
light s
Ġjume lle
Ġlab el
Ġjug ez
Che z
Sp anish
Ġequ als
Ġannon ce
Ġinflu ential
Ġstress ed
Ġbutter fl
Ġfain Ã©
Ġbull ets
Ġdrog ues
Ġedu cated
Ġdig ging
ĠlÃ¨ ver
ĠreÃ§ ois
ĠreÃ§ oit
ĠobÃ© i
Ġrejet a
Ġrejet Ã©e
Ġinsist a
Ġident ify
ĠaÃ® nÃ©s
ĠcÃ¢ bles
Ġgal ant
ĠrÃ©t abli
Ġmoqu Ã¨rent
Ġpermit ting
Ġdanse use
Ġgren ouille
Ġgren ouilles
Ġsup erst
Ġlif etime
Ġcourte ous
ĠdÃ©prim ant
Oubl ions
Ġchand elle
ĠAn kara
autor itÃ©
Ġtradition al
Ġinvestig ating
Ġincl uding
Spe aking
Ġpal iss
Ġhi pp
Ġmel ting
Ġfrustr ating
Ã©che lle
ĠdÃ©pÃª chÃ©
Ġinsul te
Ġinsul tÃ©
Ġbow ling
Ġgym n
ĠdÃ©sir s
Ġconfront ed
Ġrefuser ais
Ġbrief case
Ġphys ically
Ġcy nical
Ġod ds
Ġdrag uer
ĠdÃ©couv rira
Ġmerc is
Part ageons
Ġhost ile
Demand ons
Ġfinanci Ã¨re
Ġfinanci ally
Mar riage
com ing
Ġmoust ique
ĠbÃ©nÃ© vol
Ġgain ing
ĠdÃ©n uÃ©
ĠdÃ©n ichÃ©
Ġblank ets
Ġactiv itÃ©
Ġactiv ity
Ġactiv ities
Ġ197 5
Ġdece ased
ĠrÃ©aliser a
Ġwitness ed
dis on
umb us
Ġfout re
Ġastu cieuse
Ġattrib uted
Ġpickpock et
Ġproduct if
Ġsaig ne
ĠmÃ©n age
Ġnarrow ly
Ġweigh s
ĠdÃ©velopp er
Ġclaim ed
ump tion
Ġenreg istrer
Ġpros pect
ĠÃ©parg ne
ĠÃ©parg ner
Ġsacrif ices
Ġpig s
ĠÃ©quip es
Ġliter ally
apprÃ©ci ai
ĠrÃ©col tes
imagin able
ĠsupÃ©ri eure
Ġsaou les
Ġaffam Ã©s
Ġstru cture
Ġ200 3
ĠNag asaki
ĠdÃ©lic at
Ġerr ands
Ġphysique ment
Ġfuss y
ĠÃ©tasun iens
Ġath letic
Ġcompar ison
Ġadvert ising
ĠmatÃ©ri aux
ĠdÃ©cour ager
Allume z
Ġtric ote
Ġembau chÃ©
Mange ons
Res pe
Ġunb utton
Ġreb els
Ital y
Ġarchite cte
Ġagress ive
Ġimpuiss ante
Ġfabri quÃ©e
Ġhar icots
Ġang rily
Ġoutr ank
Ġphilosoph y
Ġstret ch
Ġapplau ded
Ġcorrespond ent
Ġtig ers
Ġrecover ing
Ġterror istes
Ġfauteu ils
Ġforgiven ess
ĠGree ce
Ġimpliqu Ã©es
phe lin
Ġcot on
Ġappren ons
Ġappren nent
Ġadress Ã©e
Ġdecor ated
Ġinstin cts
Pr atique
Ġsarc astic
Ġpein tures
Ġbenef it
RÃ©pond s
Cor rige
Cons ider
Hum ans
Ġfol ie
ĠgÃ© ographie
ĠmaÃ®t rise
Ġspaghett is
Pre p
Voy ager
Ġrever rais
Ġrattrap Ã©
ador ais
Ġconscious ness
activ itÃ©
Ġchaleure ux
Ġvolcan o
ĠPac ifique
Ġdimin uÃ©
Travai llez
Ġmaigri ch
Ġurb an
Hab it
Ġge ography
Ġaveu gles
Ġconten ait
Ġtherm omÃ¨tre
ĠÃ´ ter
Ġchap it
Ġvisible ment
Ġswallow ed
Ãīv idemment
ĠÃ©chou a
ĠÃ©vanou i
ĠsoupÃ§ onne
Ġmemor ized
Ġnavig uez
Ġcitoy ens
Pens ais
Pens iez
Ġsch izoph
Ġmult ip
Ġalcool ique
Compar Ã©e
Ġrenouve ler
Ġfund ament
Ġtransf orme
Ġvein ard
Ġsympt Ã´
Ġinappropri ate
ĠcÃ©d a
ĠhaÃ¯ ss
Ġtrag Ã©die
Ġkar ate
ĠexÃ©c uter
Ġflin ching
ĠtÃ©lÃ©charg er
ĠCol omb
ĠCong rÃ¨s
Ġtrib un
Attache z
Ã©vanou ir
Ġvocab ulaire
Ġsplend ide
Ġvigil ance
Grimp e
Ġpoo rer
invent er
ĠbÃ©n isse
Ġyog a
Ġexempl aire
Ġmutu al
Ġprim ary
Ġbak ery
Ġunbe arable
Ġplair a
Ġstab bed
Ġdisli kes
ĠKore an
dÃ©jeun Ã©
Ġenregist rÃ©
Ġsollic iter
Hope fully
Lun di
olly wood
Ġther mostat
Ġparal ys
Ġstall ing
ĠdÃ©licie uses
Ġstatist iques
Rab bits
ĠvÃªt ir
Ġtron Ã§onneuse
Ġcaract Ã¨re
Contr ol
Ġevacu ate
Ã©roÃ¯ ne
ĠdÃ©gueul asse
Hun dreds
Ġmend iant
origin al
Ġisol ated
Ġtrav aux
Ġimpart ial
Ġproph Ã©t
Ġincorre cte
Ġerron Ã©e
Ġinconven ience
Ġacknowled ged
Ġkimon o
Ġboulanger ie
pie ce
Ġtraged y
Ġank le
ĠÃ©tats un
ĠÃ©terne llement
ĠdÃ©che ts
Ġoutl ive
ĠdÃ©mocrat ie
Ġsubur bs
Ġextro verted
Ġcombin aison
opportun itÃ©
Ġeyeb rows
Ġbaref oot
ĠparanoÃ¯ aque
Dim anche
Heu reux
Lang u
Ġsap in
Ġfount ain
ĠfÃ©v rier
Ġved ette
Ġhone ymoon
Ġnephe w
Ġunamb itious
Ġrept iles
rici an
Ġhacks aw
icros oft
Ġteles cope
Ġketch up
administ ration
Ġstadi um
ĠMcDon ald
ĠBiw a
ĠFebru ary
Ġslipp ers
Ġstrenu ous
Ġsilhou ette
Continu ons
Ġbutterfl ies
ĠbÃ©nÃ©vol at
Ġunbutton ed
1 00
A ug
B ar
B ay
B ret
B aissez
B uv
C ookie
D N
D urant
E ating
E arth
H arvard
H okkaido
H appiness
I ron
K iss
L o
L avez
L iving
M aking
O pp
O rient
P rÃ©s
R S
S ure
S ens
S ouff
S cientists
T aking
V raiment
W ipe
a ft
b el
b rÃ©e
c r
c id
c ier
c ro
c ence
d og
f are
g am
g lement
g iving
h u
h ique
i ai
i astic
k eu
l Ã¨
l end
l ied
m ie
m ille
m anger
m Ã©d
m ission
m oins
n o
n omm
o ds
p ress
r ings
r ologie
s itter
t our
u Ã©s
u Ã¨rent
w ater
x uel
z y
Ġ âĢ
Ġ Ils
Ġ Would
Ġ Give
Ġ ze
Ġ Thanks
Ġt an
Ġt ed
Ġt ac
Ġt ang
Ġt ipt
Ġt sun
ou illez
Ġd ime
Ġa qu
Ġa ident
Ġp au
Ġp am
Ġp ud
Ġp ies
Ġs ed
Ġs ate
on ing
is ure
en nem
Ġl as
Ġl obby
Ġc ob
Ġc reuse
Ġc Ã©der
in ction
in oc
Ġm ac
Ġm ob
Ġm illes
Ġm Ã©lo
Ã© min
Ã© tez
an ist
an ique
an chÃ©
Ġn ic
Ġn ost
Ġn uis
Ġn agÃ©
Ġn oires
Ġn asty
it ations
it udes
Ġw ave
Ġf la
Ġf oss
Ġf led
Ġf umÃ©
Ġf ails
qu ant
qu inze
as co
Ġb if
Ġb uis
Ġb ille
Ġb ail
Ġb Ã©g
Ġb amb
Ġb ounds
Ġb actÃ©
Ġb Åĵufs
Ġb ooze
ll as
Ġv et
Ġv ant
Ġv if
Ġv Ã©l
Ġv endez
Ġv aud
Ġv illages
at rices
Ġh ars
Ġh ives
Ġto ss
ar ing
ar se
ar ner
Ġqu Ã©rir
or itÃ©
or ique
ent raider
un i
Ġth inner
Ġth Ã¨se
est s
est ra
Ġg iv
Ġj ar
ot ic
ot ique
Ġun p
Ġun inte
Ġo sez
Ġo cÃ©
Ġo vere
Ġre ch
Ġre act
Ġre action
Ġre tenue
ri ques
oi xante
Ġme lons
Ġle vez
Ġle cteur
Ġle isure
Ġla ves
Ġsu ed
se x
se ver
Ġin it
Ġin ex
Ġin aper
Ġin acceptable
il k
id el
Ġbe ign
Ġbe gg
Ġha y
Ġha le
Ġha che
Ġha usse
Ġha zard
Ġe us
Ġe quip
Ġe Bay
Ġtr ash
ch ou
ch ai
ch ais
Ġr ates
Ġr ash
Ġr oyal
Ġhe lic
Ġch iant
Ġch agr
Ġpr ayed
Ġan neau
Ã©t Ã©s
ĠI st
ment al
al ty
ic aire
Ġli ars
Ġon ions
Ġse cteur
Ġse aled
ver sez
ie mment
Ġpar all
Ġpar cs
Ġpar venez
Ġfor Ã§a
Ġcom ics
oo gle
He alth
ren dered
Ġk ara
ad ress
Ġpour rie
Ġpour tant
end ort
av enture
ag is
ag ram
ag riculture
ill ing
ill erai
ont rÃ´
am s
am or
ĠÃ©t ape
ĠÃ©t abli
ne lles
Ġall usion
op sy
ur ais
Ġst oned
Ġcan e
Ġcan ard
Ġles quels
Ġtu ber
ĠdÃ© ro
ĠdÃ© ception
Ġmon keys
Ġav ide
Ġav Ã©rÃ©
Ġav ancÃ©
Ġav alÃ©
if iÃ©e
Ġwith dra
Tu be
Ġpro venant
ol ar
Ġsh ark
Ġsh iver
Ġsh uff
Ġsh aved
Ġsh aving
ust ice
ess ions
ct ic
ĠM P
ĠM aintenant
ĠM arch
ĠM aison
Ġex tÃ©
Ġex iste
Ġex ilÃ©
Ġex ercer
ave c
Ġab ri
Ġab hor
Ġab oient
Ġri ez
Ġri pe
Ġri pped
Ġri gu
Ã©c rirai
ap hor
up er
Ġma le
Ġma keu
Ġar cha
Ġsur g
Ġsur rendered
rai lle
Ġta le
Ġal to
Ġal titude
Ġdu g
Ġdu ck
Ġam Ã¨re
Ġam Ã¨ne
ul g
ul te
ul ary
de use
Ġver b
Ġver tu
Ġver rais
bl er
ci ents
ci ves
ci pl
Ġdis si
Ġdis aient
Ġdis orient
dre z
Ġcomp agne
Ġcomp reh
imp Ã´ts
che ck
Ġgr ain
Ġgr oc
Ġgr onder
Ġgr ump
Ġcr us
ĠrÃ© agir
Ġfe ared
Ġman ches
Ġapp uyez
Ġren f
Ġup d
Ġdit ch
Ne ed
Ġvou drez
si us
Ġcl ous
Ġcl um
Ġcl own
app a
app uyer
Ġag a
Ġres ervations
Ġjam bon
ast rologie
ĠÃ© d
ĠÃ© mÃ©
ĠÃ© lection
Ġmar m
Ġmar in
Ġmar ins
Ġdire cte
Ġent rions
Ġent itled
ass omb
Ġparl ions
ob us
art ifice
Ġpers Ã©v
Ġca chait
Ġatt ained
Ġbr ass
Ġbr ows
Ġbr aces
Ġbr isa
Ã©r ap
Ġlo osen
Ġdiff Ã¨rent
Ġper cut
arg ne
Ġpass ons
Ġpass ive
Ġcont es
Ġcont usion
Ġfin ishing
Ġdemand Ã©e
Ġmain ly
Ġwr ap
Ġdr um
Ġdr astic
iss eurs
Ġmat iÃ¨res
Ġgrand issent
Ġpos es
Ġpos Ã©e
Ġcomm otion
Ġexp ose
Ġexp ired
Ġexp rim
um ul
ĠB ar
ĠB el
Ġven ant
ĠprÃ© al
Ġthought ful
Ġback pack
fe w
Ġreg ained
Ġsupp ortes
Ġint rÃ©
ĠdÃ©c la
ĠdÃ©c onse
Ġfais ions
En vis
Ġund ressing
ra lement
Ġfaut if
du ct
Ġdi al
Ġdi ver
Where ver
Ġcons cients
ĠrÃ©p l
Ġmin eur
ĠdÃ©s appr
Ġpu rent
Ġple ines
Ġfran ch
Ġjou ant
Ġpol ies
Ġrec ours
Ġrec uler
Ġrec overy
Ġnight s
ĠA ng
ĠA ug
ĠA venue
ĠA llemagne
Ġrest ant
Ġac tes
Ġhard working
Ġover d
Ġrep ay
Ġrep Ã©rÃ©
Ġrep airs
Ġrep rend
Ġrep lied
Ġpay Ã©es
Ġfl un
Ġfl att
Ġfl avor
Ġinv isible
Un iversitÃ©
Ġregard ed
Ġregard Ã¨rent
att aque
att aqu
Ġache ver
Ġwhere abouts
Pers on
Ġemp has
ĠdÃ©t Ã©ri
Ġconf ormer
acc orde
enc our
Ġsurpr it
ex ige
Ġsc Ã©n
Ġsc rup
Ġsc alp
th rop
Ġarriv ons
ĠC ity
Ġsw eep
Ġsw oll
Ġmor ale
oc al
oc ated
Ġhur ricane
Ġend ure
Ġoccup ied
Ġrais ing
Ġrais onnables
ĠS y
ĠS wed
Ġexpl ique
Ġaux quelles
Ġaut opsy
Ġces sez
Ġinc om
Ġinc lus
Ġinc ontrÃ´
Ġessay ant
Ġmont Ã¨rent
Ġmont rÃ©e
Ġdec iding
Ġref erai
Ġref resh
Ġkind ly
Ġfun ds
Ġfun ction
Ġcor romp
Ġear rings
Ġpat tern
Re f
Re j
Re mp
Re culez
Ġcompl iquÃ©es
Ġdou bl
aider as
Ġhab ites
Ġhab illÃ©s
Ġbou cles
Ġrend rons
Ġrend Ã®mes
Ġrain bow
ich Ã©s
igh ter
ict ions
Ġfound ed
Ġcou g
Ġgard iez
Ġaccident ally
St rict
Ġpo d
Ġaider ait
Ġmiss es
Ġcap te
ins iste
Ġtomb ant
ĠmÃ© jug
Ġsol itude
Ġdoct eurs
Ġord ures
Ġcrois Ã©
Ġinf ond
Ġnu es
Ġnu age
idÃ© mie
Ġrun ner
Ġgreat er
Ġpret ends
iste z
Ġfi asco
Ġsk ip
ĠintÃ©ress erait
arm an
Ġvoud raient
Ġtri es
Ġtri cky
Ġcaf eter
Ġgen res
Par ce
Par viens
ĠÃ©p aisse
ĠÃ©p lu
Ġsortir ai
Ãī p
Ãī pr
Au riez
ĠO xford
ĠO kinawa
Ġmari ju
ible ment
Ġemb assy
Ġsau ront
Ġresp lend
ĠÃ¢ mes
ĠÃ¢ ges
Ġchant a
Ġoubl iÃ©e
Ġtour nÃ©e
Ġtour iste
Ġinter ven
Ġinter venir
Ġpartie llement
ĠdÃ©b ou
Ġrel ied
Ġprod uisent
lui es
Ġcri mine
inc lin
Dis c
Dis ons
Ġtermin a
In t
In de
Ġap te
aut o
Ġcop ains
Ġattend ra
Ġattend aient
Ġport iez
Ġport aient
Ġhor aires
Ġvac ations
Ġsl ave
Ġsl ipper
Get ting
ĠprÃ©sent erai
Ġbri quet
Ġtemp ting
Ġsouhait iez
Ġmois i
Ġamus ons
Ġinform Ã©s
Go ing
Ġfig ures
Ġsour irent
Ġreconn aissez
Ġvit rine
ject if
Ġmonth ly
Ġmil itaire
Ġir oned
Ġfire works
Ġtax e
Ġadm ission
Ġind iquer
Ġdispos al
Ġdispos iez
Ġdream er
Ġru ines
Ġhead lights
Ġconnaiss ions
attend ons
attend ra
ĠprÃ©v isions
Ġarriver ont
Ġterri bles
em men
Ġradi ateur
ett ra
Ġactu al
Ġmontre s
Ġcorre ctes
Ġste ep
Ġhabit ants
App les
Ġban quet
ĠnÃ©cess ite
ĠapprÃ©c ies
Ġesc ro
ĠP er
ĠP art
ĠP ole
ĠP rime
Ġthrough out
Ġbab ies
Ġsum mit
Ġfonction nait
Am use
Look ing
ĠG oogle
Ġbar re
ĠimmÃ©d iat
Ġtrip s
Ġtrip es
Ġpark s
Ġsun k
Ġdel uding
ĠsÃ©c he
Ġbout s
Ġtent es
Ġtent erai
Ã©m or
ĠD ad
ĠprÃ©c ise
ric ot
ric ien
Ġgre asy
Ġcoin cÃ©s
ĠrÃ¨ glement
Ġfier ce
Ġaband onn
ĠÃ©v itÃ©e
Ġsoi l
Ġmur m
ĠÃ©cout Ã©s
Ġz ones
ĠÃ©l o
Ġemploi e
Ġidiot es
Was n
ĠK en
ĠK ans
Ġautor iser
Ġform Ã©e
Ġmontrer as
Ġeng agÃ©e
Ġrespect ful
Ġparv Ã®nmes
ĠrÃ©al isa
Ġpaper work
Tr ave
ĠrÃ©pond ez
Ġsatisf y
Ġsatisf action
arrÃªter a
Ġaccomp agne
Ġappro chez
Ġappro chons
Ġjet ter
Ġfinir ai
ĠdÃ©f icit
Ġclim atique
Ġfus ible
ĠY okohama
ari ans
Ġchem ical
Ġess ouff
rest ation
ĠrÃªve ur
Ġrequ iert
Ġsouci eux
Ġprot Ã¨g
Ġrav ir
Ġrav issante
Ġpen alty
Ġsoup ir
Ġinqui Ã©tÃ©
expl ique
expl ication
Ġparap luies
Ġmatch s
Ġconstr uite
Ġrecher chÃ©
Ġumbre llas
Ġpou ffer
Ġcrit iquer
Ġrecogn ition
Ġintro vert
Ġnature ls
Ã©v al
Ġwarm ing
Ġconcern s
arriver ais
Ġdirect ly
Ġeffray er
ĠmÃ©dic aux
Ġentend ons
Ġpot entiel
Ġignor a
Ġignor ons
ĠprÃªter ais
ĠdÃ©but ants
ĠprÃ©fÃ©r Ã©es
Ġbelong ed
Ġpast Ã¨que
Ġsurviv al
alle l
Ġcess es
Ġcess iez
Ġext ended
Ġgri ff
Ġcur s
Ġcur few
Ġspecial ty
Ġobject ions
ĠYou Tube
inqui Ã©tude
Ġconst itution
Ġcondition ing
Cont ente
Cont entez
env oie
Ġcomb ination
Ġopportun itÃ©s
ĠÃ©cl ater
Ġvot ing
Ġweird est
ĠdÃ©range ment
ling e
Ġsauv Ã©es
Ġpersuad a
Ġmail box
Ġdispar ition
Ġinstru ments
Ġscient ific
Ġnav ires
Ġobs c
Ġobs Ã©dÃ©
Ġcalme ment
Ġev ident
Ġsupport ed
Ġprotect ing
Ã©qu ilibre
Ġfass ent
Ġelect rician
Ġbur y
Ġprov iennent
Ġadore r
Ġsoul ager
Ġcalm ly
Ġchar itÃ©
Ã©ch ange
Ġconduis es
Ġconduis ait
Bien venue
Ġed itor
Ġburn s
Ġrom ance
Ġcell ule
Ġcell ulaire
Ġdiscut Ã¢mes
Ġressent ent
Ġpont s
Ġquant ity
Ġpopular itÃ©
aÃ¯ ne
Ġfill ette
Ġinvest i
Ġexplan ations
Ġtoilet te
ĠpÃ©n ible
ĠpÃ©n urie
Ġnage aient
Ġfing ernails
Ġsept iÃ¨me
Ġstick s
Ġdoi ves
Ġmarch Ã¢mes
Ġador ons
Ġprincip ales
eng ed
Ġaccount s
Ġrencontre nt
Ġsweet heart
br ainer
Ã©ner ve
ĠagrÃ©able ment
Ġmalheure usement
Ġsubject s
Ġcab in
Ġconfection ner
Acc orde
Ġappoint ments
Austral ia
Ġband it
Ġband age
Ġanc est
Ġanc Ãªtre
ĠforcÃ© ment
ĠcrÃ© Ã©
ĠcrÃ© ative
ĠcrÃ© atif
Ġtir Ã©e
Ġcit rons
Ġeight y
Ġpeace fully
Ġtrah ira
Ġmas que
ĠÃ©ner g
ĠÃ©ner gie
ĠÃ©ner vÃ©e
Ġencour ir
Ġterrif iÃ©e
Ġterrif iant
Ġaccepter a
Fin ish
Ġram assa
Ġappa rently
ĠÃ©n ig
ĠprÃ©t endre
Ġgross ir
Ġloup er
inv ita
Ġannoy s
Ġfre el
Essay er
hor izon
See ing
Ġgam ins
Ġcontrib uÃ©
Ġcontrib uted
chant Ã©e
Ġcanad iennes
Ġdisg race
ĠdÃ©termin ation
ĠdÃ©pourv us
Ġcalcul er
ĠpÃ©ri l
Ġtext o
Ġtechn ical
Ġcow ards
Ġchick ens
Ġweak ness
Ġgold en
Ġcompt ons
Ġpsych ologue
merg Ã©e
Ġcache tte
ĠhÃ©r itÃ©
arriv ons
Ġescal ader
ĠprÃ©cip itÃ©
ĠprÃ©cip itation
ĠdÃ©ce mbre
ĠamÃ©ric ains
ĠÃ©conom ise
ĠprÃ©occup Ã©e
ĠprÃ©occup ation
Ġgrimp e
Jou e
Ver rouillez
Ġpoin tÃ©
Ġeconom ics
Ġtar tes
Ġfab ule
Ġprogress ivement
inf lu
Ġprior itÃ©
Ġprotest ataires
ĠcompÃ©t ences
ĠpÃ¢ lit
Ġbass iste
RÃ© veillez
esc ope
Ġdisag reed
Ġmett rai
Sp ain
Ġstress ant
Ġconcentr ation
Pl ut
Pl ants
Ġmass ac
Ġaccus ation
Ġcontrar ier
ĠreÃ§ us
ĠreÃ§ ue
Ġmondi al
Ġwhis key
Ġwhis pering
Rep ose
Ġfroi ds
ĠblÃ¢ me
Ġslight est
ĠcÃ¢ ble
Ġracc rochÃ©
Ġmoqu Ã©es
Ġmotiv ation
Say ing
Ġdesp ised
Ġintim itÃ©
rat ulations
Ġciv ile
ĠgÃª ne
ĠdÃ©ch ira
Ġimpress ions
Ġattach Ã©e
Ġallong Ã©e
Ġincl ined
Ġindust ri
Ġparcour u
Ġpleasant ly
Ġpal ais
Ġboi l
Ġforc ing
Ġdonn ai
Ã©lic opt
ĠtraÃ® ne
Ġinsul ting
Ġinsul ted
Ġmaster piece
off rir
Ġblag uer
Ġconfess Ã©
Ġrub b
Ġrub an
ĠmÃª lez
Ġestim ate
Ġcarp enter
ĠdÃ©couv rit
Ġcad ette
Ġrenv oyer
apporter ai
ĠÃ©cras er
ĠexcitÃ© es
Ġimprove ment
ĠbÃ©nÃ© v
Ġmeas ured
Ġmyst Ã¨res
Ġbruy ante
Ġscrew ed
Ġactiv itÃ©s
ĠmÃ©tÃ© or
Ġdece ive
Ġennem ies
Ġintrig uÃ©
ĠrÃ©aliser ont
Ġremercie ments
Ġlou a
ĠlÃ¢ ches
Ġobst ru
Ġcambri olÃ©
Ġbitter ly
ĠreprÃ©s ente
Ġamp oule
ĠdÃ©velopp Ã©
ĠdÃ©velopp ement
Ġsouri ait
Ġclimat isation
Ġnotebook s
Ġrabb its
Pard onne
Ġchim ie
Ġchim ique
ops ie
ĠcomprÃ©h ensible
ĠnÃ©glig ence
Con c
Con tre
Con cent
Find ing
Ġpersonn age
Ġaffair Ã©
ĠdÃ©cor Ã©
ĠdÃ©cor ation
Ġreviend riez
Ġreviend ras
Ġperman ente
ĠcollÃ¨ gues
Ġfreez es
Americ an
Ġadvert ised
ĠdÃ©cour agÃ©
Ġtric ot
ĠsÃ©v Ã¨rement
ĠÃ©qu il
ĠdÃ©goÃ»t ante
Ġlois irs
Ġbre f
Ġleak s
Ġastr ology
Ġprocess us
Ġregular ly
Ġindivid ual
Ġtransp irer
Ġcooper ative
Ġpredict able
Cond uire
Ġconce ited
Ġcoc aÃ¯ne
Ġterror ists
Ġincons ciente
Ġpath Ã©tique
Ġirrit ating
fum eur
ĠtÃ©l escope
ĠfÃ©lic itÃ©
ĠfÃ©lic iter
Ġcro Ã®t
ĠconsÃ©qu ence
Ġsauve t
Ġsauve gard
ĠfrÃ©quent Ã©
Ġenthousias me
ĠrafraÃ®ch ir
Ġcot ton
Ġchiff re
ĠonÃ© reuse
Ġstraw berries
Ġadress Ã©
Ġguarante ed
Ġtransm ettre
Ġqualif ications
Ġanticip ate
Ġanticip ated
Ġdomest ique
enseigne ment
Ġconfus ing
RÃ©flÃ©ch issez
Cor rigez
Hist ory
Util isez
Ġpourv u
Ġdirig Ã©e
Ġrecrut Ã©
Ġrecrut Ã©e
Ġenvoy Ã©s
Ġconsequ ence
Ġchoqu Ã©es
Ã©clair cir
Ġjun ior
Ġchuch ota
ĠMin ister
Ġaraig nÃ©e
ĠmÃ©mor isÃ©
excus a
Ġsnack s
Ġstrugg le
Ġult ime
Ġsla very
Ġloyal ty
Ġorch estra
Ġassur Ã©ment
Ġcreep s
Ġintimid ated
Ġuniform s
Ġsmooth ly
DÃ©g age
VÃ©rif ie
VÃ©rif iez
Ġsque eze
Ġtherm ometer
Ġunw illing
Ġplaign it
obt iens
Ġadminist ration
Ġcourtes y
Ġhandic apped
ĠÃ©vanou ie
Expl ain
Ġmemor ize
Ġnavig ateur
PrÃ©p arez
Ġacknow ledge
Or gan
ÃĶ te
Ġpir ates
Ġvari Ã©tÃ©
Ġvari ety
atter rissage
Ġsevere ly
Ġcog nÃ©
Ġaccout umÃ©
Ġmena Ã§a
Ġhumil iÃ©
Ġconscien cieux
PrÃ©v ois
ĠtÃ©moig ner
Ġpessim iste
Ġpessim istic
Ġiv rogne
Ġkar atÃ©
urt icaire
Ġfrot ta
Ġarna que
impl ique
impl iquer
Ġrecy cle
ĠCong ress
Ġassert ive
Ġ193 9
Ġ198 0
Ġvocab ulary
Ache ter
ĠDe cember
Ġnoy ade
Ġquere lle
Ġfrag ile
Ġpostu ler
Ġretent it
Ġconcur rence
Ġsatisfais ant
Ġbankrupt cy
Ġnavigu er
Car ry
Emm Ã¨ne
Ġsen ior
Ã©quip age
Ġaudi o
Ġstric tement
ĠdÃ©vis age
Ġexting uis
ĠrÃ©du ction
ĠembÃªt ant
Ġreluct ant
ApprÃ©c ies
ĠespÃ© rais
Ġmilli ards
PrÃ©f Ã©rez
Souv iens
ĠmÃ» res
Ġench antÃ©
Ġgrog gy
Ġentertain ing
Ġempre intes
Ġcatast rophe
ĠChrist ian
ĠdÃ©mod Ã©
Ġexhib ition
ĠexpÃ©riment Ã©
Ajoute z
Efforce z
Ye ah
Ġcing lÃ©
ĠtolÃ© rer
Ġcock ro
Ġbloss oms
Ġdeliber ately
ennuy ais
arranger ai
ĠmÃ©cont ent
Ġrassas iÃ©
Ġforbid den
Ġfulf ill
Ġrud eness
Ġanonym ous
Ġlip stick
Ġital ien
ĠMad rid
Ġchew ing
ĠrÃ©primand Ã©
Ġcatal ogue
Inv ite
ĠEx press
Ġrembour sement
ĠdÃ©libÃ©rÃ© ment
Aut ant
Cong ratulations
ĠpÃ¢t Ã©s
Ġadvers aire
Ġmalhonn Ãªte
Ġencoun ter
Ġconspir acy
ĠdÃ©tru ite
Ġdispl ayed
Ġassign ment
Ġrefres hing
Str ange
Ġirres istible
Ġdrogu Ã©e
ĠNouve lle
Ġblackmail ing
ĠdÃ©voi ler
Ġastronom y
ĠvÃ©tÃ©r inaire
Ġdismiss ed
ĠPrem ier
Ġdacty lo
Honn Ãªtement
Ġmout on
Ġnick name
Ġneve u
Ġinexcus able
ĠAt lant
Ġprophe cy
Ã©bri Ã©tÃ©
ĠmÃ©di oc
Ġpaliss ade
Respe ctez
Prep are
Habit uellement
Ġfundament al
Ġparalys Ã©
ĠprophÃ©t ie
Langu age
Bret agne
Buv ons
ĠThanks giving
Ġaqu arium
Ġsate ll
ennem is
Ġnost al
ĠbactÃ© ries
ĠvÃ©l os
Ġhars h
Ġbegg ar
Ġequip ment
Ġhelic opter
Ġtuber cul
Ġwithdra w
Ġrigu eur
Ġmakeu p
Ġarcha e
Ġdisorient ed
Ġgrump y
Ġclum sy
Ġbrows er
ĠAug ust
Ġswoll en
Ġcafeter ia
Ġmariju ana
Ġslipper y
Ã©licopt Ã¨re
3 2
3 9
7 6
A yant
A idons
B at
B ill
B ab
C ol
C ars
C ross
C uri
D i
D ess
D riv
D arwin
E v
E vent
E ducation
E dison
F i
F resh
G reat
G Ã©nÃ©r
I D
I m
I ce
J up
J ug
J ump
J oignez
L ay
L oin
M t
M ind
M ight
M anges
M ozart
M ilk
N et
N ight
N ager
N ature
N oue
P at
P oint
P oss
P ush
P ract
P ull
R ent
R ain
R apporte
R entrez
R inse
S l
S ait
S erait
S aviez
T re
T Ã©lÃ©
T ermin
V D
V ais
V ue
V ide
V iendra
a e
a es
a our
a quet
b it
b ble
b ation
b ies
b urgers
c ons
c Ã©es
c ra
d ict
d river
e c
f in
f ly
f ense
f ight
f aut
g ive
g ule
g ones
h ill
h one
h aut
h Ã©roÃ¯ne
i ais
i ac
k Ã©
k irts
l ose
l ies
l ins
l iger
m ic
m ers
m Ã©s
m ated
m oking
p ic
p her
p ret
r ue
r itÃ©
r ound
s eu
s pe
s Åĵur
s ommes
s moking
t he
t ens
t Ãªte
t ied
u ette
u che
u Ã©es
u lly
u ki
v a
w orthy
Ġ ;
Ġ Donne
Ġ These
Ġ Pourrais
Ġ Quoi
Ġt au
Ġt ails
Ġt amb
Ġt ailles
ou g
ou ci
ou les
re au
re four
Ġd orme
Ġd rif
Ġa ustral
Ġa Ã©roport
Ġa oÃ»t
Ġp ing
Ġp up
Ġp oire
Ġp anc
Ġp inc
Ġp Ã´le
Ġp Ã»mes
Ġp seu
Ġs an
Ġs ack
Ġs orrow
Ġs ett
on ie
on ition
is ou
is ode
en ex
en reg
es us
Ġl on
Ġc ust
Ġc oud
Ġc ages
Ġc ouvrir
in ette
in ux
in ond
in ting
Ġm Ã¨res
an bul
an moins
Ġn aught
Ġn inet
it ime
it aires
it iÃ©s
Ġw ais
Ġw oo
Ġw and
Ġw ag
Ġw itch
Ġw aking
Ġw anna
Ġf ad
Ġf ui
Ġf oin
Ġf ist
Ġf Ã©es
Ġf ried
Ġf red
Ġf Ã©ro
Ġf Ã»tes
qu ent
qu Ã©es
qu ence
as ters
Ġb ait
Ġb oir
Ġb aking
Ġb arman
Ġb isou
Ġy aour
ll en
ll ible
Ġv ag
Ġv ivement
Ġv icious
Ġv eter
at ri
Ġde lete
Ġh ai
Ġh ob
Ġh oche
Ġh ike
Ġto e
Ġto x
Ġto ll
ar nÃ©
ar les
ar abe
ar rassez
ve y
or che
or ateur
ent ir
ent endez
ent ral
un ique
un isson
Ġth read
Ġth esis
est ri
ing Ã©n
ĠÃ Ģ
Ġg our
Ġg av
Ġg aie
le enex
ed ient
et ic
Ġne ufs
Ġj urer
Ġj oign
ot ent
ot land
Ġun imp
Ġun friend
Ġun pre
Ġun important
Ġun acceptable
Ġo ath
Ġo lymp
Ġre ct
Ġre lease
Ġre vers
Ġre verrai
te lles
ri ch
ri Ã¨res
ri cs
ant o
Ġla mb
ow l
se e
Ġin oubl
Ġin exp
il Ã©e
il ateur
il itation
im ated
im als
im iter
Ġbe ars
Ġbe gging
Ġe mer
Ġtr ott
Ġen de
Ġen able
Ġen velopp
Ġen lever
Ġen chantÃ©e
ch onner
Ġr accord
Ġr amp
Ġr uisse
Ġr usses
Ġr Ã©cession
Ġr accompag
Ġhe al
Ġhe els
Ġest iv
Ġch or
Ġch ign
Ġch Åĵur
Ġch ains
Ġch ok
Ġch acune
Ġpr y
Ġpr int
au te
au cher
Ġan ch
Ã©t Ã©ri
ĠI RS
al tern
al istic
ke ep
me red
ic on
Ġte indre
Ġte asing
Ġli eux
Ġpl ug
ie lle
os ity
ir teen
ir osh
Ġpar as
Ġpar rot
Ġpar venons
Ġpar allel
Ġfor Ãªts
Ġdon ut
Ġdon ate
ons hu
gh anist
ren s
ren ched
ter m
Ġwe pt
ad oles
ad orent
and es
Ġpour rez
end ance
ag Ã©es
Ġje lly
am let
Ġnot ion
Ġwant ing
ĠÃ©t ang
ĠÃ©t anche
ĠÃ©t agÃ¨re
ĠÃ©t onnÃ©e
res tres
ne ath
ut en
ut ch
ut ral
Ġgo d
Ġall aient
Ġall Ã©g
op Ã©
Ġst ir
Ġst ap
que z
Ġso da
Ġtu Ã©e
Ġtu cked
ĠdÃ© pe
ore iller
Ġmon ot
Ġmon op
Ã¨re rai
Ġav aler
ui lle
ard ed
Ġsom bres
Ġcon ner
Ġcon vey
Ġdes per
ink able
Ġpro ves
Ġpro jection
ol ier
ol ence
Ġsh ore
Ġsh ru
Ġsh ots
Ġsh allow
Ġsh aves
ust rÃ©
Ġdans Ã¨rent
ois s
Ġfr ing
Ġfr antic
ort hern
ess on
ess ie
ess aies
ct or
ĠM ais
ĠM os
ĠM ats
Ġex ter
Ġex pelled
Ġab Ã®
Ġab user
Ġab usÃ©
Ġab aisser
ose xuel
ap y
ap ing
ap se
oin dre
Ġma re
Ġar tÃ©ri
ong ler
Ġsur m
rai l
el es
el Ã©
Ġta quin
Ã©s us
Ġal iens
Ġal phab
Ġal itÃ©e
Th ough
Th irteen
de mment
Ġver ra
Ġver rez
Ġver dict
ouv rait
Ġsa kÃ©
Ġcomp art
Ġcomp ortes
Ġcomp enser
imp rim
are ils
oy ota
Ġsi gh
Ġgr o
Ġgr aines
Ġgr ogn
Ġgr aves
Ġcr op
Ġcr Ã©e
Ġcr ank
Ġcr ude
Ġcr unch
Ġcr achÃ©
ĠrÃ© se
ff ed
cc ess
Ġout d
Ġout going
Ġapp rÃª
Ġapp areils
la Ã§ons
Ġup s
Ġup load
Ġup coming
ro be
ro ved
ro quet
uis irent
How ever
Ġneed le
Ġser vez
Ġser ves
Ġdem eur
La ke
Ġcl ichÃ©s
app ren
Ġag itÃ©
Ġag riculture
Ġag riculteur
Ġres ent
Ġres ul
Ġres ident
Ġsais it
pr op
ak er
ĠÃ© pe
ĠÃ© lever
ĠÃ© bou
Ġes cient
Ã§ us
Ġmar s
Ġmar ine
Ġmar ked
Ġton deuse
Ġent ert
Ġent endant
ass ait
ob jectif
Ġco che
aid ez
mb assy
Ġcar actÃ©
Ġcar refour
Ġtrain er
Ġimp lying
Ġby gones
Qu ite
iv able
iv alent
Ġbr us
Ġbr uised
Ġbr ushing
Ġbr uises
Ã©r ance
Ã©r ables
Ġad ores
Ġper iod
Ġper sever
Ġper roquet
arg ot
arg ument
Ġpass ions
Ġcont acted
Ġoff ense
Ġoff icially
Ġfin is
Ġdemand era
Ġpe ll
Ġpe ind
Ġpe cul
Ġpe aches
Ġpe eked
Ã©l Ã¨ves
Ã©l oigne
orm al
ond es
ond ra
lement s
onn et
Ġbl iz
Ġbl ames
Ġbl ushing
Ġwr apped
Ġdr awn
ab att
ab ility
Ġsp ade
Ġeat er
Ġmat el
Ġpos ture
ole on
Ġcomm Ã¨re
Ġcomm ettiez
Ġexp osed
Ġexp irÃ©
um ing
ĠB ir
ĠB raille
ĠB owl
Ġbu ff
Ġven aient
ĠF ire
ĠF lor
ĠF itz
ĠÃ©c ar
ĠÃ©c ureuil
ĠprÃ© mon
ĠprÃ© occuper
ĠprÃ© nomm
Ġmes se
Ġback st
Ġback gam
Ġpi quer
Ġsupp oser
Ġsupp lier
Ġbel ief
Ġenf erm
Ġret int
Ġret iring
Ġday dre
Ġint r
Ġint imes
Ġint rud
En levez
ra ordinaire
Ġdi ale
Ġdi agn
Ġdi riger
Ġdi agram
Ġgu er
Ġgu iche
Ġgu llible
Ġcons umption
ĠJ azz
Ġmin ces
Ã©ri d
Ġsou levÃ©e
Ġpu mp
Ġple ures
Ġpris ons
act ions
Ġjou a
Ġsm iles
Ġrec ess
Ġrec ettes
Ġrec ouvert
Ġrec ouvre
Ġrec ouverte
Ġplan cher
Ġplan ifiÃ©
vers Ã©e
ĠfranÃ§ais es
Ġtw ent
Ġten ant
Ġten ues
Ġprom pt
ĠA ir
Ġprop oses
Ġsec ure
Ġrest r
Ġrest ai
Ġrest ing
Ġrest art
Ġrest less
Ġac ide
Ġhard ships
Ġrep osez
Ã©lÃ© phant
Ġpay erai
Ġpay check
Ġdown loaded
Ġfl unk
Ġfl otte
Ġfl ipp
iqu itÃ©s
Ġinv olve
Ġfu tures
Ġsimp ler
anc ienne
Un til
Ġregard Ã©e
Ġregard Ã©s
asse mble
get table
Ġsort iez
Ġgl imp
Ġgl aces
Ġgl uten
Ġache tons
og es
Ġdisc r
Ġsoir Ã©es
ĠdÃ©t en
ĠdÃ©t iens
Ġcompren ais
Ġcompren ait
Ġcompren ne
Ġlaiss ant
ret our
Ġconf is
Ġunderstand able
ex Ã©c
ex ercer
Ġsc ru
Ġsc ares
Ġsc reen
Ġrem ont
Ġrem ettez
Ġrem uÃ©
ĠC es
ĠC onstitution
ĠC IA
Ġsw arm
ĠdÃ» mes
Ġmeet s
Ġavant ages
Ġmor on
oc ution
Ġhur le
Ġend im
Ġend urer
Ġend ings
Ġdrink able
Ġoccup erai
ĠT ake
Ġaim ais
Ġaim era
Ġide al
Ġrais in
ĠÃ©tud iez
ĠÃ©tud ia
ĠS al
ĠS ov
ĠS mith
ĠS uper
Ġexpl osÃ©
Ġexpl iquerai
Ġexpl oded
Ġpres cription
Ġaut opsie
ail and
Ġinc itÃ©
Ġcat tle
Ã©n ique
Ã©n ager
Ġtravaill iez
Ġtravaill aient
Ġtravaill Ã¨rent
ĠdÃ©p endant
Ġ1 30
Ġob edient
Ġref ais
Ġref uses
Ġref erais
Ġbo ats
int rig
rÃ©c i
Ġpoint less
Ġshow ers
Ġcham brÃ©e
Ġcert itude
Ġmatin al
Ġcor vÃ©es
ious ly
Ġcame l
Ġpat io
Re cule
Ġcompl iments
Ġhab itÃ©
Ġhab illÃ©es
Ġbou quin
Ġaff irm
Ġarrive rez
Ġopen er
Ġvi br
Ġtrouver aient
Ġfound ation
Ġprem iÃ¨res
Ġprem onition
ĠprÃ©f Ã¨rent
Ġcou chÃ©e
Ġgard ener
ĠprÃ©s ume
ĠrÃ©s ist
ĠrÃ©s umÃ©
ĠrÃ©s idence
ĠrÃ©s istance
St ir
Ġpo Ã©sie
Ġaider ais
Ġtra Ã®tres
Ġins ouci
uter s
Ġcap tes
Ġcap tez
Ġel b
Ġfatigu er
ĠpiÃ¨ ges
ell er
ell ing
Ġsol ar
Ġsol ving
Ġelse where
ĠintÃ© gr
Ġord onnÃ©e
Ġeas iest
Ġinf Ã©ri
Ġtard ive
Ġrev anche
Ġconv iennent
Ġconv icted
Ġsecret ive
Ġrun g
Ġdorm aient
ip se
Ġcommenc ions
Ġvisit Ã©e
Ġfi ables
Ġsho el
tr ois
per anto
ĠintÃ©ress er
Ġmag ique
Ġvoud ras
Ġtri che
Ġtri ath
Ġcaf ard
Ġcaf Ã©tÃ©ri
Ġgen cives
Be ethoven
ĠÃ©p idÃ©mie
util isation
Au tumn
Ġsign atures
Ġappel ait
Ġappel Ã¨rent
Ġsal ir
Ġsal uÃ©
Ġmari ages
Ġment on
Ġwind s
Ġhun ter
Ġsau t
Ġsau ras
Ġ2 8
Ġ2 50
Ġchant iez
hab ilitation
Ġretour nÃ©e
ok a
ĠCh ib
ĠCh annel
Ġtour nait
Ġdir t
Ġinter mit
Ġinter pret
Ġenjoy able
ĠdÃ©b it
Ġrel ay
Ġrel ieve
Ġentre vue
era mental
Ġcri es
Ġbit ing
Ch arge
Ch rist
Ch ina
Ġfavor is
Ġfavor able
inc roy
omm age
cin quante
emp ire
Ġap ais
Ġkill er
Ġcop iÃ©
Ġcop ied
Ġris en
Ġport ant
we ar
Ġboth ers
Ġhor n
Ġtrust worthy
Peu vent
Ġsl ope
Ã©p Ã©e
Ã©p uis
Ã©p aiss
ĠÃ©tudi ait
Ġtrou pe
Ġtrou bling
ĠprÃ©sent ent
ĠprÃ©sent Ã©e
Ġsuff ers
Ġsuff ire
Ġbeh alf
Ġbri c
Ġbri ck
Ġbag arre
ger ald
Ġty rann
uv ra
Ġhigh way
Ġtemp eramental
Ġconfi ants
Ġutil isez
Ġstand ard
Ġsouhait s
Ġsouhait ent
Ġreste rez
Ġinform Ã©e
ĠdÃ©m arre
Ġstupid itÃ©
Ġfig urer
Ġmen euse
Ġpubl iÃ©e
Ġfire man
Ġfire place
Ġart istes
Ġhair d
ĠÃ©crit s
Ġchang ez
Ġind ig
Ġind iqu
Ġunder go
Ġunder neath
Ġunder wear
Ġchemin s
ĠcoÃ» ts
Ġru ins
Ġadd ing
Ġsurv iendrait
attend ent
attend aient
ĠprÃ©v ue
Ġtrans pa
Ġdiscuss ions
Ġfell er
Ġradi os
Ġcontinu Ã¨rent
Ġfon dre
Ġdess inÃ©
Ġparti rent
Ġmontre nt
Regard er
Ġfou lÃ©
Ġfou illÃ©
Ġguit ares
Ġran ch
Ġclean er
ĠL inux
Ġste er
Ġste ward
Ġste ering
Ġmour rais
Ġmour ra
Ġmour rons
uy ama
Ġjoin s
Ġjoin drai
Ġaccept Ã©e
Ġhabit uel
App renez
Ġpatient es
ĠgÃ¢ chons
Ġarm Ã©s
Ġarm Ã©es
Ġarm chair
Ġval ide
Ġtown s
Ġsembl aient
Ġsuper v
ĠapprÃ©c iÃ©e
ial es
Ġdist rict
ĠE l
ĠE ur
ĠE arth
ĠE mbassy
Ġthir ties
ĠP as
Ġsum o
ĠÃ©ch ange
Am usez
Ġquick er
ĠG P
ĠG en
Ġessayer ons
Ġchanger ais
Ġchaud es
Ġpun ch
Ġpun ir
Ġsub til
Ġsub mit
Ġbout ons
Ġtent ez
Ġrac iale
Ġtouch a
Ġattrap Ã©e
ĠD J
ĠD an
ĠD ans
ĠD iable
ĠD allas
ĠD VD
ĠprÃ©c autions
ĠH ar
ĠH oll
ĠH onshu
Ġsuffis ants
Ġsuffis ante
Ġenseign antes
Ġgagner ai
amed ics
occup es
inst ru
Ġchois issez
Ġaband onnes
Ġswe ets
Ġswe ating
ĠÃ©v Ã¨ne
ĠÃ©cout es
ĠÃ©cout ait
ĠÃ©cout iez
Ex erc
Ã©tr angers
Ġz ipper
Ġfish y
Ġsignif ier
Ġreport ed
Ġpress ent
Ġpress ing
Ġhit ch
Ġenn uie
Ġenn uyez
Ġtest ing
Ġhour ly
Ã©tud ies
ĠK h
ĠK leenex
ĠK eller
Ġill ustr
Ġform ons
ĠrÃ©flÃ©ch irai
ĠrÃ©flÃ©ch isse
rÃ©s ario
Ġhotel s
Ton ight
Ġnecess ity
ush u
Ġparv iendra
Ġneige ait
ĠnÃ© anmoins
ĠrÃ©uss isse
Tr Ã¨s
Tr ouver
Ġmill ier
ĠprÃªte z
Ġappro cher
Ġappro bation
iter ate
Ġorgan ic
Ġremar ried
ned y
iver nes
ĠPar c
ĠrÃ©c ent
ĠrÃ©c rimin
aper cevoir
Ġmang ions
Ġdonne rez
Ġflo at
od ile
od ka
Ġpan ique
Ġpossib ilities
emb auche
Ġsouff la
Ġsouff rait
Ġsouff lÃ©
Ġsouff rance
Ġreconnaiss ance
Ġinj ustice
Ġpriv Ã©s
Ġjardin ier
ĠbÃ¢t i
Ġrequ in
Ġpost ed
ĠmÃ©r iter
Ġcoll ab
Ġcoll ided
Ġcoll apse
Ġpen cher
amp oule
ĠgÃ©nÃ©r ation
ĠgÃ©nÃ©r ations
Ġfond it
Ġgarden ing
Ġtreat y
Ġappe al
Ġappe aled
Ġdormi rent
Ġremp lit
ĠdÃ©g ager
Ġhabitu er
Ãīc outes
Ġdent aire
An imals
Ġpur it
ĠÃ©trang lÃ©
Ġpou mon
Ġappar ten
Ġsouc ieuse
Me at
Stay ing
Beau tiful
Ġball et
Ġball oon
ĠhÃ´ tesse
Ġendorm ies
Ġpoor ly
ber ge
Ġsad d
Ġsmart est
Ġnature lles
Ã©v ier
Ã©v olution
Ġappl iquÃ©
Ġappl ications
Ġchair person
Ġside walk
Ġnormal es
Ġbal ayÃ©
Ġsoci aux
Ġsoci ale
Ġsoci Ã©tÃ©s
Ġship s
Ġdirect rice
Br osse
Ġignor iez
Ãªt ons
Ġimpro v
Ġrh umes
Ġgolf er
Ġmign onnes
Ġni Ã¨ce
Ġpron ounced
olÃ© on
Ġsurviv or
Ġcess ent
Ġsn ob
Ġplac ed
Ġconsid Ã¨res
Ġconsid Ã©rons
Ġtend ue
Ġdut ies
Comp orte
Comp uters
ĠdÃ©cl arer
ĠdÃ©cl ina
Ġvend ing
Ġpai era
Ġmou iller
Cont actez
Ġach ats
Ġach Ã¨ter
env oya
Ġcomb ats
Ġconvers er
ĠtÃ©lÃ©phon es
opp ose
Ġvole use
Ġproc ur
Ġshop s
Ġextr aire
Ġemploy ed
Ġemploy ment
Ġ3 1
ĠÃ©te ignez
Ġvent ilateur
Ġsurp ass
Ġstuff ed
Ġennuy er
ĠW est
Ġnav y
Ġcho osing
adm et
adm ir
adm ettra
Ġobs ession
Ġobs erver
Ġlongue ment
Ġsusp icieux
Ġprotect ed
gy pt
Ġcroy ons
Ġbur den
For give
Quoi qu
Ġsoul ign
Ġsoul iers
Ġchar p
Ġveget arians
Ġgouver neur
ash ion
Ġmentir ait
inter pr
Ġly rics
Ġjud ged
Ġjud icieux
Ġlev ait
Ġdiscut Ã¨rent
Ġrefus ent
Ġplant Ã©e
Ġplant Ã©s
Ġgovern or
Ġinstant anÃ©ment
ĠsiÃ¨ ges
Ġaccord er
Cl ick
Cl asses
aÃ¯ lande
Ġdef endant
Ġrepos Ã©e
Ġrepos Ã©s
Ġflu ores
Ġcre mated
ĠprÃ©sident e
Ġdraw ers
ĠJack sons
Ġgener ation
Ġgener ations
Ġdure ment
acter ia
br ush
Ġexerc ices
Ġpract iced
Ġpract ically
Ġant ique
Ã©tudier ai
met ic
Ġpeint s
ĠÃ©ve illÃ©es
Ġdrop s
Ġvir tu
Ġvir Ã©es
Ġvir gule
ĠdÃ©Ã§ ois
ĠrÃ©sol us
ĠrÃ©sol ut
Ġcit ad
Ġtight en
Ġmas k
Ġremettre z
Ġflat tÃ©
Fin is
Ġram asser
rog Ã¨ne
ĠdÃ©brou ille
Ġcandid ates
Ġcompos Ã©e
inv itÃ©s
Ġrentre ra
accomp agn
Ġmord s
Ġmord ue
Ġthreat en
Ã©chapp a
Ã©te ign
Ã©te igne
ĠÃ©chapp Ã©s
Ġparticip ants
Fe ed
Ġpsy ched
Ġvaleur s
Ġexha usting
Ġpil ule
Ġcontrib ution
Ġautom atically
ĠdÃ©termin Ã©e
eff ondra
Ġtechn iques
Ġcollection ne
Ġtooth brush
Ġrepe ating
Ġcompt ent
Ġcompt ais
Ġcompt eur
ĠentraÃ® ne
Ġdepend ing
Ġpsych ologist
Ġbatt ons
Ġbatt eur
Ġsharp ening
Ġfume z
Ġaj out
Ġaj uster
Ġcache z
endroit s
Ġbright ened
ĠcrÃ©d ible
Ġresign ing
ĠÃ©conom ies
Ġgrimp a
Ġcouver ts
Ġtyp ique
Ġoppos Ã©e
Ġoppos Ã©s
Ġnap kins
Ġhesit ation
ĠdÃ©tr uisit
Ġ16 50
Ġpoison ing
Ġing rÃ©d
inf lation
Ġhom osexuel
Ġham mered
ĠcoÃ»ter ait
Ġprotest Ã©
assi eds
espÃ© rez
Ġliqu id
Ġdisting ue
appro cha
Ġfonctionner ait
Ġviolon iste
Ġponctu els
ores ts
Enf ilez
ĠdÃ©sesp Ã©rÃ©s
Ġmett ons
Ġmett iez
intÃ©ress er
intÃ©ress ent
intÃ©ress erait
Che ese
Ġille g
entraÃ® ner
Ġgaz on
Ġequ ally
Ġexemp les
Ġvaisse au
Ġconsul ting
Ġconsul ted
Ġannon c
Ġannon Ã§a
Ġappear ances
Ġconcentr ated
Sm all
Ġhous ing
ĠdÃ©v ou
Ġsurve ille
Ġbutter fly
Ġaccro cher
Ġtourne vis
Ġfan fare
Ġgrass ouill
Ġappropri Ã©s
Ġcoop Ã©ratif
Ġpantal ons
Ã©conom ise
Ġdistr action
ĠapprÃ©cier a
Good bye
Ġ18 0
Ġ18 14
Rep osons
Ġpous sez
Ġgal ax
ĠrÃ©t rÃ©ci
Ġperform ed
ĠTh aÃ¯lande
Ġaill ent
Ġcontacter ai
ĠnÃ©gl igÃ©
Ġenqu Ãªter
Ġallum Ã©s
ĠdÃ©ch arg
Ġcheese burgers
autor oute
Ġpal m
ĠcÃ©rÃ© ales
Ġmel ody
Ġsocial es
Ġfrustr ant
Ġfrustr ation
Ġcrain tif
Desc endons
ĠÃ©lÃ©g antes
off enser
Ġmons tre
Ġnons top
Ġvan ille
Ġvan ished
Ġvan illa
Ġunus ually
Ġstun g
Ġrenvers er
Ġretire ment
ĠempÃª chÃ©s
Ġsignific ative
Ġremarqu ables
interromp it
Ġtiroir s
Ġdetermin ation
aÃ® nÃ©
Ġcrack ed
Ġcrack ers
Ġphys ics
Ġdisput Ã©
Ġpatr ol
Ġrub ber
ĠmÃ©th odes
Ġretrouver ai
Ġfashion ed
ĠmÃª le
Ġvague ment
Ġamount s
Ġconfond s
ĠUS B
School s
Ġdor Ã©navant
Ġcad et
Ġcoiff er
Ġhost age
Ġgel Ã©e
Ġinhabit uelle
Ġdepart ed
Ġassum ing
Ġabsor be
Ġabsor bÃ©
Ġfinanci ers
Ġfalse ly
Mar cher
Ġscrew driver
Ġmodern es
Ġchallen ges
Ġinde ed
Ġexag Ã©rÃ©
Ġintrig uing
Ġmeth ods
Ġboard ing
Ġreprod uisait
Ġdot Ã©s
Ġattrib uÃ©
Ġobst acle
Ġcambri olÃ©e
ĠnÃ©goci ation
ĠiP hone
Ġamp ut
Ġmall ette
Ġnet toi
Ġheur ter
oiseau x
ĠMex ican
obÃ© ir
Ġcourri els
ĠmÃ©pr iser
Ġpros p
Ġpros per
Ġapprend rai
Ġvieill it
Ġgarant i
ĠÃ©parg nÃ©
Ġsacrif ice
Ġdisappoint ment
ĠingÃ©n ieux
ĠingÃ©n ieuse
ĠnÃ©glig ente
Ġpor tu
ĠrÃ©par ation
ĠrÃ©par ations
apprÃ©ci ais
apprÃ©ci ait
Ġtrembl ait
Ġcuill Ã¨res
ĠÃ©clair ci
Ġbol ted
Ġsaou le
Ġcontag ieux
Ġdiscour age
Ġreviend rais
Ġinterpr Ã©t
ĠNag ano
Ġfreez e
Ġfreez er
Ġnegoti ation
Ġpus hing
Ġcompar aison
ĠdÃ©cour age
Ġobt int
Ġdistrait e
Ġign orent
Ġsin istre
Ġho quet
Ã©cout ent
ĠgrossiÃ¨re tÃ©
Ġhypoth esis
Ġfabri quÃ©
Ġfabri quer
ĠvÃ©gÃ©tar iens
Ad v
Ġur ge
Ġbre ast
Ġbre telles
organ iser
organ ized
Ġtrous se
Ġastr on
Ġsonner ie
Ġroll er
ĠSe c
Ġtransp ire
ĠGr and
ĠreprÃ©sent ent
ĠreprÃ©sent ant
ĠreprÃ©sent ation
Rac ontez
Ġtig res
ĠhÃ©s itÃ©
Ġcoc aine
ĠBe ethoven
ĠlittÃ© ralement
ĠOlymp ic
Ġwest ern
Ġfro ze
Ġabat tre
Ġmanip uler
Ġcontro versi
Ġ199 5
escal ade
Ġenthousias te
Ġperplex es
Ġmouve ments
Ġstraw berry
ĠMar ine
Ġrenomm Ã©
ĠdÃ©tendu es
ext irper
ext raordinaire
Ġdecor ating
Ġmotion ed
Ġtransm ission
Ġqualif iÃ©e
Ġhypnot ized
Ġcivil isation
Pr ot
Ġsarc astique
Ġbaig ne
igr ated
Ġimpol ie
ĠAr abic
Ġassoci ation
Ġassoci ate
ĠrÃ©serv ations
ĠÃ©pic Ã©
Ġsyn d
Ġapparent Ã©s
Ġbenef its
Ġcraign ait
Ġot age
ĠcÃ©lÃ© b
ĠcÃ©lÃ© br
ĠcÃ©lÃ© brer
Ġfol k
Ġfol ks
estim ez
Ġunre alistic
Ġpourv ue
Ġsting y
Ġgrond Ã©
abe ille
Ġdirig es
Rempl is
Ġcoul isses
Ġeffront Ã©
Ġeffront Ã©e
Ġtourist ique
DÃ©b arrassez
Sort ir
Voy agez
bu ild
Ġdict ateur
Ġdict ator
Ġscept iques
Ġvul gar
ĠinÃ©v itables
Ġcarb urant
ĠrÃ©pÃ©t erai
Ġchampion nat
ĠprÃ©cipit Ã¨rent
Ġmaigri chon
Ġurb aine
Ġcongratul ate
Bet ween
avert ir
rÃ©t ion
Ġult imate
Ġmamm al
opt ique
Ġattaqu a
Ġbush es
Ġbuv ais
Ġbuv ait
Ġbabys it
Ġ194 5
Ġenvironment al
Ġadopt Ã¨rent
Ġencourage ments
Talk ing
ĠAs ie
Ġnie ce
Ġber ce
Ġchass eur
Ġplaign ait
Ġalphabet ical
Ġbrag ging
Ġbrag uette
Ġadminist r
Ġnourr issent
Ġnourr issant
Expl iquez
Ġremerci a
ĠbÃ©nÃ©f ique
PrÃªte z
Sau te
Ġtristes se
Ġparaiss ent
Compar Ã©
Ġblo quÃ©e
ĠguÃ©ri e
ĠstupÃ© f
Ġoppon ents
Ġ195 4
Ġlabor atoire
Ġcraig nent
Ġcraig nez
Ġmalchance use
Ple uvra
ju ku
ĠpÃª chÃ©
ĠpÃª ches
anim al
Ġmere ly
Ġaudit orium
amus ant
Ġload s
insul te
Ind ustrial
ĠprÃ©cÃ©d ente
ĠrÃ©clam ation
Ġhyd rogen
Ġsurveill erai
Ġpoign ardÃ©
Grimp ez
Ġom is
Ġyog urt
Ġreve aled
ĠdÃ©verrou illÃ©e
Ġexempl aires
Ġcomport ent
Ġcontrad ic
ĠrelÃ¢ chÃ©
ĠirrÃ© aliste
Ġhypoc rite
Ġautomatique ment
Gl ad
Nap oleon
Nett oyez
Nett oyons
back s
Ġsen ator
audit orium
Ġexting uish
Ġarra cher
Ġartif icial
laÃ§a ble
Ġimprud ent
ĠdÃ©sobÃ© i
Ġsculp ture
ĠCel sius
Ġenvah i
Ġcorp ore
ĠEve rest
Ġmilli ard
Ġ196 0
ĠEs peranto
Ġplong Ã©
Ġoutrage ous
Ġagac Ã©
Ġcoqu illages
Ġdiab Ã©tique
excell entes
ĠdÃ©pou illÃ©
Ġphotog enic
Ġphotog Ã©nique
Ġapplic ants
Ġbalc on
Ġbalc ony
Ġchampions hip
Ġextravert i
Ġcycl ing
Ġadvertise ment
ĠÃ©quitable ment
Ġparagrap h
Ġparagrap he
Ach Ã¨te
Break fast
Norm ally
Pol ice
Ġut most
Ġparad is
ĠÃ©tabl ir
Ġridd le
prÃ©h ensible
Ġbrut alement
ĠÃ©coul Ã©s
Ġawait s
Ġremet tras
ĠdÃ©roul Ã©es
ĠpossÃ¨ dent
Ġrigol o
Reconn aissez
hyd rogÃ¨ne
Ġaiguis Ã©
ĠsÃ©duis ante
Friend ship
Hors es
Ġpand as
Ġloo ph
Ġcier ges
ĠvÅĵ ux
Ġabatt us
Ġsurs auter
Ġdisl oyal
Ġcompat ible
Ġcroc odile
ĠApp le
exam ine
ĠSM S
Ġstrang est
ĠÃ©chant illon
Ġcentim Ã¨tres
ĠrÃ©flÃ©chiss ais
Trad uis
Ġsymphon ies
Ġlicenc ier
Ġunfor gettable
Ġenthus iastic
Accep tez
fr Ã¨re
Ġloy autÃ©
Ġcaill ou
Ġbac on
ĠbÃªt ise
Ġhic c
Ġestabl ished
ĠdÃ©rais onnable
Ġprol ong
Ġmaqu illage
Ġdisrespect ful
Ġcompan ies
Ġofficie llement
Ġsoum ettre
Ġincur able
Ġassid ument
Ġassoup i
Ġordonn ance
Ġcolon ies
ĠOVN I
Ġinterd ite
Ġhabitue rez
embar quement
Ġdissu adÃ©
immis cer
Ġharce ler
Ġmammif Ã¨re
Ġhibern ate
ĠsÃ©n ateur
Ġnave tte
Ġnum Ã©rique
Ġseas ide
Ġkoal a
Ġasi atiques
Ġaspect s
ĠarchÃ© ologue
appauv r
Ġchevel ure
Ġnoctur ne
Ġbrav oure
ĠprÃ©tex tes
Ġempris onnÃ©
exemp le
Ġinsens itive
empÃª cha
Ġfonde ment
ĠsÃ©cur isÃ©
Ġmedit ating
ĠrÃ©con fort
ĠdÃ©goÃ» tÃ©
Ġacquaint ance
archite cte
effray er
Ġ168 3
ĠfainÃ© ante
ĠlÃ¨ver ai
Ġprospect us
Ġmaigrich onne
Ġtribun al
Lo osen
Ġtang o
Ġtipt oed
Ġtsun ami
Ġcob ra
ĠmÃ©lo die
Ġvant er
Ġvaud rait
Ġtoss ed
Ġbeign et
Ġhale ine
ĠIst anbul
ĠdÃ©ro ber
Ġaga Ã§ant
Ġpercut Ã©
ĠprÃ©al able
ĠdÃ©cla res
ĠAng eles
Strict ly
ĠPart y
ĠKans ai
Trave ling
Ġessouff lÃ©
ĠprotÃ¨g erai
Ġfreel ance
Ġfabule ux
influ ence
Plut Ã´t
ĠbÃ©nÃ©v oles
ĠmÃ©tÃ©or ologiques
ĠÃ©quil ib
Ġextinguis hed
Driv ing
Event ually
GÃ©nÃ©r alement
Im ag
Jup iter
Net toie
Pract ice
Tre ize
Ġtamb our
Ġdrif ted
Ġaustral ienne
Ġcust ody
Ġnaught y
Ġwais t
Ġunimp ressed
Ġunfriend ly
Ġrect angle
Ġruisse au
Ġchok ed
altern ative
irosh ima
ghanist an
ĠMats uyama
ĠartÃ©ri elle
Ġalphab Ã©tique
imprim ante
Ġresident ial
Ġentert ained
Ġpecul iar
Ġbliz zard
ĠFitz gerald
ĠprÃ©mon ition
Ġbackgam mon
Ġguiche t
Ġtriath lon
ĠcafÃ©tÃ©ri a
ĠChib a
Exerc ise
ĠrÃ©crimin ations
Ġgalax ies
Ġcontroversi al
1 1
1 2
A st
B es
B ite
B elle
B rit
B urn
B read
B ox
B ouge
B ooks
C O
C ir
D ue
D ig
D ry
E S
E c
E l
E instein
F am
F ort
F arm
F ishing
G ot
G reen
H it
I r
K obe
L ou
L arge
L ib
L unch
M ed
M ad
M em
M oins
M onsieur
N our
O w
P ress
P orte
P riÃ¨re
P ray
P aper
P ortes
P ayez
P rop
P rob
R am
R ice
R oses
R ules
R ouge
R amÃ¨ne
S now
S old
S mell
S entez
T y
T ire
V ont
V ite
V endez
V iendras
W ood
W ind
W ine
W rit
W orld
Z Ã©l
a ou
a rent
b at
b ain
b ol
b ois
b eau
c op
c rap
c ues
c umstances
d h
d ames
d ges
d ney
e a
e al
e cc
e ath
e Ã»t
f ace
f iction
f Ã©rer
f ashion
f orests
g ot
g ation
g led
g gles
h om
h our
h Ã©e
h ine
h ouse
h ame
h umÃ©
i ante
i ace
i antes
i olence
j up
k ind
l t
l en
l ate
l ord
l um
l aient
l ock
l anche
l ined
m y
m ets
m ark
m otion
n i
n on
n te
n ie
n ics
n ative
n ox
n umb
o lle
o ly
o quÃ©
o quer
o ffic
o ctobre
p ri
p ower
q Ã»
r oup
r ast
r ince
r ouvons
r actÃ©
s u
s es
s le
s ais
t an
t ail
u aire
u ble
u able
u leur
u Ã©tude
v Ã©s
v ation
w illed
x e
x te
z a
Ġ -
Ġ Q
Ġ Qui
Ġ Your
Ġ icy
Ġ Get
Ġt i
Ġt ag
Ġt ress
Ġt art
Ġt act
Ġt ents
Ġt ins
Ġt irez
ou rez
ou illa
re rai
re cted
re uves
Ġd il
Ġd ite
Ġd amp
Ġd alle
Ġd outÃ©
Ġd well
Ġd renched
Ġa de
Ġa Ã©ri
Ġa vers
Ġa ides
Ġp ine
Ġp endre
Ġp iste
Ġp Ã©p
Ġp aille
Ġs ow
Ġs che
Ġs anc
Ġs iennes
Ġs aign
Ġs ighed
on i
on z
is mes
is lation
en fer
en lever
en rich
Ġl ance
Ġl anc
Ġl oint
Ġl enses
Ġl ined
Ġl assÃ©
Ġl oue
er ate
Ġc ant
Ġc im
Ġc uter
Ġc Ã¨de
in z
in at
in ese
in ating
in verse
in attendu
Ġm ut
Ġm ice
Ġm ors
Ġm ole
Ġm ules
Ġm Ã¨nent
Ã© par
Ã© vÃ©
Ã© rente
Ã© rences
an ity
Ġn ou
Ġn id
Ġn oun
Ġn urs
Ġn oya
Ġn ouilles
Ġn appe
Ġn orthern
it is
it ches
it ched
it tery
Ġw ard
Ġw iz
Ġw aff
Ġw omb
Ġw agon
Ġw aving
om ot
Ġf end
Ġf ess
Ġf are
Ġf ies
Ġf rench
Ġf ret
Ġf rire
Ġf lame
Ġf Ã¢che
Ġf Ãªter
Ġf ancy
Ġf Ã©min
qu ettes
as que
Ġb eu
Ġb Ã©t
Ġb rais
Ġb arn
Ġb oud
Ġb asses
Ġb reed
Ġb rew
Ġb isse
Ġb inoc
Ġy ards
Ġv ill
Ġv ents
Ġv igu
Ġv apes
Ġv Ã©rid
Ġv odka
at en
Ġde le
Ġde ment
Ġde fect
Ġde odorant
Ġh ood
Ġh Ã©licoptÃ¨re
ar ra
ar aig
ar restation
Ġqu Ãªte
or ch
or ize
ent ier
un iens
un ts
est Ã©r
ing le
Ġg Ã©r
Ġg um
Ġg omme
Ġg aller
Ġg ains
Ġg oose
Ġg Ã©ant
Ġg affe
Ġg onz
le p
le tes
et r
et ers
et able
us et
us ons
Ġne ur
eu bles
Ġj au
Ġj aw
Ġj oigne
Ġj oignez
Ġj ittery
ot ter
ot ez
Ġun he
Ġun ion
Ġun th
Ġo ct
Ġre tre
Ġre ass
Ġre prit
Ġre bo
Ġre venues
Ġre levant
Ġme xic
Ġle ctu
Ġle af
Ġle mons
Ġla g
Ġla ment
Ġsu ive
ow der
se ille
Ġin h
Ġin ade
il Ã¨ge
id itÃ©
im bÃ©cile
Ġbe lly
Ġbe ards
Ġha uss
Ġha utes
Ġis olÃ©
Ġis olÃ©e
Ġe ag
Ġe aux
Ġe lab
Ġe rected
Ġtr Ã©b
Ġtr aps
Ġtr Ã´ne
Ã¨ tent
Ġen lac
Ġen leva
Ġdo se
Ġdo od
ch is
ch in
ch ers
ch ooled
Ġr op
Ġr ust
Ġr use
Ġr ange
Ġr usÃ©
Ġr aking
Ġr ayons
Ġr accompagne
Ġr adeau
out umer
Ġch av
Ġch ut
Ġch Ã©r
Ġch Ã¢t
Ġpr une
Ġpr Ã©l
Ġpr atiques
au que
au paravant
au ront
Ġan throp
al cul
ld y
ke l
ke red
ic ite
ic ide
ic ates
ain st
Ġse ed
Ġse aux
Ġpl um
Ġpl aie
Ġpl iers
Ġpl aise
Ġpl aies
os y
os is
os ent
os ter
os itÃ©
os hed
tu ra
ir as
ir me
Ġpar ade
Ġpar dessus
Ġcom ed
Ġcom ble
oo p
Ġdon s
Ġdon ations
tre nte
He av
He len
ren e
ren ons
ren du
Ġwe lf
Ġwe ighed
ad ing
ad eur
ad opter
and er
and est
Ġpour ront
aire r
aire ment
av ors
av ouer
ag ation
ag ace
ill ait
ill ers
ont ractÃ©
am aged
am Ã¨nerai
Ġnot ified
ĠÃ©t ern
ĠÃ©t ourdi
ĠÃ©t ernitÃ©
ac Ã©
res sez
ut Ã©e
Ġgo ggles
Ġall ure
op ulation
Ġst ake
Ġst acked
Ġst itches
Ġcan o
Ġcan ular
all a
all ong
all ions
all ows
Ġso bb
ue lles
Ġtu b
Ġtu bes
ĠdÃ© fe
ĠdÃ© gr
ĠdÃ© amb
ĠdÃ© odorant
ĠdÃ© chaÃ®
Ġmon itor
Ġav are
Ġav ouer
Ġav entures
ard onnable
Ġcon joint
ig uit
ig rÃ©
Ġpro se
ol ks
Ġsh ad
Ġsh ine
Ġsh own
Ġsh ares
Ġsh adow
ens Ã©s
Ġdans es
Ġfr iss
Ġfr ug
Ġfr aise
Ġfr oiss
ort al
ess ieurs
ct a
ez ed
ĠM y
ĠM an
ĠM or
ĠM oy
ĠM anche
ĠM essieurs
Ġex cep
Ġex tern
Ġex tÃ©rieur
Ġex Ã©cut
Ġex asp
Ġex iled
Ġab us
Ġab used
Ġab onnÃ©
Ġab ilities
Ġab rut
Ġri vers
Ġma xim
Ġma quette
Ġma xed
Ġar ist
Ġar ched
Ġar moire
Ġar bor
Wh ales
Ġsur fer
Ġsur nom
Ġta bl
Ġta ches
Ã©s ar
Ġal ter
Ġal right
Ġdu res
Ġdu mp
Ġdu rent
Th en
Ġam Ã¨rement
Ġam assÃ©
ul Ã©
ul ier
Ġdev ine
ouv a
ouv rira
Ġwor s
Ġsa chent
Ġdis k
Ġdis re
Ġdis ons
Ġdis organized
Ġcomp tÃ©
imp at
imp rud
imp ensable
ood les
pe cter
Ġpart ais
Ġpart ant
Ġpart ait
Ġpart agÃ¨rent
oy ant
oy aume
Ġsi pped
Ġsi rens
che min
Ġgr ue
Ġgr ud
Ġgr ange
Ġcr Ãª
Ġcr ook
Ġcr own
Ġcr oies
ĠrÃ© Ã©lu
ind ra
Ġout s
Ġout law
Ġout numb
Ġman ig
Ġman ner
Ġman uf
Ġson d
Ġapp ort
Ġapp rent
Ġapp rit
Ġapp aremment
Ġren oncer
ro du
ine use
Ġher oes
Ġser ies
Ġser rÃ©s
Pour rait
Ġcl av
Ġcl andest
Ã» tez
Ġag g
Ġag ence
Ġag ency
oun ted
oun ces
Ġjust ified
Ġjust ifier
Ġjust ifiÃ©e
Ġbeau tif
use ly
ast s
Ġno d
ner able
ak o
ĠÃ© rud
ĠÃ© lab
ĠÃ© ruption
ice lle
Ġmar k
Ġmar t
Ġmar rants
Ġdire z
Ġwork ah
Ġent Ãªt
Ġent rain
Ġent errement
Ġent rÃ¨rent
Ġent errer
Ġent ÃªtÃ©
ass ing
ass ass
ass ist
ob ooks
Ġco chonner
Ġcar ton
ist ing
Ġimp er
Ġimp ris
Ġimp orter
Ġimp ardonnable
ack s
ep ubl
iff rer
Ġca h
Ġbr ains
Ã©r ou
Ġad h
ign orent
Ġper f
Ġper ce
Ġper les
Ġper tur
Ġper cevoir
Ġquelque fois
arg ots
Ġliv rÃ©
Ġcont a
Ġcont ained
Ġcont acting
Ġoff us
Ġoff enser
Ġoff iciel
Ġfin ances
Ġfin ancier
Ġpe e
Ġpe ars
Ġpe ignit
Ġmain tes
Ġmain ten
Ġbut in
Ġbut cher
Ġbus ier
Ã©l ue
Ã©l ateur
Ã©l oig
Ġfau c
Ġfau f
Ġfau chÃ©s
onn u
onn ant
Ġbl ister
Ġsem Ã©
Ġdr u
Ġdr ap
Ġdr ama
Ġdr ummer
ange red
ab es
ab at
ab oyer
Ġpla que
Ġpla quer
Ġsp an
Ġsp ons
Ġsp ank
Ġsp ared
Ġsp oons
Ġfer aient
Ġspe lled
iss aire
iss iez
Ġmat tress
Ġmal p
Ġmal ine
Ġmal bou
Ġmal aria
Ġgrand son
Ġpos tes
Ġexp os
Ġexp and
Ġexp ier
ĠB udd
ĠB lanche
Ġbu rent
Ġbu gged
aime rez
Ġtrop hy
ĠF ather
ĠprÃ© m
Ġpri erai
Ġback up
Ġback ground
ile ge
Ġacc lam
Ġbon us
Ġsure ly
Ã¢ me
Ġro ast
Ġro cher
fe use
Ġpi qÃ»
Ġreg istre
Ġbel ievable
Ġlot o
Ġenf ila
Ġenf iler
Ġint ensive
Ġph Ã©n
Ġph ones
ĠdÃ©c ri
ĠdÃ©c ap
ĠdÃ©c onne
ĠdÃ©c od
ĠdÃ©c aps
ĠdÃ©c orer
ĠdÃ©c idez
ĠdÃ©c aler
ĠdÃ©c ontractÃ©
Ġor ateur
Ġor igine
Ġor phelin
row ave
Ġund amaged
Ġdi rigÃ©
gl ing
Ġgu imb
Ġgu idel
aimer a
aimer ai
Ġcons ervÃ©
ĠrÃ©p Ã©tÃ©
ĠrÃ©p Ã©tez
Ġmo ldy
Ġmin eurs
ĠdÃ©s hab
ĠdÃ©s amor
Ġpu ces
act eur
act ive
Ġpol ished
Ġhouse hold
Ġcour onne
Ġcour ante
Ġrec ession
vers Ã©
Ġsent es
Ġten ure
Ġten iez
red ict
Ġprom ue
ĠA u
ĠA vez
ĠA llem
ĠA ustri
essay a
Ġprop ortion
Ġaw arded
Ġhard ware
Ġover do
Ġover qualified
Ġrep entir
Ġmet aphor
Ġveu ve
Ġveu illiez
Ġpay ez
Ġfl or
Ġfl our
Ġfl Ã¢
Ġquestion ed
Ġquestion ner
iqu Ã©s
Ġfu ment
Ġsimp l
ester ol
iz es
Ġregard ai
Ġregard ons
att ent
Ġsouv iendra
Ġsort ed
Ġsort irez
Ġgl ouss
Ġim b
Ġim min
Ġdisc rÃ©tion
Ġemp ort
Ġemp tied
ĠdÃ©t resse
Ġlaiss ai
Ġlaiss ait
Ġleft overs
Ġconf orm
Ġconf isc
Ġconf ession
Ġconf Ã©rences
acc o
acc ro
acc outumer
autre fois
Ġsc en
Ġsc ape
Ġsc ored
Ġsc ores
Ġsc ript
Ġrem uer
Ġrem uÃ©e
ĠC V
ĠC ont
ĠC ub
ĠC orÃ©e
ĠC ivil
Ġmanger ons
Ġsw ore
Ġsans onnet
esp an
esp Ã©rant
Ġend et
Ġend angered
Ġrenc ard
Ġenv ieux
Ġenv olÃ©
ĠT e
ĠT oyota
Ġtrouv Ã¢mes
ĠS u
Ġexpl ored
Ġexpl osa
Ġaut ograph
Ġcoup ez
Ġlis se
Ġinc in
Ġinc lin
Ġessay iez
Ġass ort
Ġass oiff
arn aquer
Ġconc ise
Ġcha h
Ġadv is
Ġadv int
Ġadv iendra
Ġadv entures
ĠdÃ©p ose
ĠdÃ©p ression
ĠdÃ©p Ãªche
Ġmont ant
Ġob ten
Ġob oe
Ġob nox
Ġref let
Ġref lection
Ġlun gs
Ġbo res
Ġpoint a
Ġviv ions
Ġviv ra
Ġprof ita
Ġprof usely
Puis qu
Ġvol umes
gg y
oud ra
Ġgar Ã©es
Ġcor iace
Ġrapp orter
Ġrapp roche
Ġear ning
Ġpat ates
Ġpat iemment
Ġprob ability
Re ally
Re cher
Ġcompl Ã©ment
Ġdou Ã©e
Ġbig ot
Ġmorning s
Ġbou cher
Ġbou les
ĠprÃª ches
Ġexc l
Ġrend ais
Ġlu b
Ġaff ai
Ġaff reuse
Ġaff irmÃ©
Ġpain fully
Ġvi a
Ġvi brer
Ġfac ilitÃ©
ris te
Ġtrouver ions
Ġprem ises
Ġstr ings
Ġcou de
Ġcou rent
Ġcou cha
Ġcou reur
Ġgard era
Ġconse illÃ©e
ĠrÃ©s id
ĠrÃ©s erves
ĠrÃ©s oudra
Ġvoy ais
Ġvoy ag
St rive
Ġpo x
Ġpo ly
Ġnon ante
Ġaider ont
Ġtra Ã§a
Ġtra versez
Ġins ol
Ġins inu
ache tez
Ġmiss pelled
Ġcap sized
Ġann oun
Ġann ual
ins cription
Ġproch ains
az on
mble d
ĠintÃ© ri
ĠintÃ© rÃªts
ĠintÃ© ressez
Ġcontr av
Ġcol onne
Ġinf er
Ġinf inite
Ġinf lation
Ã©g al
Ġrev it
Ġconv ienne
Ġconv iction
Ġmis Ã©ric
Ġfil Ã©
cept ive
Ġcommenc erai
Ġfi res
Ġnombre use
Ġsk is
Ġsk ys
Ġimm un
Ġimm eubles
Ġimm ortal
Ġgag nent
Ġgag nez
Ġtri al
Ġtri omp
Ġpic nics
ath ique
Ġcaf ards
Ġcaf etiÃ¨re
Be h
Be ars
Ġhot test
ĠÃ©p eler
ĠÃ©p reuves
Ġrencont rons
Ġrencont rÃ¨rent
Ġsortir a
Ġtravailler ais
Ġexpect s
Ġbreak down
ĠO r
ĠO cean
ĠO rient
Ġsal aires
Ġeff ond
Ġeff acer
Ġeff arant
Ġment ale
Ġemb rou
Ġemb usc
Ġwind sh
Ġhun t
Ġhun ch
Ġpasser ait
Ġown ers
Ġchant ent
hab iter
Ġmean ings
Ġsitu Ã©
Ġretour niez
ok er
Ġey el
Ġtour te
Ġtour isme
apprÃ©c iez
apprÃ©c ia
Ġcontin ent
Ġstation nement
Ar m
Ar river
ĠdÃ©b allÃ©
Ġrel u
Ġkid ney
Ġempl it
Ġentre ra
olog ne
olog iste
Ġprod igu
Ġprod uisit
Ġprod uisait
Ch inese
Ġfavor ites
inc arn
inc onnu
omm on
At lant
ving ts
emp ort
Ġtermin Ã©s
Ġnat ives
aut ant
pl u
Ġcop ier
Ġattend ing
Ġattend us
Ġmess ing
Ġmess enger
Ġsl im
Ġsl ang
Ġsl opp
Ġsl iced
Ġsl oshed
Ã©p ic
Ã©p uise
ĠprÃ©sent Ã©s
Ġsuff icient
Ġbri bed
Ġbri ques
Ġbri dges
idi ots
ĠprÃªt ent
Ġvas te
Ġutil is
Ġsuiv ait
Ġsuiv rais
Ġsuiv ies
Ġclass mate
Ġamus antes
Ġdiction aries
Ġdiction naires
Ġinst ants
Go ld
Go Ã»tez
ĠdÃ©r outant
Ġserv ante
Ġfig ur
Ġrap ides
Ġmen ot
Ġmen aces
Ġvit res
Ġir ont
Ġir rÃ©s
Ġir ruption
Ġpubl ication
tur al
Ġfire wood
Sh ake
old ed
ĠJe an
Ġrou lÃ©
Ġart ists
ĠÃ©crit es
Ġadm et
Ġadm irer
Ġadm iring
Ġfour re
Ġfour th
Ġind iqua
Ġind ignÃ©
Ġunder lined
Ġregret tÃ©
Ġregret tons
Ġregret tait
Ġtravers es
Ġtravers ant
Ġru ine
Ġru ining
Ġrob es
Ġsurv int
Ġsurv iennent
oubl iai
ĠprÃ©v isible
iend rais
Ġcontinu aient
Ġcontinu erai
Ġhon ored
arrÃª tes
Ġparti al
ical es
Ġboulot s
Ġcas ual
Ġmontre ra
Ġmontre rez
ĠL isa
Ġste el
Ġmange ais
ĠgÃ©n iaux
Ġpois oned
Ġaccept ons
Ġhabit ons
App uie
Ġlib Ã©rÃ©
Ġlib Ã©rer
Ġlib erty
Ġred undant
Ġpatient ly
Ġban ques
Â» ,
Ġval ues
Ġjournal ists
Ġfix ement
Ġthr one
Ġsembl iez
Ġcost ly
Ġsuper b
Ġesc ortÃ©
Ġesc aping
arrass ons
ignor a
gr and
ĠE thiop
ĠE gypt
ĠP rince
ĠP Ã©rou
ĠP ologne
ĠG ames
ĠG ene
ĠG iants
Ġbar ric
Ġbar rage
Ġbas ked
Ġpun ies
ĠrÃ©ve illon
ĠrÃ©ve illai
ctu euse
Ġdiscuter ons
Ġviend raient
Ġviend ront
Ġdiv in
Ġtent ant
Ġtent atives
Ġrac es
Ġrac ine
alent ed
let on
Ã©m issions
Ġoblig atoire
Ġshort cut
Ġsecond aires
ĠH ollywood
ĠH iroshima
Ġcut s
Ġcass Ã©es
cl oth
rou illes
Ġparce l
Ġparc ours
occup ent
Ġchois irai
Ġchois ira
Ġaband onnÃ©e
Ġapolog ies
ĠÃ©v oque
ĠÃ©v adÃ©
ĠÃ©v asion
Ġopp ose
ĠÃ©cout ais
Sais is
Sais issez
Ġmed ia
Ã©tr ang
Ġz ip
Ġdim inue
Ġreport Ã©e
Ġpress Ã©es
Ġpress ured
Ġenn ui
Ġrent al
Ġimpression ner
Ġautor isation
Ġcup board
Ġfleur issent
ĠR oman
ĠR hin
ĠR hine
ĠR epubl
Ġform Ã¨rent
Ġform ulaires
Ġpoi res
ĠrÃ©flÃ©ch it
Ġlist ed
ĠlÃ©g itime
Ġheart s
New s
Ġboss y
ĠmÃ©d iÃ©v
Ġner d
Ġem igrated
ĠrÃ©al ise
Ġpuiss ants
Ġleg work
Ġpaper asse
[...]
