{"<s>":0,"</s>":1,"<unk>":2,"<pad>":3,"!":4,"\"":5,"#":6,"$":7,"%":8,"&":9,"'":10,"(":11,")":12,"*":13,"+":14,",":15,"-":16,".":17,"/":18,"0":19,"1":20,"2":21,"3":22,"4":23,"5":24,"6":25,"7":26,"8":27,"9":28,":":29,";":30,"<":31,"=":32,">":33,"?":34,"@":35,"A":36,"B":37,"C":38,"D":39,"E":40,"F":41,"G":42,"H":43,"I":44,"J":45,"K":46,"L":47,"M":48,"N":49,"O":50,"P":51,"Q":52,"R":53,"S":54,"T":55,"U":56,"V":57,"W":58,"X":59,"Y":60,"Z":61,"[":62,"\\":63,"]":64,"^":65,"_":66,"`":67,"a":68,"b":69,"c":70,"d":71,"e":72,"f":73,"g":74,"h":75,"i":76,"j":77,"k":78,"l":79,"m":80,"n":81,"o":82,"p":83,"q":84,"r":85,"s":86,"t":87,"u":88,"v":89,"w":90,"x":91,"y":92,"z":93,"{":94,"|":95,"}":96,"~":97,"¡":98,"¢":99,"£":100,"¤":101,"¥":102,"¦":103,"§":104,"¨":105,"©":106,"ª":107,"«":108,"¬":109,"®":110,"¯":111,"°":112,"±":113,"²":114,"³":115,"´":116,"µ":117,"¶":118,"·":119,"¸":120,"¹":121,"º":122,"»":123,"¼":124,"½":125,"¾":126,"¿":127,"À":128,"Á":129,"Â":130,"Ã":131,"Ä":132,"Å":133,"Æ":134,"Ç":135,"È":136,"É":137,"Ê":138,"Ë":139,"Ì":140,"Í":141,"Î":142,"Ï":143,"Ð":144,"Ñ":145,"Ò":146,"Ó":147,"Ô":148,"Õ":149,"Ö":150,"×":151,"Ø":152,"Ù":153,"Ú":154,"Û":155,"Ü":156,"Ý":157,"Þ":158,"ß":159,"à":160,"á":161,"â":162,"ã":163,"ä":164,"å":165,"æ":166,"ç":167,"è":168,"é":169,"ê":170,"ë":171,"ì":172,"í":173,"î":174,"ï":175,"ð":176,"ñ":177,"ò":178,"ó":179,"ô":180,"õ":181,"ö":182,"÷":183,"ø":184,"ù":185,"ú":186,"û":187,"ü":188,"ý":189,"þ":190,"ÿ":191,"Ā":192,"ā":193,"Ă":194,"ă":195,"Ą":196,"ą":197,"Ć":198,"ć":199,"Ĉ":200,"ĉ":201,"Ċ":202,"ċ":203,"Č":204,"č":205,"Ď":206,"ď":207,"Đ":208,"đ":209,"Ē":210,"ē":211,"Ĕ":212,"ĕ":213,"Ė":214,"ė":215,"Ę":216,"ę":217,"Ě":218,"ě":219,"Ĝ":220,"ĝ":221,"Ğ":222,"ğ":223,"Ġ":224,"ġ":225,"Ģ":226,"ģ":227,"Ĥ":228,"ĥ":229,"Ħ":230,"ħ":231,"Ĩ":232,"ĩ":233,"Ī":234,"ī":235,"Ĭ":236,"ĭ":237,"Į":238,"į":239,"İ":240,"ı":241,"Ĳ":242,"ĳ":243,"Ĵ":244,"ĵ":245,"Ķ":246,"ķ":247,"ĸ":248,"Ĺ":249,"ĺ":250,"Ļ":251,"ļ":252,"Ľ":253,"ľ":254,"Ŀ":255,"ŀ":256,"Ł":257,"ł":258,"Ń":259,"čĊ":260,"Ġt":261,"ou":262,"re":263,"Ġd":264,"Ġa":265,"Ġp":266,"Ġs":267,"on":268,"is":269,"en":270,"es":271,"Ġl":272,"er":273,"Ġc":274,"in":275,"Ġm":276,"Ã©":277,"he":278,"an":279,"Ġn":280,"it":281,"Ġw":282,"om":283,"Ġf":284,"qu":285,"as":286,"Ġb":287,"Ġy":288,"ll":289,"Ġv":290,"at":291,"Ġyou":292,"Ġde":293,"Ġh":294,"Ġto":295,"ous":296,"ar":297,"Ġqu":298,"ai":299,"ve":300,"or":301,"ent":302,"Je":303,"un":304,"Ġthe":305,"Ġth":306,"est":307,"ing":308,"ĠÃ":309,"Ġg":310,"Ġpas":311,"le":312,"Tom":313,"ais":314,"Ġque":315,"ed":316,"et":317,"us":318,"Ġne":319,"eu":320,"Ġj":321,"'t":322,"ot":323,"our":324,"Ġun":325,"Ġo":326,"Ġre":327,"te":328,"ri":329,"oi":330,"Ġme":331,"ĠÃł":332,"Ġle":333,"ant":334,"ait":335,"Ġla":336,"Ġsu":337,"ow":338,"se":339,"Ġ?":340,"Ġin":341,"il":342,"id":343,"im":344,"Ġbe":345,"Ġha":346,"ce":347,"Ġis":348,"Ġe":349,"Ġtr":350,"Ã¨":351,"ay":352,"Ġen":353,"Il":354,"Ġdo":355,"lle":356,"ion":357,"ch":358,"Ġr":359,"Ġhe":360,"out":361,"Ġof":362,"Ġest":363,"Ġch":364,"Ġpr":365,"au":366,"Ġvous":367,"Ġan":368,"Ã©t":369,"Ġce":370,"ĠI":371,"'s":372,"ment":373,"Ġthat":374,"al":375,"ld":376,"ke":377,"me":378,"ic":379,"hat":380,"Ġte":381,"ain":382,"Ġli":383,"Ġon":384,"Ġse":385,"The":386,"ver":387,"Ġpl":388,"ie":389,"os":390,"You":391,"pp":392,"tu":393,"ir":394,"Ġpar":395,"Ġfor":396,"eux":397,"Ġcom":398,"ĠTom":399,"oo":400,"Ġdon":401,"tre":402,"Ġwas":403,"He":404,"ons":405,"gh":406,"ren":407,"Ġit":408,"Ġk":409,"ter":410,"Ġwe":411,"ad":412,"Ġhave":413,"and":414,"Ġpour":415,"Ġau":416,"aire":417,"end":418,"av":419,"Ġune":420,"ag":421,"Ġas":422,"Ãª":423,"ill":424,"ont":425,"Ġje":426,"ould":427,"vous":428,"am":429,"Ġnot":430,"Ġwant":431,"ĠÃ©t":432,"Ġyour":433,"ac":434,"Ġthis":435,"'m":436,"res":437,"ne":438,"Ġsuis":439,"ble":440,"ut":441,"ans":442,"ght":443,"Ġgo":444,"Ġall":445,"op":446,"ur":447,"ien":448,"Ġst":449,"Ġcan":450,"We":451,"âĢ":452,"Ã©e":453,"oir":454,"Ġles":455,"Ġmy":456,"'re":457,"all":458,"now":459,"que":460,"Ġso":461,"ue":462,"Ġat":463,"Ġtu":464,"ĠdÃ©":465,"Ġfaire":466,"Ġknow":467,"ore":468,"Ġmon":469,"Ã¨re":470,"ers":471,"Ġdid":472,"Nous":473,"ith":474,"ang":475,"Ġav":476,"if":477,"âĢ¯":478,"ui":479,"ure":480,"Ġwith":481,"ard":482,"mp":483,"Ġsom":484,"Âł":485,"Ġlike":486,"ly":487,"Ġave":488,"Tu":489,"tes":490,"Ġare":491,"Ġcon":492,"It":493,"Vous":494,"Ġdes":495,"She":496,"ink":497,"ig":498,"Ġpro":499,"ol":500,"ĠÃª":501,"Ġsh":502,"ens":503,"Elle":504,"ust":505,"Ġdans":506,"ois":507,"hing":508,"Ġplus":509,"Ġnous":510,"Ġfr":511,"ort":512,"ess":513,"ct":514,"Ġ!":515,"ez":516,"ĠM":517,"Ġex":518,"Ã¨s":519,"st":520,"ook":521,"ave":522,"Ġab":523,"her":524,"§a":525,"ose":526,"Ġfait":527,"Ġri":528,"Ã©c":529,"Ġwhat":530,"ire":531,"eur":532,"ap":533,"up":534,"Ġwh":535,"Ġthink":536,"ary":537,"ĠÃ§a":538,"one":539,"oin":540,"Ġma":541,"What":542,"Ġar":543,"Wh":544,"ong":545,"Ġsur":546,"Ġhis":547,"rai":548,"el":549,"Ġtout":550,"Ġta":551,"ime":552,"Ġany":553,"Ġveux":554,"Ã©s":555,"ier":556,"Ġhim":557,"Ġal":558,"Do":559,"Ġdu":560,"Th":561,"Ġam":562,"ul":563,"Ġdev":564,"ation":565,"Ġavec":566,"Ġqui":567,"de":568,"Ġver":569,"'ll":570,"ouv":571,"Ġwor":572,"Ġsa":573,"ette":574,"ici":575,"Ġus":576,"'ve":577,"Ġquel":578,"bl":579,"ci":580,"Ġdis":581,"dre":582,"Ġcomp":583,"imp":584,"ense":585,"Ġand":586,"They":587,"ood":588,"are":589,"pe":590,"Ġpart":591,"oy":592,"age":593,"Ġabout":594,"Ġtime":595,"Ġsi":596,"ate":597,"Ġget":598,"ĠMary":599,"Ãł":600,"mps":601,"onne":602,"Le":603,"che":604,"Ġgr":605,"ite":606,"Ġcr":607,"Ġet":608,"Ġhere":609,"Ġvery":610,"mes":611,"Ġsont":612,"Ġpeu":613,"ĠrÃ©":614,"ost":615,"Ġfe":616,"ive":617,"Ġdidn":618,"ind":619,"ally":620,"Ġsee":621,"ff":622,"cc":623,"Ġout":624,"ux":625,"Ġman":626,"This":627,"Com":628,"Ġson":629,"Ġapp":630,"otre":631,"That":632,"ours":633,"la":634,"ouve":635,"Ġren":636,"ide":637,"oup":638,"ten":639,"Que":640,"Ġup":641,"ro":642,"very":643,"uis":644,"Ġdit":645,"ĠtrÃ¨s":646,"ille":647,"How":648,"Ġhad":649,"Ne":650,"ine":651,"rais":652,"Ġwere":653,"Ġneed":654,"Ġmais":655,"Ġpense":656,"Ce":657,"Ġher":658,"Ġvou":659,"Ġhapp":660,"si":661,"ĠÃªtre":662,"Ġser":663,"day":664,"Ġhas":665,"rent":666,"Pour":667,"Ġone":668,"ase":669,"Ġdem":670,"Ġtemps":671,"Ġmoi":672,"quoi":673,"Don":674,"ight":675,"Ġtou":676,"mer":677,"alk":678,"La":679,"Ġwill":680,"Ġgoing":681,"ry":682,"je":683,"Ġcl":684,"Ã»":685,"Ġvrai":686,"app":687,"tÃ©":688,"lles":689,"Ġlui":690,"Ġvotre":691,"ĠÃ©tÃ©":692,"Ġshould":693,"Ã´":694,"ome":695,"Ġpeux":696,"Ġag":697,"oun":698,"ĠÃ©tait":699,"Ġjust":700,"ĠÃªtes":701,"Ġbeau":702,"'d":703,"here":704,"Ġres":705,"Ġsais":706,"use":707,"pr":708,"Ġche":709,"Ġjam":710,"ast":711,"Ġchose":712,"Are":713,"Ġno":714,"lp":715,"ner":716,"ions":717,"Ġlook":718,"Ġgood":719,"ak":720,"ven":721,"ĠÃ©":722,"Les":723,"Ġes":724,"ance":725,"other":726,"Ġcette":727,"Ã§":728,"Ġici":729,"Ġlong":730,"iez":731,"able":732,"avai":733,"ice":734,"Ġhelp":735,"Ã¹":736,"Ġjamais":737,"Ã®":738,"Ġmar":739,"uit":740,"Ġdire":741,"ays":742,"Ġtoo":743,"Ġwork":744,"Ġton":745,"thing":746,"Ġtravai":747,"Ġent":748,"ass":749,"Ġparl":750,"ob":751,"Ġwould":752,"Ils":753,"Ġco":754,"Ġcela":755,"ought":756,"Ġbien":757,"ress":758,"Ġpens":759,"Ġvraiment":760,"aid":761,"air":762,"Ġthere":763,"iÃ¨re":764,"Ġcould":765,"mb":766,"Ġcar":767,"My":768,"une":769,"Ġreally":770,"dy":771,"ade":772,"Ġil":773,"Pourquoi":774,"Ġtell":775,"Ġfrom":776,"art":777,"Why":778,"ist":779,"Ġtrain":780,"ck":781,"Ġimp":782,"Ġpers":783,"ack":784,"Ġtoi":785,"ep":786,"iff":787,"lf":788,"Ġca":789,"ors":790,"Ġevery":791,"Ġby":792,"Ġsome":793,"Qu":794,"Ġatt":795,"iv":796,"Ġbr":797,"Ã©r":798,"Ġad":799,"lease":800,"Ġtalk":801,"Ġlo":802,"ign":803,"orte":804,"itÃ©":805,"moi":806,"Ġdiff":807,"Ġdoes":808,"Ġbes":809,"Ġper":810,"Ġquelque":811,"Ġbeen":812,"arg":813,"Ġseu":814,"riend":815,"cher":816,"anger":817,"Ġpass":818,"Ġbesoin":819,"coup":820,"Ãªte":821,"ord":822,"Ġliv":823,"Ġsav":824,"Ġstu":825,"Ġgot":826,"Ġcome":827,"Ġcont":828,"Ġmore":829,"Ġnever":830,"Ġvoul":831,"Ġoff":832,"Ġnow":833,"Ġthan":834,"elle":835,"Ġfin":836,"Ġdemand":837,"Ġpe":838,"ise":839,"There":840,"ient":841,"Ġsomet":842,"Ġmain":843,"Can":844,"rive":845,"Ġpre":846,"Ġbut":847,"Ġbus":848,"Ġbeaucoup":849,"Ã©l":850,"ree":851,"ish":852,"orm":853,"Ġfau":854,"Is":855,"ond":856,"Est":857,"Ġmu":858,"Ãªtre":859,"Ġif":860,"Ġavez":861,"Ã©es":862,"Ġavons":863,"lement":864,"sez":865,"Ġlet":866,"oit":867,"Ġtous":868,"ound":869,"Ġpren":870,"onn":871,"ud":872,"bre":873,"Ġbl":874,"Ġhome":875,"Ġsommes":876,"Ġask":877,"Ġwr":878,"Ġsem":879,"Ġaller":880,"Ġsomething":881,"Ġdr":882,"ange":883,"Ġparler":884,"ab":885,"Ġmuch":886,"Ġpla":887,"Ġquest":888,"Ġjus":889,"Ġsp":890,"Ġont":891,"Comment":892,"Ġfer":893,"Ġeat":894,"Ġspe":895,"iss":896,"Ġmat":897,"Ġfat":898,"Ġsay":899,"Ġmal":900,"Ġfriend":901,"Ãªme":902,"Ġgrand":903,"Ġpos":904,"ole":905,"Let":906,"Ġcomm":907,"Ġpeut":908,"Ġtake":909,"ĩa":910,"Ġhappen":911,"ĠlÃł":912,"Ġread":913,"Ġright":914,"Ġexp":915,"aiss":916,"um":917,"Ġenc":918,"Ġmaison":919,"On":920,"Ãĩa":921,"Ġheure":922,"ey":923,"ĠB":924,"Ġaf":925,"Ġbu":926,"aime":927,"Ã©tait":928,"Ġhow":929,"Ġlit":930,"ies":931,"Ġtom":932,"Ġmake":933,"jours":934,"Ġtrop":935,"Ġtoujours":936,"ants":937,"Ġrien":938,"ody":939,"ique":940,"rait":941,"Ġjour":942,"ge":943,"Ġven":944,"ick":945,"Ġva":946,"ars":947,"ĠF":948,"Did":949,"ĠÃ©c":950,"Ġdeux":951,"Ġfeel":952,"Ġvoir":953,"ting":954,"Ġou":955,"Ġbook":956,"ĠprÃ©":957,"Ġmoney":958,"Ġnouve":959,"Ġpouv":960,"ds":961,"Ġthought":962,"self":963,"oire":964,"Ġpri":965,"ert":966,"Ġmes":967,"vez":968,"Ġwhen":969,"Ġback":970,"ile":971,"Ġthey":972,"Ġencore":973,"Ġbet":974,"ils":975,"Ġlast":976,"Ġacc":977,"Ġmonde":978,"Ġshe":979,"Ġvoit":980,"Ġbon":981,"ieux":982,"Ġquoi":983,"Ġsure":984,"Ã¢":985,"Ġro":986,"Ġwho":987,"fe":988,"Ġpi":989,"ool":990,"Ġans":991,"Ġreg":992,"Ġsupp":993,"Ġbel":994,"Ġlot":995,"Ġenf":996,"Ġret":997,"Tout":998,"Ġanything":999,"Ġnew":1000,"iens":1001,"Ġvais":1002,"Ġtold":1003,"ussi":1004,"Ġday":1005,"ild":1006,"Ã´t":1007,"Ġcomme":1008,"Ġlove":1009,"Ġint":1010,"jour":1011,"Ġph":1012,"ence":1013,"ried":1014,"Ġai":1015,"aine":1016,"ern":1017,"Ġquelqu":1018,"Ġthing":1019,"pt":1020,"ĠdÃ©c":1021,"As":1022,"Ġavoir":1023,"Ġor":1024,"ough":1025,"Ġfais":1026,"Quel":1027,"row":1028,"oston":1029,"Mon":1030,"Ġpa":1031,"En":1032,"Ġund":1033,"ĠBoston":1034,"ra":1035,"ople":1036,"ning":1037,"Ã©tais":1038,"Ġagain":1039,"Ġfaut":1040,"Ġdoesn":1041,"ouse":1042,"Ġdois":1043,"Ġvoiture":1044,"Ġsoit":1045,"du":1046,"Ġdi":1047,"gl":1048,"ach":1049,"Ġwat":1050,"ures":1051,"Ġmust":1052,"Where":1053,"Ġgu":1054,"oth":1055,"ted":1056,"Elles":1057,"aimer":1058,"Please":1059,"Ġcons":1060,"Ġconn":1061,"lez":1062,"Ġvie":1063,"riez":1064,"tenant":1065,"Ġfois":1066,"Ġmade":1067,"ident":1068,"bien":1069,"argent":1070,"avez":1071,"hui":1072,"Ġway":1073,"Ġtravail":1074,"Ġold":1075,"Ġke":1076,"ĠrÃ©p":1077,"riv":1078,"ame":1079,"own":1080,"Ġsaid":1081,"ieve":1082,"Ġmo":1083,"aimerais":1084,"ese":1085,"Ġspeak":1086,"jourd":1087,"ĠJ":1088,"Ġye":1089,"Ġvu":1090,"tle":1091,"OÃ¹":1092,"If":1093,"Ġpet":1094,"Ġmin":1095,"Ã©ri":1096,"Ġeu":1097,"ĠdÃ©s":1098,"Ġavait":1099,"Ġsou":1100,"Ġvis":1101,"aient":1102,"Ġaussi":1103,"Who":1104,"endre":1105,"Ġstill":1106,"Ġpu":1107,"Ã¨me":1108,"Ġpeople":1109,"Ġple":1110,"Ġtoday":1111,"ouvez":1112,"Ġcare":1113,"Ã®t":1114,"nÃ©":1115,"Ġfran":1116,"Ġwon":1117,"Ġnom":1118,"ake":1119,"Ġpris":1120,"ante":1121,"Ġmaintenant":1122,"Ġwent":1123,"Ġcall":1124,"Ġfam":1125,"act":1126,"Ġprobl":1127,"Ġses":1128,"Ġjou":1129,"ways":1130,"Ġpol":1131,"orrow":1132,"Si":1133,"Ġdoing":1134,"Ġhouse":1135,"Ġbetter":1136,"ĠsÃ»":1137,"ĠoÃ¹":1138,"Ġhappy":1139,"Ã§ais":1140,"No":1141,"rents":1142,"Ġsm":1143,"Ġbelieve":1144,"Ġcour":1145,"rench":1146,"Ġalways":1147,"Ġrec":1148,"Ġplan":1149,"body":1150,"ek":1151,"Åĵ":1152,"iÃ©":1153,"vers":1154,"Ġstay":1155,"Ġonly":1156,"Ġmom":1157,"Ġceci":1158,"Ġjuste":1159,"Ġdern":1160,"ĠfranÃ§ais":1161,"Ġsent":1162,"Ġtw":1163,"Ġten":1164,"red":1165,"Ġnight":1166,"Ġroom":1167,"Ġplay":1168,"ope":1169,"Ġpersonne":1170,"Ġthem":1171,"ĠFrench":1172,"Ġprom":1173,"ĠA":1174,"Ġweek":1175,"rÃ©":1176,"fore":1177,"Ġaujourd":1178,"Ġseul":1179,"essay":1180,"ty":1181,"Ġprop":1182,"Ġjob":1183,"Ġsec":1184,"Ġaw":1185,"Ġrest":1186,"erst":1187,"Ġchez":1188,"Ġwait":1189,"Ġbefore":1190,"ccup":1191,"Ġter":1192,"âĢĻ":1193,"ouver":1194,"chool":1195,"ft":1196,"Ġac":1197,"Ġhard":1198,"ĠmÃªme":1199,"Have":1200,"Ġover":1201,"Ġrep":1202,"Ã©lÃ©":1203,"Ġmet":1204,"Ġparents":1205,"mber":1206,"Ġporte":1207,"Ġveu":1208,"Ġid":1209,"Ġpay":1210,"Ġmany":1211,"Ġtry":1212,"Ġdown":1213,"Ġfl":1214,"Ġop":1215,"Ġquestion":1216,"iqu":1217,"Ġmoment":1218,"Ġinv":1219,"Ġlivre":1220,"Ġfu":1221,"Ġsimp":1222,"Ġlittle":1223,"Ġour":1224,"Ġschool":1225,"Ġgive":1226,"Ġchild":1227,"Ġisn":1228,"Qui":1229,"ĠdÃ©j":1230,"Ġpensais":1231,"itu":1232,"ĠdÃ©jÃł":1233,"anc":1234,"nÃ©e":1235,"rit":1236,"blem":1237,"Un":1238,"min":1239,"ester":1240,"iz":1241,"Ġproblem":1242,"Ġregard":1243,"hed":1244,"prÃ¨s":1245,"att":1246,"Ġhand":1247,"Ġunderst":1248,"ĠtÃ©lÃ©":1249,"Ġsouv":1250,"Ġleave":1251,"ph":1252,"Every":1253,"asse":1254,"Ġwanted":1255,"get":1256,"Ġprendre":1257,"Ġsort":1258,"avais":1259,"endu":1260,"Ġgl":1261,"kes":1262,"Ġhier":1263,"Ġache":1264,"ention":1265,"og":1266,"ĠpÃ¨re":1267,"eau":1268,"Ġim":1269,"Avez":1270,"Ġmieux":1271,"ction":1272,"Ġassez":1273,"urn":1274,"Ġwhere":1275,"Ġdog":1276,"Pers":1277,"ired":1278,"Ġdisc":1279,"ful":1280,"Ġsoir":1281,"Ġbonne":1282,"reat":1283,"Ġemp":1284,"Ġafter":1285,"Ġwell":1286,"esterday":1287,"ĠdÃ©t":1288,"ity":1289,"Es":1290,"nous":1291,"ÃĢ":1292,"Ġcompren":1293,"Ġlaiss":1294,"Personne":1295,"Ġleft":1296,"leep":1297,"omme":1298,"Ġtrois":1299,"ret":1300,"Ġbec":1301,"Ġconf":1302,"acc":1303,"enc":1304,"Ġsurpr":1305,"Ġunderstand":1306,"Ġalone":1307,"Ġtomorrow":1308,"ider":1309,"autre":1310,"ex":1311,"ture":1312,"ents":1313,"Ġsc":1314,"rÃª":1315,"Ġhappened":1316,"Ġfather":1317,"Ġfind":1318,"Ġlive":1319,"uss":1320,"eurs":1321,"ÃĬ":1322,"ĠproblÃ¨me":1323,"th":1324,"auv":1325,"pect":1326,"Ġquand":1327,"Ġarriv":1328,"Ġdemain":1329,"Ġmus":1330,"oses":1331,"Ġbuy":1332,"ÃĬtes":1333,"Ġenough":1334,"Ġdevrais":1335,"xt":1336,"Ġseem":1337,"Ġrem":1338,"Ġautre":1339,"ĠC":1340,"Ġmanger":1341,"Ġtoutes":1342,"Ġsw":1343,"Ġsans":1344,"Ġthree":1345,"Ġyesterday":1346,"oint":1347,"Ġinte":1348,"ĠdÃ»":1349,"Ġput":1350,"Combien":1351,"ult":1352,"Ġdep":1353,"Ġmeet":1354,"Ġdisp":1355,"esp":1356,"Ġdone":1357,"Ġavant":1358,"Ġasked":1359,"Ġmor":1360,"Cette":1361,"oc":1362,"king":1363,"Ã©d":1364,"ĠplaÃ®t":1365,"Ġhur":1366,"Ġend":1367,"Ġdrink":1368,"Ġgens":1369,"Ġsavoir":1370,"ager":1371,"Ġrenc":1372,"Ġimport":1373,"When":1374,"Ġenv":1375,"Ġtwo":1376,"read":1377,"Ġsaw":1378,"Ġoccup":1379,"Ġfriends":1380,"Ġtea":1381,"ĠT":1382,"aux":1383,"Ġinto":1384,"Ġplease":1385,"Ġtrouv":1386,"Ġsens":1387,"Ġfut":1388,"Ġaim":1389,"Ġide":1390,"Ġstart":1391,"Ãªtes":1392,"ition":1393,"De":1394,"Ġever":1395,"Ġrais":1396,"ĠÃ©tud":1397,"ĠS":1398,"Ġnuit":1399,"Ġenfants":1400,"cle":1401,"ĠJap":1402,"oute":1403,"erre":1404,"Ġexpl":1405,"Ġeverything":1406,"tement":1407,"Ġaux":1408,"sible":1409,"Cel":1410,"Ġpartir":1411,"Ġpres":1412,"Ġheures":1413,"ated":1414,"Ġelle":1415,"Ġaut":1416,"arie":1417,"Ġplace":1418,"ace":1419,"Ġces":1420,"orry":1421,"ail":1422,"Ġcoup":1423,"Ġlis":1424,"Ġinc":1425,"Ġtoute":1426,"Ġwhy":1427,"Ma":1428,"ount":1429,"Ġcat":1430,"Ġfo":1431,"ĠaprÃ¨s":1432,"Ã©n":1433,"Ġtravaill":1434,"arrive":1435,"Ġchien":1436,"Ġessay":1437,"Ġnext":1438,"Ġass":1439,"arn":1440,"irst":1441,"be":1442,"Ġcomment":1443,"Ġconc":1444,"wn":1445,"Ġcha":1446,"ffe":1447,"Ġhope":1448,"Ġpetit":1449,"ised":1450,"Ã©cole":1451,"jet":1452,"Ġlate":1453,"Ġhear":1454,"Ġadv":1455,"ves":1456,"ank":1457,"Ġgir":1458,"Ġsimplement":1459,"Cela":1460,"ente":1461,"ĠdÃ©p":1462,"Ġbusy":1463,"Ġauc":1464,"avant":1465,"ision":1466,"Ġmont":1467,"Ġ1":1468,"Ġob":1469,"Ġother":1470,"Ġwrong":1471,"Ġdec":1472,"Would":1473,"Ġref":1474,"Ġtable":1475,"Ġlun":1476,"Ġbo":1477,"Ġaway":1478,"Ġwalk":1479,"Ġcond":1480,"Ġvoulais":1481,"All":1482,"int":1483,"Ġkind":1484,"ute":1485,"Ġnotre":1486,"Ġtes":1487,"Ġchoses":1488,"ĠsÃ»r":1489,"Ġdoor":1490,"Ġfun":1491,"Ġsleep":1492,"Ġcher":1493,"Ġpouvez":1494,"Åĵur":1495,"rÃ©c":1496,"ĠmÃ¨re":1497,"ĠderniÃ¨re":1498,"Ġfem":1499,"Ġrester":1500,"Ġquelques":1501,"ĠpassÃ©":1502,"Ġkne":1503,"Ġpoint":1504,"Ġviv":1505,"aisse":1506,"Ġprof":1507,"Puis":1508,"Ġidea":1509,"ĠMarie":1510,"Ġpuis":1511,"Ġreme":1512,"Ġnothing":1513,"Ġchance":1514,"Ġfirst":1515,"Ġshow":1516,"llement":1517,"Ġpourquoi":1518,"Ġcham":1519,"Ġwasn":1520,"Ġmot":1521,"ather":1522,"rer":1523,"Ġansw":1524,"Ġveut":1525,"Ġvol":1526,"temps":1527,"ends":1528,"trer":1529,"illes":1530,"ets":1531,"Ġcert":1532,"uses":1533,"gg":1534,"Ġvos":1535,"Ġmatin":1536,"Ġvenir":1537,"Ġphot":1538,"Ġsorry":1539,"ock":1540,"oud":1541,"omp":1542,"Ġgar":1543,"Ġquestions":1544,"Ġcor":1545,"Ġmay":1546,"oss":1547,"ious":1548,"Ġjours":1549,"endant":1550,"Ġcame":1551,"Ġturn":1552,"Ġdur":1553,"Ġalread":1554,"Ġheureux":1555,"Ġremember":1556,"Ġalready":1557,"rez":1558,"ng":1559,"Ġgave":1560,"Ġrapp":1561,"Ġyears":1562,"Ġear":1563,"Ġeven":1564,"Ġpat":1565,"Ġnouveau":1566,"Ġbeing":1567,"Ġbed":1568,"Ġprob":1569,"Re":1570,"Ġcompl":1571,"Ġthings":1572,"Ġbad":1573,"Ġyet":1574,"Ġdou":1575,"Ġkeep":1576,"Ġpolice":1577,"ĠidÃ©e":1578,"Ġknew":1579,"aider":1580,"Ġmoin":1581,"Ġanyone":1582,"Ġtook":1583,"Ġcouldn":1584,"leur":1585,"Ġbig":1586,"Ġmother":1587,"Ġused":1588,"Ġhab":1589,"chÃ©":1590,"Ġsoon":1591,"ts":1592,"Ġsait":1593,"Ġense":1594,"Ġlife":1595,"Ġlooking":1596,"Ġmorning":1597,"Ġname":1598,"Ġmind":1599,"Ġbou":1600,"ory":1601,"ĠprÃª":1602,"Ġexc":1603,"imes":1604,"Ġwithout":1605,"Ġrend":1606,"Ġrain":1607,"utes":1608,"Ġstud":1609,"Ġlu":1610,"Ġwatch":1611,"Ġaff":1612,"Ġpain":1613,"Ġtired":1614,"Ã¨rent":1615,"Ġarrive":1616,"Your":1617,"icile":1618,"ĠdÃ©sol":1619,"ister":1620,"Ġpeur":1621,"avoir":1622,"ĠtÃ´t":1623,"ats":1624,"Ġimportant":1625,"Ġopen":1626,"ich":1627,"igh":1628,"Ġvi":1629,"aurais":1630,"Ġcroire":1631,"Ġcle":1632,"Ġfac":1633,"Ġinteres":1634,"espÃ¨re":1635,"les":1636,"Ġmauv":1637,"Ġbest":1638,"Ġmauvais":1639,"par":1640,"Ġsemble":1641,"ict":1642,"ris":1643,"Ġtrouver":1644,"Ġfound":1645,"Ġprem":1646,"Ġheard":1647,"Ġstr":1648,"His":1649,"Ġseen":1650,"igu":1651,"Quand":1652,"phone":1653,"lÃ©":1654,"Ġmist":1655,"Ġvoulez":1656,"Ġteacher":1657,"ĠÂ":1658,"Ġfort":1659,"Ġsemaine":1660,"Ġlost":1661,"qui":1662,"Ġmeill":1663,"Ġdifficile":1664,"ĠprÃ©f":1665,"Ġminutes":1666,"bles":1667,"Ġrendre":1668,"ale":1669,"Ġlang":1670,"Ġcou":1671,"Ġgard":1672,"ily":1673,"ĠprÃ©s":1674,"Ġconse":1675,"Ġoften":1676,"Ġseule":1677,"Ġchildren":1678,"Ġtheir":1679,"ĠrÃ©s":1680,"ĠdemandÃ©":1681,"Ġlors":1682,"Ġcet":1683,"Ġsame":1684,"Ġuse":1685,"Quelle":1686,"Ġboy":1687,"Ġvoy":1688,"Ġaccident":1689,"St":1690,"Ã§on":1691,"Ġpo":1692,"Ġnon":1693,"Ġparle":1694,"yez":1695,"Ġhaven":1696,"Ġaider":1697,"Ġtra":1698,"angÃ©":1699,"Ġready":1700,"Ġentendu":1701,"uire":1702,"Ġraison":1703,"roit":1704,"Ġfille":1705,"Ġthese":1706,"Ġins":1707,"ache":1708,"raid":1709,"jeun":1710,"Ġmiss":1711,"Ġwish":1712,"Engl":1713,"uter":1714,"Ġcap":1715,"este":1716,"Ġquit":1717,"elles":1718,"Ġel":1719,"Ġwater":1720,"Ġanswer":1721,"Ġchambre":1722,"Ġann":1723,"Ġsouvent":1724,"Ġdepuis":1725,"Ġfatigu":1726,"Ġchange":1727,"Ġsavais":1728,"Ġafraid":1729,"ĠpiÃ¨":1730,"ell":1731,"ins":1732,"Ġproch":1733,"az":1734,"Ġsat":1735,"ote":1736,"Ġstudy":1737,"Ġpropos":1738,"ĠrÃ©pon":1739,"mble":1740,"vent":1741,"Ġdiffic":1742,"Ġtomb":1743,"May":1744,"ĠmÃ©":1745,"Ġsol":1746,"Ġdoct":1747,"Ġelse":1748,"Ġpendant":1749,"Ġsing":1750,"Ġyoung":1751,"river":1752,"ĠintÃ©":1753,"Ġstup":1754,"Ġord":1755,"Ġstop":1756,"Ġcontr":1757,"Ġyourself":1758,"Ġamis":1759,"ared":1760,"Ġeas":1761,"Ġfemme":1762,"rap":1763,"Ġcol":1764,"Ġbeg":1765,"Ġperson":1766,"ince":1767,"Ġhomme":1768,"rions":1769,"Ġpossible":1770,"Ġcrois":1771,"orter":1772,"Could":1773,"gry":1774,"Ġinf":1775,"ife":1776,"Ġlongtemps":1777,"Ġprie":1778,"Ġtard":1779,"Ġami":1780,"Ã©g":1781,"Ġquelle":1782,"aller":1783,"Ġcold":1784,"ished":1785,"Ġrev":1786,"Ġconv":1787,"Ġfai":1788,"English":1789,"Ġnu":1790,"Ġsecret":1791,"osed":1792,"Ġparty":1793,"Ġjusqu":1794,"idÃ©":1795,"Ġrun":1796,"Ġdorm":1797,"Ġmis":1798,"ĠvÃ©r":1799,"aissez":1800,"ĠarrÃª":1801,"Ġretard":1802,"Ġmort":1803,"Ġfil":1804,"Ġgreat":1805,"cept":1806,"ations":1807,"ignore":1808,"Ġlearn":1809,"Ġmyself":1810,"erai":1811,"Ġpret":1812,"heure":1813,"ĠarrivÃ©":1814,"ip":1815,"ied":1816,"Ġcommenc":1817,"ital":1818,"ches":1819,"Ġchoi":1820,"Ġvisit":1821,"Ġfew":1822,"iste":1823,"Ġcam":1824,"Ġfi":1825,"Ġbro":1826,"Ġsera":1827,"ĠachetÃ©":1828,"Ġpasse":1829,"Ġgirl":1830,"Ġabs":1831,"fait":1832,"rass":1833,"Ġnombre":1834,"oke":1835,"Ġbought":1836,"Ġtalking":1837,"Ġglad":1838,"erreur":1839,"Ġsho":1840,"Ġmatter":1841,"alement":1842,"Ġsk":1843,"jeuner":1844,"Ġswim":1845,"Ġlettre":1846,"reak":1847,"ork":1848,"onnes":1849,"Ġmov":1850,"ages":1851,"tr":1852,"led":1853,"per":1854,"Ġwants":1855,"Ġbless":1856,"ĠintÃ©ress":1857,"Ġimm":1858,"Ġgag":1859,"ĠfÃªte":1860,"ater":1861,"ienne":1862,"Ġwhile":1863,"Ġaround":1864,"Ġletter":1865,"ĠtrouvÃ©":1866,"erve":1867,"Ġmag":1868,"Ġlire":1869,"Ġperdu":1870,"ause":1871,"ys":1872,"Ã¨res":1873,"ĠEnglish":1874,"arm":1875,"llez":1876,"aires":1877,"Ġvoud":1878,"Ġtri":1879,"Ġpic":1880,"Ġcount":1881,"Ġmight":1882,"ustr":1883,"Ġgetting":1884,"Ġearly":1885,"Ġmoins":1886,"Ġable":1887,"Ġnice":1888,"ug":1889,"ĠsÅĵur":1890,"Ġleur":1891,"Ġfood":1892,"ience":1893,"tif":1894,"ites":1895,"ath":1896,"Ġcaf":1897,"Ġgen":1898,"Ġtrue":1899,"Ġpouvons":1900,"Ġjouer":1901,"Be":1902,"Ġdont":1903,"Ġperm":1904,"Par":1905,"ues":1906,"Ġhot":1907,"Ġpourrait":1908,"Ġdevons":1909,"ĠÃ©p":1910,"Ġdemande":1911,"ains":1912,"accord":1913,"onder":1914,"Ġrencont":1915,"ĠJapan":1916,"rant":1917,"Ġknows":1918,"Ġdeven":1919,"Ġsortir":1920,"ĠpiÃ¨ce":1921,"ces":1922,"Ġsister":1923,"inner":1924,"oid":1925,"Ġmarried":1926,"Ġtravailler":1927,"illez":1928,"Une":1929,"Ġyear":1930,"util":1931,"ia":1932,"Ġanother":1933,"ĠÃ©taient":1934,"Ġlooks":1935,"most":1936,"Ãī":1937,"Au":1938,"erci":1939,"Ġsujet":1940,"Ġsign":1941,"Ġvois":1942,"Ġexpect":1943,"Ġwonder":1944,"Ġbreak":1945,"Ġappel":1946,"ĠO":1947,"Ġtried":1948,"Ġsal":1949,"Ġeff":1950,"more":1951,"ream":1952,"Ġdanger":1953,"any":1954,"vÃ©":1955,"ments":1956,"uth":1957,"Ġnour":1958,"Ġmari":1959,"00":1960,"Ġment":1961,"Ġaren":1962,"Ġsois":1963,"Ġnouvelle":1964,"Ġhurt":1965,"entre":1966,"Ġdoit":1967,"ible":1968,"tiful":1969,"Ġville":1970,"Ġemb":1971,"ĠfrÃ¨re":1972,"Ġbrother":1973,"Ġmeeting":1974,"Ġwind":1975,"Ġsuch":1976,"Ġanymore":1977,"Ġgros":1978,"Ġforg":1979,"Ġdonner":1980,"Ġlisten":1981,"isÃ©":1982,"ĠtÃ©lÃ©phone":1983,"Ġhun":1984,"aie":1985,"Ġdevriez":1986,"Ġpasser":1987,"Ġinvit":1988,"ize":1989,"ĠcafÃ©":1990,"ivers":1991,"Ġact":1992,"Ġbeautiful":1993,"Ġwouldn":1994,"ĠvÃ©ritÃ©":1995,"Some":1996,"Ġown":1997,"joy":1998,"Ġerreur":1999,"Ġsau":2000,"toi":2001,"Ġtruth":2002,"Ġresp":2003,"Ġdoll":2004,"ĠallÃ©":2005,"ved":2006,"avons":2007,"pital":2008,"ĠjournÃ©e":2009,"Ġdays":2010,"ĠÃ¢":2011,"Ġgrande":2012,"Ġpap":2013,"Ġpresque":2014,"Ġ2":2015,"iser":2016,"Ġbecause":2017,"Ġchant":2018,"di":2019,"hab":2020,"Ġoubl":2021,"Ġmean":2022,"avantage":2023,"nis":2024,"ffee":2025,"Ġsitu":2026,"Ġdifficult":2027,"Ġaime":2028,"Ġretour":2029,"ok":2030,"ĠCh":2031,"Ġey":2032,"Ġfaites":2033,"Ġfilm":2034,"Ġtour":2035,"Ġtrouve":2036,"Ġattention":2037,"Ġphoto":2038,"ustral":2039,"Ġdavantage":2040,"apprÃ©c":2041,"ĠpensÃ©":2042,"Ġsuppose":2043,"Ġdir":2044,"Ġcoming":2045,"Ġcoffee":2046,"Ġcontin":2047,"Ġprofess":2048,"Son":2049,"Ġmine":2050,"Ġstation":2051,"Ġtennis":2052,"Ar":2053,"Ġfar":2054,"Ġinter":2055,"iment":2056,"Ġenjoy":2057,"rendre":2058,"Ġsoyez":2059,"Ġalmost":2060,"Ġfamille":2061,"Pouvez":2062,"rÃªte":2063,"Ġjeune":2064,"Tell":2065,"Ġdinner":2066,"Ġpartie":2067,"ĠdiffÃ©":2068,"ny":2069,"Ġbure":2070,"ĠdÃ©b":2071,"Ġfall":2072,"Ġrel":2073,"llow":2074,"Ġkid":2075,"Ġempl":2076,"Ġarg":2077,"Everyone":2078,"teau":2079,"Ġentre":2080,"Ġbureau":2081,"Ġconnais":2082,"Ġonce":2083,"Ġdiffe":2084,"Ġwaiting":2085,"Ġdoctor":2086,"mÃªme":2087,"Ġchau":2088,"avor":2089,"olog":2090,"Ġdevoir":2091,"Ġbooks":2092,"gether":2093,"adi":2094,"Ġdress":2095,"Ġfamily":2096,"era":2097,"Ġprod":2098,"Ġshouldn":2099,"Ġrestau":2100,"Ġcertain":2101,"lÃł":2102,"lui":2103,"Ġwin":2104,"used":2105,"Ġtonight":2106,"Ġcri":2107,"Ġdevez":2108,"Ġtogether":2109,"Ġnews":2110,"Ġcareful":2111,"iction":2112,"iate":2113,"Ġbit":2114,"Ġlivres":2115,"Ġpetite":2116,"Ch":2117,"oon":2118,"Ġhate":2119,"ĠdonnÃ©":2120,"Ġfavor":2121,"Ġgent":2122,"Ġvoulait":2123,"Ġwrite":2124,"Peux":2125,"iers":2126,"Ġcuis":2127,"inc":2128,"icy":2129,"arge":2130,"omm":2131,"aught":2132,"At":2133,"Dis":2134,"cin":2135,"ving":2136,"emp":2137,"Ġsugg":2138,"ĠÃ©tiez":2139,"Ġtermin":2140,"Ġaucune":2141,"elt":2142,"In":2143,"Ġap":2144,"Ġcook":2145,"Ġnat":2146,"Ġtellement":2147,"Ġsomeone":2148,"Ġtrying":2149,"Ġcombien":2150,"Ġkill":2151,"ression":2152,"ances":2153,"Ġsong":2154,"Ġchat":2155,"aut":2156,"Ġworking":2157,"Ġfelt":2158,"rire":2159,"Ġeach":2160,"Ġlikes":2161,"Ġforget":2162,"Ġsatis":2163,"pl":2164,"Ġaide":2165,"Ġcop":2166,"pped":2167,"Ġattend":2168,"Ġris":2169,"reux":2170,"Ġport":2171,"Ġseems":2172,"we":2173,"ying":2174,"Ġcal":2175,"Ġmess":2176,"rence":2177,"oyez":2178,"Ġpouvoir":2179,"Ġsituation":2180,"Ġfeu":2181,"Ġboth":2182,"Ġhor":2183,"Ġreal":2184,"Ġvenu":2185,"Ġvoi":2186,"aide":2187,"Ġworld":2188,"Ġlonger":2189,"Ġphone":2190,"Ġbir":2191,"ĠdÃ©solÃ©":2192,"nes":2193,"ĠoccupÃ©":2194,"uie":2195,"onque":2196,"Ġtrust":2197,"Ġexam":2198,"ĠrÃ©un":2199,"Ġfini":2200,"Ġenfant":2201,"Ġeasy":2202,"Peu":2203,"hait":2204,"Ġvac":2205,"Ġsl":2206,"Ġsit":2207,"ĠdÃ©jeuner":2208,"Ġpretty":2209,"Veu":2210,"Ã©p":2211,"ĠÃ©tais":2212,"Ġword":2213,"Ġminute":2214,"ark":2215,"Ġsix":2216,"Ġprend":2217,"ĠÃ©tudi":2218,"Get":2219,"Ġtrou":2220,"Ġlight":2221,"ĠprÃ©sent":2222,"Ġrestaurant":2223,"Will":2224,"Ġcin":2225,"Ġsuff":2226,"Veuillez":2227,"Ġsick":2228,"Ġbeh":2229,"ball":2230,"Ġsound":2231,"Ġnager":2232,"Ġbri":2233,"Ġdied":2234,"illÃ©":2235,"Ġdix":2236,"itude":2237,"ually":2238,"Ġsous":2239,"Ġbag":2240,"idi":2241,"Ġrencon":2242,"quÃ©":2243,"ateur":2244,"Ġprobable":2245,"ĠprÃªt":2246,"ger":2247,"Ġstarted":2248,"Ġty":2249,"ĠmangÃ©":2250,"Ã©tÃ©":2251,"Ġexact":2252,"riture":2253,"til":2254,"uv":2255,"Ġwife":2256,"Ġhigh":2257,"adore":2258,"Ġdemander":2259,"Ġvas":2260,"Ġviens":2261,"Ġtemp":2262,"Quelqu":2263,"Give":2264,"Ġdevrait":2265,"Ã©rÃ©":2266,"Ġconfi":2267,"Ġenvie":2268,"Ġdollars":2269,"Mary":2270,"Ġutil":2271,"Ġair":2272,"Thank":2273,"Ġaucun":2274,"Take":2275,"ĠtÃªte":2276,"ommes":2277,"aise":2278,"Ġstand":2279,"Ġheureuse":2280,"Ġchaque":2281,"Pren":2282,"son":2283,"Ġface":2284,"Ġgone":2285,"Ġsuiv":2286,"Ġclass":2287,"Ġfinished":2288,"Ġsouhait":2289,"Ġmois":2290,"Does":2291,"Ġamus":2292,"Ġreste":2293,"ĠrÃ©union":2294,"oman":2295,"Ġwindow":2296,"ume":2297,"Ġwear":2298,"Ġserait":2299,"Ġseulement":2300,"Ġwrit":2301,"Ġsurprised":2302,"Ġvivre":2303,"Ġinform":2304,"30":2305,"Ġvite":2306,"urer":2307,"Ġspend":2308,"Merci":2309,"Ġdiction":2310,"Ġmost":2311,"Ġbicy":2312,"Ġvieux":2313,"Ġinst":2314,"Ġlorsque":2315,"Go":2316,"Vou":2317,"ĠdÃ®":2318,"ĠÃ©tr":2319,"Ġpersonnes":2320,"Ġmalade":2321,"iques":2322,"Ġimag":2323,"Ġthose":2324,"Ġgare":2325,"ĠdÃ©m":2326,"Ġcomprendre":2327,"ĠmÃ©de":2328,"ĠcolÃ¨re":2329,"Veux":2330,"ason":2331,"Ġsucc":2332,"Ġpourrais":2333,"Ġacheter":2334,"Ġcomprends":2335,"Ġluck":2336,"Ġstupid":2337,"Voulez":2338,"Ġfils":2339,"ided":2340,"Ġdevrions":2341,"gard":2342,"Ġdrive":2343,"rir":2344,"Ġferais":2345,"Donne":2346,"ĠdÃ©r":2347,"Ġserv":2348,"Ġensemble":2349,"Ġlooked":2350,"ĠsÃ»re":2351,"Ġfig":2352,"Ġbi":2353,"Ġrap":2354,"Ġpian":2355,"Ġrespons":2356,"Ġbicycle":2357,"Ġsour":2358,"Ġstre":2359,"Ġhist":2360,"ĠAustral":2361,"Ġfacile":2362,"Ġnourriture":2363,"ken":2364,"Ġserai":2365,"Ġfollow":2366,"Ġmistake":2367,"Ġvoudrais":2368,"Ġforgot":2369,"Ġquite":2370,"Ġmeilleur":2371,"ĠfatiguÃ©":2372,"Sa":2373,"Ġpays":2374,"Ġmen":2375,"Ġreconn":2376,"Ġlunch":2377,"ĠgarÃ§on":2378,"Ġ\"":2379,"Ġvit":2380,"vel":2381,"ject":2382,"ĠdÃ©teste":2383,"Ġmusic":2384,"ĠJapon":2385,"Fais":2386,"ever":2387,"Ġconduire":2388,"Stop":2389,"Ces":2390,"where":2391,"Ġyeux":2392,"Ġexac":2393,"Ġmonth":2394,"Ġmil":2395,"Ġbor":2396,"Ġfroid":2397,"ArrÃªte":2398,"Ġir":2399,"Ġain":2400,"Ġcours":2401,"iness":2402,"ĠprÃ¨s":2403,"Ġpubl":2404,"Ġvue":2405,"ured":2406,"Ġlaisser":2407,"ĠthÃ©":2408,"tur":2409,"Ġnear":2410,"Ġoffice":2411,"Ġprison":2412,"Ġmettre":2413,"ĠrÃ©ponse":2414,"Nob":2415,"vision":2416,"Ġfire":2417,"Ġmovie":2418,"Sh":2419,"Ġuntil":2420,"Ġtax":2421,"ĠmaniÃ¨re":2422,"Ġjourn":2423,"old":2424,"Ġcompte":2425,"ib":2426,"ĠJe":2427,"enÃªtre":2428,"ĠcÃ´":2429,"ĠfenÃªtre":2430,"Ġrou":2431,"Ġprud":2432,"Ġweather":2433,"Ã§u":2434,"ĠoubliÃ©":2435,"Ġstory":2436,"Ġart":2437,"Ġserais":2438,"Nobody":2439,"Ġboire":2440,"Ġhair":2441,"Ġplais":2442,"ĠÃ©crit":2443,"Ġchang":2444,"Ġmakes":2445,"ler":2446,"ating":2447,"Ġcomple":2448,"Come":2449,"Ġadm":2450,"Ġregarder":2451,"ĠlaissÃ©":2452,"Laisse":2453,"Ġfour":2454,"Ġind":2455,"Ġeveryone":2456,"Ġsupposed":2457,"Ġunder":2458,"Ġfit":2459,"Ġcontre":2460,"ige":2461,"ientÃ´t":2462,"Ġsuc":2463,"ĠrÃª":2464,"Ġworry":2465,"Ġchemin":2466,"ĠcoÃ»":2467,"Ġdispos":2468,"Ġeyes":2469,"mÃ©":2470,"Ġsince":2471,"Ġanim":2472,"Ġamie":2473,"Ġautant":2474,"Ġdream":2475,"Ġregret":2476,"Ġpremier":2477,"Ġconfiance":2478,"Ġbelle":2479,"Ã¨te":2480,"Ġtravaille":2481,"ission":2482,"ĠTV":2483,"ĠÂ«":2484,"Ġrapide":2485,"ras":2486,"work":2487,"ĠsÃ©ri":2488,"ates":2489,"Ġhours":2490,"Ġcelui":2491,"Ġyours":2492,"Ġago":2493,"ably":2494,"ĠessayÃ©":2495,"iner":2496,"Ġanybody":2497,"Ġserious":2498,"Ġtravers":2499,"lot":2500,"man":2501,"ward":2502,"Ġfast":2503,"Ġru":2504,"Ġrob":2505,"Ġhead":2506,"Ġadd":2507,"Ã©lo":2508,"Ġconnaiss":2509,"Ġainsi":2510,"Ġangry":2511,"Ġsurv":2512,"Ġsmall":2513,"attend":2514,"Ġautres":2515,"Ġexactement":2516,"oubl":2517,"oyer":2518,"Ġreading":2519,"ĠprÃ©v":2520,"Ġpiano":2521,"Ġtimes":2522,"Ġguess":2523,"Ġsurpris":2524,"Ġdormir":2525,"iend":2526,"ĠbientÃ´t":2527,"Ġagree":2528,"Ġdernier":2529,"Ġbroke":2530,"Ġsil":2531,"riÃ¨re":2532,"ande":2533,"Ġopin":2534,"ked":2535,"na":2536,"Ġsy":2537,"ghter":2538,"ĠparlÃ©":2539,"Ġtant":2540,"Ġtick":2541,"Ġarriver":2542,"Ġterri":2543,"ĠÂ»":2544,"Ġvoyage":2545,"Ġhum":2546,"Ġhaving":2547,"als":2548,"Ġexactly":2549,"cer":2550,"Ġtru":2551,"Ġtrans":2552,"Ġprix":2553,"Ġconna":2554,"Ġdiscuss":2555,"em":2556,"Ġfa":2557,"Ġhimself":2558,"Ġcontent":2559,"Ġendroit":2560,"Ġadvice":2561,"Ġpicture":2562,"anche":2563,"ĠvÃ©lo":2564,"agne":2565,"Ġfell":2566,"Ġplaying":2567,"Ġradi":2568,"Ġkiss":2569,"urg":2570,"ĠcÃ´tÃ©":2571,"Ġvient":2572,"Ġusually":2573,"Ġcontinu":2574,"Our":2575,"noon":2576,"Ġtor":2577,"eure":2578,"vert":2579,"Ġclose":2580,"Ġcalled":2581,"Ġchauss":2582,"Ġtrouble":2583,"Ġfon":2584,"Ġhon":2585,"arrÃª":2586,"ett":2587,"midi":2588,"Ġcaught":2589,"Ġdess":2590,"Ġparti":2591,"Ġattendre":2592,"Ġfeeling":2593,"Ġafternoon":2594,"Ġmusique":2595,"ĠmÃ©decin":2596,"Ġsays":2597,"Ġnos":2598,"Ġreason":2599,"ical":2600,"Ġlives":2601,"Ġalors":2602,"ĠrÃ©f":2603,"Ġpouvais":2604,"Ġactu":2605,"Ġdecided":2606,"Ġboulot":2607,"Ġstudents":2608,"ĠdÃ®ner":2609,"cu":2610,"ced":2611,"less":2612,"Ġcas":2613,"Ġmontre":2614,"Ġpied":2615,"Ġexplain":2616,"Ġturned":2617,"Ġprobablement":2618,"Ġpop":2619,"Ġchans":2620,"iconque":2621,"Ġplut":2622,"amment":2623,"Ġsafe":2624,"Ġcorre":2625,"Regard":2626,"Ġcountry":2627,"Ġfou":2628,"Ġguit":2629,"oig":2630,"antÃ©":2631,"Ġran":2632,"alth":2633,"Ġverre":2634,"iquer":2635,"Ġhands":2636,"Ġclean":2637,"Ġprochaine":2638,"Ġfree":2639,"Ġbois":2640,"ettes":2641,"Ġpenser":2642,"Ġinterested":2643,"apprÃ©cie":2644,"ze":2645,"ĠL":2646,"Ġsus":2647,"Ġste":2648,"Ġmange":2649,"Ã©cess":2650,"arer":2651,"Ġcolle":2652,"Ġcause":2653,"Ġgenre":2654,"ables":2655,"Ġmour":2656,"Ġeating":2657,"Peut":2658,"Just":2659,"Ġloin":2660,"Ġteach":2661,"Ġlieu":2662,"Ġplait":2663,"Ġweren":2664,"Ġallow":2665,"Ġappre":2666,"uy":2667,"ĠgÃ©n":2668,"Ġprobably":2669,"Ġprofesseur":2670,"port":2671,"iller":2672,"Ġcheve":2673,"ĠÃ¢ge":2674,"side":2675,"Ġdau":2676,"Ġpois":2677,"Ġbat":2678,"Ġvers":2679,"Ġjoin":2680,"Ġproud":2681,"ution":2682,"Ġaccept":2683,"Ġhabit":2684,"Ġinteresting":2685,"App":2686,"Mes":2687,"Tous":2688,"lais":2689,"ettre":2690,"Ġlib":2691,"asses":2692,"Ġappreci":2693,"Ġred":2694,"icul":2695,"meric":2696,"others":2697,"Ġpatient":2698,"Ġarrived":2699,"Ġcheveux":2700,"Her":2701,"hÃ´":2702,"Ġban":2703,"ĠgÃ¢":2704,"Ġarm":2705,"umÃ©":2706,"Â»":2707,"ĠnÃ©cess":2708,"Ġval":2709,"rente":2710,"eler":2711,"Ġfoot":2712,"Ġpuisse":2713,"Ġjournal":2714,"Ġtown":2715,"akes":2716,"Ġpenses":2717,"Ġidi":2718,"Everybody":2719,"Ġbox":2720,"Ġfix":2721,"Ġradio":2722,"hors":2723,"intÃ©":2724,"ĠpremiÃ¨re":2725,"Ġnumber":2726,"ĠplutÃ´t":2727,"Ġsac":2728,"Ġdead":2729,"Ġthr":2730,"resse":2731,"Ġthinking":2732,"Ġdisapp":2733,"Ġsembl":2734,"Ġconcert":2735,"Ġcost":2736,"Ġsuper":2737,"enses":2738,"orth":2739,"Ġdifferent":2740,"yo":2741,"Ġdehors":2742,"Ġgame":2743,"anglais":2744,"ĠapprÃ©c":2745,"usement":2746,"Ġesc":2747,"Ġlangu":2748,"Ġtre":2749,"Ã¨mes":2750,"venu":2751,"Ġchanter":2752,"ial":2753,"Ġbill":2754,"arrass":2755,"lect":2756,"avait":2757,"Ġopinion":2758,"Laissez":2759,"Not":2760,"ron":2761,"Ġsnow":2762,"aines":2763,"ignor":2764,"Ġsurprise":2765,"Ġleav":2766,"Ġlaw":2767,"Ġdist":2768,"Ġappris":2769,"Ã®tre":2770,"gr":2771,"ĠE":2772,"Ġthir":2773,"Ġcatch":2774,"okyo":2775,"Ġproduit":2776,"ered":2777,"Â«":2778,"ĠP":2779,"ises":2780,"enir":2781,"fect":2782,"Ġpayer":2783,"paravant":2784,"Ġthrough":2785,"nent":2786,"uf":2787,"Ã©b":2788,"Ġbab":2789,"Ġsum":2790,"Which":2791,"blig":2792,"Ġhomework":2793,"ized":2794,"Ġfaim":2795,"Ġfonction":2796,"Ġpopul":2797,"Votre":2798,"homme":2799,"Ġleurs":2800,"Ġlater":2801,"lly":2802,"ĠÃ©ch":2803,"ĠdÃ©cidÃ©":2804,"Ġchoix":2805,"Am":2806,"Ġquick":2807,"Ġtele":2808,"These":2809,"Ġesp":2810,"Ġjoue":2811,"Ġargent":2812,"Ġdaughter":2813,"Look":2814,"eep":2815,"ĠG":2816,"llig":2817,"Ġage":2818,"Ġadvised":2819,"Ġmessage":2820,"cep":2821,"Ġparfait":2822,"Ġauparavant":2823,"uritÃ©":2824,"Ġessayer":2825,".\"":2826,"Ġbar":2827,"Ãªcher":2828,"importe":2829,"Ess":2830,"ĠimmÃ©d":2831,"Ġfavorite":2832,"Ġouv":2833,"Ġbas":2834,"Ġallons":2835,"Ġsold":2836,"Ġvin":2837,"Ġchanger":2838,"ched":2839,"Ġpeuvent":2840,"Ġentendre":2841,"Ġtrip":2842,"Ġappreciate":2843,"Ġpark":2844,"dd":2845,"ther":2846,"glais":2847,"Ġchaud":2848,"Keep":2849,"oking":2850,"Ġpun":2851,"ĠMon":2852,"ĠrÃ©ve":2853,"tenir":2854,"Ġimpos":2855,"Ġrencontrer":2856,"Ġtype":2857,"ctu":2858,"Ġsun":2859,"Ġdel":2860,"Ġdites":2861,"Ġagainst":2862,"Ġdiscuter":2863,"Ã¯":2864,"ĠsÃ©c":2865,"Ġhos":2866,"Ġrich":2867,"Ġoutside":2868,"ĠTokyo":2869,"Ġsuggest":2870,"ĠimmÃ©diate":2871,"not":2872,"ĠsÃ©":2873,"Ġtrait":2874,"Ġsto":2875,"Pourriez":2876,"Ġliving":2877,"Ġfinish":2878,"Ġsaying":2879,"ĠAmeric":2880,"Ġintellig":2881,"Ġviend":2882,"Ġsub":2883,"ither":2884,"igne":2885,"ĠproblÃ¨mes":2886,"Ġthen":2887,"Ġgrow":2888,"Ġapprendre":2889,"Ġmarcher":2890,"cs":2891,"Ġlarge":2892,"Ġbout":2893,"ĠdÃ©solÃ©e":2894,"Ġdevoirs":2895,"Ġhistoire":2896,"oh":2897,"Ġdiv":2898,"Ġcomputer":2899,"Ġneeds":2900,"ĠÃ©g":2901,"Ġbusiness":2902,"Ġnouvelles":2903,"Ġpouvait":2904,"Ġprochain":2905,"Ġtent":2906,"Ġrac":2907,"alent":2908,"Ġcommence":2909,"Ġkept":2910,"Ġbecome":2911,"ĠimmÃ©diatement":2912,"cess":2913,"Ġtree":2914,"let":2915,"ensive":2916,"apon":2917,"Ġmach":2918,"Ġpensez":2919,"Ġtouch":2920,"Ġconvain":2921,"Ġhospital":2922,"Ġdro":2923,"Ã©m":2924,"Ġwine":2925,"Ġlau":2926,"Ġlie":2927,"Ġattrap":2928,"ĠD":2929,"omet":2930,"unk":2931,"Ġoblig":2932,"Ġsuit":2933,"ower":2934,"Ġtrave":2935,"ĠprÃ©c":2936,"Ġtaking":2937,"Ã´le":2938,"Ã§ons":2939,"lfriend":2940,"Ġvisite":2941,"Ġstrong":2942,"ĠJapanese":2943,"Ġhungry":2944,"Notre":2945,"aille":2946,"Ġshort":2947,"Ġsecond":2948,"Ġshoes":2949,"Ġcu":2950,"Ġvont":2951,"tez":2952,"Pourrais":2953,"ressed":2954,"ĠrÃ©pondre":2955,"Ġimpossible":2956,"ric":2957,"Ġperdre":2958,"Ġpromise":2959,"Ġgirlfriend":2960,"ĠH":2961,"Ġgre":2962,"Ġhealth":2963,"ĠrencontrÃ©":2964,"Ġbehind":2965,"Ġborn":2966,"ĠÅĵ":2967,"Ġcut":2968,"ication":2969,"Ġcloth":2970,"Ġcent":2971,"Ġcass":2972,"Ġfore":2973,"user":2974,"Ã¨ve":2975,"Ġanglais":2976,"ĠÃ©tions":2977,"Ġmaking":2978,"Ġbuild":2979,"ĠoccupÃ©e":2980,"Ġordin":2981,"Ġsuffis":2982,"Ġimagin":2983,"gan":2984,"Ġmoy":2985,"Ġteam":2986,"Ġcheck":2987,"venir":2988,"ĠsÃ©curitÃ©":2989,"cl":2990,"rou":2991,"Ġsavez":2992,"Ġcoin":2993,"ĠrÃ¨":2994,"Ġparce":2995,"Ġpeine":2996,"Ġolder":2997,"ĠboÃ®":2998,"Ġenseign":2999,"zz":3000,"Ġwar":3001,"Ġparc":3002,"Ġfront":3003,"lÃ©ch":3004,"Ġbegin":3005,"ĠcommencÃ©":3006,"Ġchaussures":3007,"ĠnÃ©cessaire":3008,"Ġbaby":3009,"Voud":3010,"usÃ©":3011,"Ġamou":3012,"quipe":3013,"Ġpublic":3014,"ĠMonday":3015,"rons":3016,"Ġdie":3017,"Ġpick":3018,"Ġfier":3019,"Ġsavait":3020,"Ġmains":3021,"Ġguy":3022,"ray":3023,"Ġlose":3024,"Ġlum":3025,"Ġwoman":3026,"Ġbase":3027,"Ã¨tement":3028,"quel":3029,"Ġcomplain":3030,"Ġgagner":3031,"Ġtaxi":3032,"Ġfive":3033,"amed":3034,"cient":3035,"Ġneeded":3036,"mbre":3037,"Ġperfect":3038,"Ġchercher":3039,"Maybe":3040,"Ġchoice":3041,"Ġmagas":3042,"Ġbirth":3043,"Ġsummer":3044,"fer":3045,"enez":3046,"apeau":3047,"Ġworks":3048,"ĠÃ©crire":3049,"Ġstayed":3050,"ĠterminÃ©":3051,"fast":3052,"occup":3053,"Ġallez":3054,"Ġpaid":3055,"inst":3056,"rieur":3057,"Ġchois":3058,"Ġaband":3059,"Ã¢t":3060,"Ġswe":3061,"Ġrevoir":3062,"Att":3063,"Ġapolog":3064,"Ġlaugh":3065,"fois":3066,"Ġcade":3067,"ĠbÃ©b":3068,"irer":3069,"Ġeaten":3070,"Ġdispose":3071,"Ġcinq":3072,"aw":3073,"Ġder":3074,"Ġsave":3075,"Ġriche":3076,"Ġcompany":3077,"Ġclasse":3078,"Ġfull":3079,"ĠÃ©tudier":3080,"ĠcomplÃ¨tement":3081,"Ġlangue":3082,"ĠsantÃ©":3083,"onde":3084,"agit":3085,"ĠÃ©v":3086,"airs":3087,"Ġsimple":3088,"Ġcapable":3089,"Ġnombreux":3090,"Voi":3091,"rÃ©e":3092,"Ġdate":3093,"Ġate":3094,"Ġsoi":3095,"Ġopp":3096,"Ġprin":3097,"Ġaurait":3098,"Ġrentrer":3099,"Ġpropre":3100,"Ġhurry":3101,"Ġtomber":3102,"Pense":3103,"bas":3104,"Ġmur":3105,"ĠÃ©cout":3106,"Ġclothes":3107,"fu":3108,"Ġhat":3109,"Ġavais":3110,"Ġvoulons":3111,"ĠOK":3112,"Ġmachine":3113,"Ex":3114,"Fait":3115,"Sais":3116,"Ġdark":3117,"ines":3118,"Ġmed":3119,"Ġdeal":3120,"antes":3121,"Ã©tr":3122,"quelle":3123,"Ġferai":3124,"ĠdÃ©cision":3125,"Ġcertaine":3126,"ĠblessÃ©":3127,"Ġbreakfast":3128,"Ġcomplete":3129,"Ġchanson":3130,"lus":3131,"Ġz":3132,"Ġpie":3133,"Ġcity":3134,"Ġfish":3135,"aig":3136,"Ġils":3137,"Ġbruit":3138,"Ġlundi":3139,"Ġstudent":3140,"Ġsignif":3141,"Ã§a":3142,"Ġdim":3143,"Ġju":3144,"Ġkn":3145,"oyÃ©":3146,"Ġcraz":3147,"Ġpleuv":3148,"Ġreport":3149,"Penses":3150,"fort":3151,"Ġpress":3152,"Ġlaisse":3153,"Ġhit":3154,"tel":3155,"Ġenn":3156,"Ġfrapp":3157,"ĠÃ©l":3158,"Ġkey":3159,"Ġtest":3160,"Ġsorte":3161,"Ġhour":3162,"Ã©tud":3163,"Ġparticul":3164,"Ġdevenir":3165,"Ġemploi":3166,"Ġidiot":3167,"ĠderriÃ¨re":3168,"Was":3169,"ĠK":3170,"ĠcÅĵur":3171,"Ġbeer":3172,"ics":3173,"agÃ©":3174,"Ġrent":3175,"Ġimpression":3176,"Ġfunny":3177,"Ġrapidement":3178,"Ġquickly":3179,"ĠboÃ®te":3180,"Ġcrazy":3181,"li":3182,"Ġill":3183,"Ġdroit":3184,"ited":3185,"ĠbiÃ¨re":3186,"ĠreÃ§u":3187,"Ġplain":3188,"oser":3189,"Ġfruit":3190,"Ġeverybody":3191,"Ġviol":3192,"habitude":3193,"erais":3194,"ĠnumÃ©":3195,"Ġgun":3196,"Ġjapon":3197,"pping":3198,"Ġresse":3199,"Ġfumer":3200,"ĠtÃ©lÃ©vision":3201,"Ġautor":3202,"ĠnumÃ©ro":3203,"Dites":3204,"annÃ©e":3205,"tres":3206,"Ġexpensive":3207,"Ġassis":3208,"Ġinvited":3209,"ĠfaÃ§on":3210,"ps":3211,"Ġcup":3212,"Ġfleur":3213,"Ġdesc":3214,"ĠappelÃ©":3215,"Ġvacances":3216,"Pensez":3217,"Faites":3218,"lent":3219,"ĠR":3220,"Ġtrente":3221,"Ġform":3222,"Ġmontrer":3223,"cial":3224,"ĠaimÃ©":3225,"Ġpresent":3226,"Ġwatching":3227,"ĠbÃ©bÃ©":3228,"Savez":3229,"ls":3230,"naire":3231,"Ġpoi":3232,"ative":3233,"Ġeng":3234,"irÃ©":3235,"Ġasleep":3236,"Ġrespect":3237,"Ġperd":3238,"iquÃ©":3239,"Ġcommencer":3240,"Ġutiliser":3241,"bed":3242,"Ġchapeau":3243,"ules":3244,"Ġimpat":3245,"Ġvouloir":3246,"Ġpolit":3247,"intention":3248,"cÃ©":3249,"tte":3250,"indre":3251,"Ġfas":3252,"Ġcelle":3253,"lace":3254,"Ġscared":3255,"Ġrappelle":3256,"Ġmauvaise":3257,"ĠarrÃªtÃ©":3258,"Ġwearing":3259,"ĠrÃ©flÃ©ch":3260,"Ġbuilding":3261,"rÃ©s":3262,"Ġroute":3263,"Ġbring":3264,"Ġhotel":3265,"Ġmagasin":3266,"Ton":3267,"by":3268,"ta":3269,"ener":3270,"Ġlist":3271,"ĠlÃ©g":3272,"atre":3273,"Ġheart":3274,"tures":3275,"Ġcomes":3276,"Ġprojet":3277,"ives":3278,"Ġsouviens":3279,"rist":3280,"Ġlait":3281,"Ġnecess":3282,"ĠAustralia":3283,"Ġbot":3284,"Ġdeath":3285,"ush":3286,"Ġrece":3287,"Ġcannot":3288,"Ġwhole":3289,"Ġquiet":3290,"New":3291,"Ġspent":3292,"Ġmod":3293,"Ġdecision":3294,"ween":3295,"Ġlucky":3296,"ming":3297,"Ġtall":3298,"Ġworth":3299,"Ġfont":3300,"Ġboss":3301,"Ġneigh":3302,"iel":3303,"Ġparv":3304,"Ġworried":3305,"ĠclÃ©":3306,"Ġsport":3307,"Ġkids":3308,"Ġneighb":3309,"To":3310,"hist":3311,"run":3312,"ĠmÃ©d":3313,"Ġner":3314,"itÃ©s":3315,"Ġwhe":3316,"Ġneige":3317,"Ġposer":3318,"Ġplein":3319,"Ġstupide":3320,"Ġbegan":3321,"ĠarrÃªter":3322,"Ġinformation":3323,"Ġticket":3324,"Ġtort":3325,"Try":3326,"Ã©rer":3327,"ĠnÃ©":3328,"Ġnois":3329,"Ġem":3330,"Ġelles":3331,"Ġrue":3332,"Ġgoes":3333,"ĠrÃ©al":3334,"Ġress":3335,"Ġprends":3336,"Ã¢mes":3337,"accident":3338,"Ġlived":3339,"Ġpuiss":3340,"Ġsatisfait":3341,"Somet":3342,"Ġfact":3343,"quer":3344,"aim":3345,"Ġleg":3346,"ointed":3347,"Ġdevant":3348,"ĠrÃ©uss":3349,"arth":3350,"Ġproblems":3351,"Ġpaper":3352,"Aim":3353,"Tr":3354,"set":3355,"Ġothers":3356,"Ġait":3357,"Ġwall":3358,"Ġdeb":3359,"Here":3360,"Comme":3361,"ĠrÃ©pond":3362,"Ġbecame":3363,"Ġsatisf":3364,"Ġrobe":3365,"arrÃªter":3366,"Cet":3367,"ton":3368,"Ġmill":3369,"Ġfight":3370,"Ġfasse":3371,"ĠvÃªte":3372,"Ġchoc":3373,"ĠprÃªte":3374,"ĠIt":3375,"irt":3376,"Ġstore":3377,"Ġsoin":3378,"chez":3379,"Ġtelling":3380,"Ġaccomp":3381,"gles":3382,"Ã©rif":3383,"Ġrecomm":3384,"Ġrapport":3385,"Ġgarder":3386,"iversaire":3387,"Ġmilk":3388,"Ġterrible":3389,"Des":3390,"Ġurg":3391,"ceed":3392,"Ġappro":3393,"Ġlock":3394,"Ġdrunk":3395,"Ġbetween":3396,"Ġfaisait":3397,"Everything":3398,"Ġchanged":3399,"aff":3400,"Ġtim":3401,"Ġrare":3402,"Ġdonc":3403,"ended":3404,"aged":3405,"Ġriver":3406,"Ġpossi":3407,"Ġhandle":3408,"Ġclear":3409,"ĠprÃ©fÃ¨re":3410,"Ġstudying":3411,"Ġcadeau":3412,"bres":3413,"ru":3414,"Ġnorm":3415,"iter":3416,"Ġve":3417,"unday":3418,"Ġjet":3419,"Ġsty":3420,"ccas":3421,"room":3422,"Ġcake":3423,"Ġfinir":3424,"Ġweekend":3425,"Ġveulent":3426,"Auc":3427,"Ġlanguage":3428,"Ġbirthday":3429,"ĠCan":3430,"Ġset":3431,"onner":3432,"Ġble":3433,"ouss":3434,"Ġlibre":3435,"Ġamb":3436,"acheter":3437,"ove":3438,"Ã«":3439,"Ġdest":3440,"onom":3441,"oose":3442,"ĠdÃ©f":3443,"ape":3444,"Ã»t":3445,"Ġsuppos":3446,"Ġorgan":3447,"Ġremar":3448,"ĠSunday":3449,"Ġ19":3450,"Ġkilled":3451,"Ġrouge":3452,"Ġtravel":3453,"ĠvÃªtements":3454,"noc":3455,"ques":3456,"Ġborrow":3457,"ature":3458,"Ġwhich":3459,"Ġtakes":3460,"ettez":3461,"Ġclim":3462,"Ġclosed":3463,"Ġwrote":3464,"Ġvieille":3465,"Ġallowed":3466,"fully":3467,"rance":3468,"Ġatte":3469,"ensÃ©":3470,"Ġguerre":3471,"Ġnombreuses":3472,"Ġsuccess":3473,"Ġplaisir":3474,"ned":3475,"Ġtrad":3476,"Ã¨que":3477,"Ġliked":3478,"Ġsomme":3479,"Ġvoulu":3480,"ormais":3481,"Ġstopped":3482,"ding":3483,"lo":3484,"ness":3485,"oudre":3486,"Ġrather":3487,"illage":3488,"Ġriv":3489,"Ġbras":3490,"Ġposs":3491,"Ġposte":3492,"Ġconseil":3493,"Ġlorsqu":3494,"Ġabsol":3495,"Many":3496,"iver":3497,"Ġfus":3498,"ries":3499,"Ġlaquelle":3500,"Ġsole":3501,"ĠmarchÃ©":3502,"Ġtalked":3503,"Ġthank":3504,"Ġpleurer":3505,"Ġexcuses":3506,"Ġaffaires":3507,"Ġmistakes":3508,"Ġmissed":3509,"Ġcuisine":3510,"ieurs":3511,"ĠY":3512,"ĠPar":3513,"Ġhid":3514,"ari":3515,"Ġinnoc":3516,"ĠrÃ©c":3517,"aper":3518,"Ġhelped":3519,"Ġprefer":3520,"Ġhappening":3521,"Ġaffaire":3522,"Ġstrange":3523,"Ġsymp":3524,"Ġtot":3525,"Ġhalf":3526,"Ġgets":3527,"Ġferm":3528,"Ġexper":3529,"Ġcourt":3530,"Ġnecessary":3531,"Ġdange":3532,"Ġporter":3533,"arre":3534,"idence":3535,"Ġearth":3536,"Ã¨ne":3537,"Ġwords":3538,"areil":3539,"NoÃ«":3540,"Ġmeilleure":3541,"Ġorder":3542,"ĠÃ©tudiants":3543,"ĠgÃ¢teau":3544,"Ġsoleil":3545,"NoÃ«l":3546,"Ġcase":3547,"Ġmang":3548,"Ġjard":3549,"Ġknown":3550,"raient":3551,"bli":3552,"Ġworked":3553,"ails":3554,"ĠlumiÃ¨re":3555,"One":3556,"iÃ¨res":3557,"Ġmer":3558,"Ġnerve":3559,"Ġfilles":3560,"Ġquatre":3561,"ortes":3562,"Ġhaut":3563,"Ġplans":3564,"Ġdonne":3565,"Ġspeaking":3566,"Ġpleas":3567,"Ġflo":3568,"Ġabsent":3569,"Ġdangerous":3570,"od":3571,"ĠNew":3572,"Ġsense":3573,"Ġnoir":3574,"unes":3575,"Ġsell":3576,"Ġforward":3577,"Ġalong":3578,"Ġchem":3579,"Ġchev":3580,"Ġcarte":3581,"Ġliste":3582,"Ġmots":3583,"Ġstreet":3584,"ĠconnaÃ®t":3585,"Ġmourir":3586,"Ġimpatient":3587,"Ġpan":3588,"Ġupset":3589,"Ġsmoking":3590,"Ġterre":3591,"ĠintÃ©ressant":3592,"Ġsuffisamment":3593,"Ġpossib":3594,"emb":3595,"gÃ©":3596,"ĠN":3597,"Ġess":3598,"Ġtas":3599,"enf":3600,"Ġbeach":3601,"ayez":3602,"rest":3603,"Ġrendu":3604,"Ġentrer":3605,"Ġprep":3606,"Ġsouff":3607,"Ġenvir":3608,"Ġevening":3609,"Ġfigured":3610,"Ġreconnaiss":3611,"ohn":3612,"Soyez":3613,"cul":3614,"dess":3615,"sh":3616,"Ġhors":3617,"Ġquiconque":3618,"Ġseat":3619,"Ġpluie":3620,"Ġcoat":3621,"Ġfinally":3622,"Ġspeaks":3623,"Ġexpected":3624,"Ġprudent":3625,"ĠrÃªve":3626,"jou":3627,"mas":3628,"Ġinj":3629,"mell":3630,"Ġplage":3631,"Were":3632,"Ġrire":3633,"Ġbrought":3634,"Ġpriv":3635,"ĠdÃ©sormais":3636,"Ġfuture":3637,"ĠsÃ©rie":3638,"Ġcorrect":3639,"Ġthirty":3640,"Ġordinateur":3641,"Ġjardin":3642,"rom":3643,"Ġeux":3644,"Ġcard":3645,"ĠbÃ¢t":3646,"uel":3647,"Ġoffer":3648,"Ġblack":3649,"Ġplane":3650,"ĠrÃ©soudre":3651,"ccasion":3652,"Ġfis":3653,"ĠvÃ©rif":3654,"Ġrequ":3655,"irai":3656,"Ġits":3657,"Ġless":3658,"Ġmanque":3659,"Ġmanteau":3660,"Ġdemanda":3661,"Ġsouci":3662,"Ġsolution":3663,"Ãīt":3664,"Ġdictionary":3665,"Ġdictionnaire":3666,"Lors":3667,"Ġvaut":3668,"Ġleast":3669,"owers":3670,"ĠchangÃ©":3671,"Ġamies":3672,"Ġhappens":3673,"Ġphotos":3674,"Ġembarrass":3675,"Ġdivor":3676,"Ġcuri":3677,"Ġcompletely":3678,"Ġdimanche":3679,"ristmas":3680,"mon":3681,"mment":3682,"Ġtasse":3683,"entendre":3684,"ĠannÃ©e":3685,"Ġrid":3686,"ĠannÃ©es":3687,"Ġrunning":3688,"Ġbroken":3689,"Prends":3690,"Cert":3691,"ument":3692,"Ġu":3693,"Ġdriv":3694,"Ġsmell":3695,"erv":3696,"Ġcir":3697,"ĠcÃ©l":3698,"sel":3699,"Ġprot":3700,"Ġtelle":3701,"Ġavoc":3702,"Ġloves":3703,"Ġmove":3704,"Ġaccep":3705,"Ġfurent":3706,"Ġsucceed":3707,"Ġpost":3708,"ĠmÃ©r":3709,"Ġfine":3710,"enty":3711,"Ġopt":3712,"Ġretur":3713,"Ġrav":3714,"ira":3715,"ctob":3716,"Ġcoll":3717,"Ġmoindre":3718,"Ġdisappointed":3719,"Ġleaving":3720,"Rien":3721,"Ġdance":3722,"Ġpen":3723,"Ġsoup":3724,"Ġchiens":3725,"Ġwalked":3726,"Someone":3727,"Ġslow":3728,"Thanks":3729,"Ġfleurs":3730,"roy":3731,"rib":3732,"amp":3733,"Ġcompris":3734,"ĠprÃ©par":3735,"ĠrÃ©parer":3736,"ĠJohn":3737,"Ġemprun":3738,"ĠgÃ©nÃ©r":3739,"Al":3740,"ieu":3741,"lu":3742,"ront":3743,"ub":3744,"Ġ5":3745,"Ġceux":3746,"Ġnett":3747,"Ġbate":3748,"Ġroad":3749,"Ġfamous":3750,"attends":3751,"Ġcamp":3752,"hÃ´pital":3753,"ĠriviÃ¨re":3754,"reed":3755,"Ġfond":3756,"Ġbiz":3757,"Ġhold":3758,"Ġremer":3759,"Ġinqui":3760,"iche":3761,"ĠdÃ©l":3762,"Ġnovel":3763,"ogn":3764,"Ġgarden":3765,"Ġquitter":3766,"Ġintelligent":3767,"Pe":3768,"Ġcand":3769,"Ġjeu":3770,"ames":3771,"Ġprodu":3772,"dered":3773,"Ġpersu":3774,"Ġmesure":3775,"Ġdogs":3776,"expl":3777,"Ġwritten":3778,"Ġbibli":3779,"Ġlibr":3780,"Ġchocol":3781,"Ġbiblioth":3782,"Allez":3783,"dÃ©":3784,"Ġtreat":3785,"Ġmit":3786,"Ġmad":3787,"ility":3788,"Ġparap":3789,"illÃ©e":3790,"urope":3791,"Ġprogr":3792,"Ġseeing":3793,"Ġappe":3794,"Ġmatch":3795,"Ġconstr":3796,"Ġdrinking":3797,"Ġdormi":3798,"Ġlawy":3799,"ded":3800,"Ġhommes":3801,"Ġremp":3802,"Ġtromp":3803,"ĠdÃ©g":3804,"Ġferiez":3805,"Ġregarde":3806,"phon":3807,"Ġhabitu":3808,"Ġswimming":3809,"ĠsuccÃ¨s":3810,"Ġguitar":3811,"band":3812,"lla":3813,"Ġhonn":3814,"Ġlac":3815,"Ġweight":3816,"endez":3817,"onnÃ©":3818,"attendre":3819,"exp":3820,"Dem":3821,"Ãīc":3822,"Ġeffort":3823,"Ġactually":3824,"Aren":3825,"Ġdent":3826,"ĠrÃ©jou":3827,"Ġsomewhere":3828,"Ġwhether":3829,"An":3830,"DÃ©s":3831,"Ses":3832,"ĠNoÃ«l":3833,"Ġpur":3834,"Ġrecher":3835,"Ġsuite":3836,"cell":3837,"Ġrum":3838,"Ġnote":3839,"Ġcommen":3840,"ĠpayÃ©":3841,"Ġlearned":3842,"Ġcamera":3843,"Ġcrime":3844,"ĠÃ©trang":3845,"Ġpoids":3846,"Ġnervous":3847,"Ġumbre":3848,"selves":3849,"Af":3850,"Ġpou":3851,"Ġsang":3852,"isc":3853,"Ġbank":3854,"Ġrules":3855,"Ġride":3856,"Ġcrit":3857,"Ġcrying":3858,"Ġappar":3859,"Ġaddress":3860,"Ġnoise":3861,"Ġsand":3862,"cha":3863,"Ġtaken":3864,"road":3865,"prit":3866,"Ġsouc":3867,"Ġsmoke":3868,"Ġrecogn":3869,"Donnez":3870,"Ġpoisson":3871,"Ġapologize":3872,"histoire":3873,"dessus":3874,"Ġbateau":3875,"Ġlibrary":3876,"ĠbibliothÃ¨que":3877,"Me":3878,"ane":3879,"Ġvillage":3880,"usband":3881,"Ġjol":3882,"Ġhasn":3883,"Ġloc":3884,"Ġconsider":3885,"Ġflowers":3886,"ĠinvitÃ©":3887,"Ġglass":3888,"ĠvolÃ©":3889,"Stay":3890,"Ġgrosse":3891,"Prenez":3892,"Ġwriting":3893,"ĠrÃ¨gles":3894,"Ġamoureux":3895,"People":3896,"Beau":3897,"form":3898,"iven":3899,"uve":3900,"Ġmens":3901,"Ġball":3902,"lev":3903,"icle":3904,"Ġplup":3905,"Ġwaste":3906,"ague":3907,"ortun":3908,"Ġgentil":3909,"clock":3910,"Ġpleuvoir":3911,"Ġdangereux":3912,"Ġplupart":3913,"Ġvide":3914,"Ġhusband":3915,"prise":3916,"Ġsomebody":3917,"Ġcommun":3918,"Ġpainting":3919,"Ġpermission":3920,"Ġembrass":3921,"Ġhonest":3922,"dden":3923,"Voici":3924,"Exc":3925,"Ã©tranger":3926,"Ġfloor":3927,"ual":3928,"ĠhÃ´":3929,"rig":3930,"lame":3931,"ĠÃ©quipe":3932,"Ġvenue":3933,"Ġfaisons":3934,"Ġendorm":3935,"Ġpoor":3936,"Ġsouhaite":3937,"ĠÃ©trange":3938,"ĠLond":3939,"Ġmedic":3940,"Dans":3941,"ber":3942,"luie":3943,"Ġsad":3944,"onv":3945,"ann":3946,"Ġbord":3947,"Ġheav":3948,"ĠallÃ©e":3949,"Ġstar":3950,"ortÃ©":3951,"Ġdise":3952,"ived":3953,"appelle":3954,"ĠÃ©cole":3955,"Ġsmart":3956,"autres":3957,"Ġautour":3958,"Ġfemmes":3959,"Ġski":3960,"Regarde":3961,"Ġparapluie":3962,"Ġumbrella":3963,"omen":3964,"ĠÃī":3965,"iments":3966,"Ã¨de":3967,"Ã©cu":3968,"Ġalive":3969,"Ġfinalement":3970,"Ġfamil":3971,"ĠrestÃ©":3972,"Ġrepas":3973,"ĠregardÃ©":3974,"Ġmoyen":3975,"Ġjaponais":3976,"Ġbizarre":3977,"AprÃ¨s":3978,"Now":3979,"Ta":3980,"Ġtalent":3981,"Ġpauv":3982,"Ġbath":3983,"ots":3984,"Ġuncle":3985,"Ġdanser":3986,"Ġfaute":3987,"Ġintro":3988,"Ġlunettes":3989,"Ġproposition":3990,"Ġshopping":3991,"Ġnature":3992,"Ġrisk":3993,"Ã©v":3994,"Ġwarn":3995,"Ġwarm":3996,"Ġgas":3997,"Ġserez":3998,"ortez":3999,"Ġcouple":4000,"Ġ10":4001,"ĠChristmas":4002,"Ġconvainc":4003,"Ġlawyer":4004,"rew":4005,"head":4006,"itut":4007,"Ġgif":4008,"Ġowe":4009,"Ġprote":4010,"Ġappl":4011,"Ġcontact":4012,"Ġloved":4013,"ograp":4014,"Ġconcern":4015,"Ġrendez":4016,"Ġcouleur":4017,"ĠfatiguÃ©e":4018,"Ġlistening":4019,"Ġnewsp":4020,"Nothing":4021,"Ġbaseball":4022,"Ġsommeil":4023,"Ġremerc":4024,"Se":4025,"mbl":4026,"Ġpire":4027,"Ġpommes":4028,"Ġlim":4029,"itch":4030,"Ġvendre":4031,"arriver":4032,"Ġchair":4033,"tern":4034,"illa":4035,"Ġsalle":4036,"Ġpizz":4037,"raÃ®":4038,"Ã©rience":4039,"Ġshowed":4040,"Ġsolve":4041,"ĠsÃ©rieux":4042,"ement":4043,"ior":4044,"irent":4045,"ross":4046,"Ġside":4047,"Ġoncle":4048,"Ġmarche":4049,"Ġguys":4050,"essayer":4051,"Ġsleeping":4052,"Ġdevenu":4053,"Ġfonctionne":4054,"Ġnormal":4055,"ĠYork":4056,"Put":4057,"Plus":4058,"ech":4059,"rÃ¨s":4060,"yons":4061,"Ġbal":4062,"outer":4063,"auche":4064,"Ġjeunes":4065,"amen":4066,"Ġsoci":4067,"Ġdesk":4068,"oles":4069,"Ġship":4070,"Ġplusieurs":4071,"Ġwhite":4072,"Ġthinks":4073,"ĠrÃ©ussi":4074,"Ġdirect":4075,"Ġfera":4076,"Ġfermer":4077,"ocked":4078,"Ġopened":4079,"Ġcoucher":4080,"Ġeffray":4081,"ĠcoÃ»te":4082,"ĠmÃ©dic":4083,"friend":4084,"way":4085,"eriez":4086,"ediate":4087,"agn":4088,"Ġouvert":4089,"Ġconsc":4090,"Ġimmediate":4091,"Ġ20":4092,"Ġdirait":4093,"ĠParis":4094,"Beaucoup":4095,"Br":4096,"cte":4097,"Ġmount":4098,"rice":4099,"Ġparfois":4100,"nement":4101,"utile":4102,"ustom":4103,"Ġentend":4104,"Ġfaul":4105,"Ġsentir":4106,"Ġtenir":4107,"Ġduring":4108,"Ġrappeler":4109,"ĠtombÃ©":4110,"Ġgirls":4111,"Ġvacation":4112,"ArrÃªtez":4113,"Gard":4114,"Ġpot":4115,"Ġpouss":4116,"Ġmir":4117,"Ġblame":4118,"Ġmeans":4119,"ilitÃ©":4120,"Ġtran":4121,"ĠFrance":4122,"Toutes":4123,"Ġpull":4124,"exc":4125,"Ã©nient":4126,"ĠAustralie":4127,"Lorsque":4128,"Ġmedicine":4129,"onvÃ©nient":4130,"rop":4131,"Ġignor":4132,"Ġbreat":4133,"imag":4134,"avion":4135,"Ãªt":4136,"Ġappareil":4137,"Ġresult":4138,"Ġimpro":4139,"Ġkeys":4140,"Ġsmile":4141,"Ġpatron":4142,"Ġdoub":4143,"Ġhorri":4144,"Ġadmit":4145,"Ġdessus":4146,"Any":4147,"rup":4148,"ĠaidÃ©":4149,"Ġhop":4150,"Ġlever":4151,"Ġprit":4152,"ained":4153,"Ġsel":4154,"igner":4155,"olved":4156,"Ġwilling":4157,"Ġattendu":4158,"Ġsometimes":4159,"Ġcommand":4160,"ouvert":4161,"Ġconcent":4162,"Ġtableau":4163,"ĠprÃªter":4164,"ĠrÃ©sult":4165,"Ġcolor":4166,"ĠdÃ©but":4167,"Ġprepared":4168,"ĠrÃ©jouis":4169,"Ġignore":4170,"Ġlend":4171,"Ġbother":4172,"ator":4173,"atique":4174,"Ġdet":4175,"Ġeither":4176,"Ġrh":4177,"Ġgolf":4178,"iennes":4179,"Ġgrou":4180,"Ġmalad":4181,"Ġcourse":4182,"Ġhorse":4183,"oublie":4184,"Ġtransl":4185,"Ġcollege":4186,"ĠcassÃ©":4187,"Ġpiece":4188,"dÃ©jeuner":4189,"After":4190,"ĠÃīt":4191,"Ġdoute":4192,"Ġlying":4193,"Ġmign":4194,"Ġmention":4195,"Ġni":4196,"omb":4197,"Ġoise":4198,"iles":4199,"Ġcharg":4200,"Ġpron":4201,"Ġaurais":4202,"olÃ©":4203,"Ġexcell":4204,"Ġabroad":4205,"Ġspeech":4206,"Ġcourir":4207,"Ġsorti":4208,"ĠprÃ©fÃ©r":4209,"ĠgagnÃ©":4210,"Ġmariage":4211,"ĠChin":4212,"Ġfootball":4213,"instant":4214,"Et":4215,"cÃ©e":4216,"oÃ¹":4217,"Ġsle":4218,"Ġfool":4219,"Ġjoke":4220,"Ġsudden":4221,"Ġchante":4222,"Ġdonna":4223,"ffic":4224,"Ceci":4225,"Ġspoke":4226,"Ġbelong":4227,"Ã©rique":4228,"Ġcourant":4229,"Ġseconde":4230,"Ġdurant":4231,"Ġanniversaire":4232,"Ġapart":4233,"ĠprÃ©senter":4234,"attendais":4235,"Ġressemble":4236,"Ġparviens":4237,"Ġcheval":4238,"uer":4239,"Ġpast":4240,"Ġtriste":4241,"iennent":4242,"Ġshot":4243,"Ġattent":4244,"Ġasking":4245,"ĠprÃ©p":4246,"Quelque":4247,"Ġrefuse":4248,"Ġconseils":4249,"Ġboyfriend":4250,"Ġvoyager":4251,"Ġmagaz":4252,"Ġsounds":4253,"Ġtelephone":4254,"Rest":4255,"lier":4256,"Ġtop":4257,"ides":4258,"Ġdos":4259,"irm":4260,"Ġpard":4261,"Ġparlez":4262,"ĠallÃ©s":4263,"aprÃ¨s":4264,"Ġclub":4265,"Ġpromised":4266,"ĠgarÃ§ons":4267,"Ġappeler":4268,"Ġavocat":4269,"Sois":4270,"ket":4271,"Ġbons":4272,"Ġbonnes":4273,"Ġchats":4274,"Ġcharge":4275,"Ġshut":4276,"Ã©crire":4277,"Ġmaj":4278,"Ġcry":4279,"Ġseras":4280,"iÃ¨rement":4281,"Ġwaited":4282,"Ġglasses":4283,"Allons":4284,"Ġafford":4285,"Ġsurviv":4286,"Ġdestin":4287,"Ġchemise":4288,"Both":4289,"alle":4290,"land":4291,"ently":4292,"entends":4293,"ored":4294,"Those":4295,"ĠrÃ©g":4296,"Ġseriez":4297,"appeler":4298,"Ġsupporter":4299,"Ġpapier":4300,"ĠdiffÃ©rence":4301,"Ġdifference":4302,"Ġdressed":4303,"ĠEurope":4304,"Something":4305,"Ġinnocent":4306,"ĠbÃ¢timent":4307,"gment":4308,"uite":4309,"Ġice":4310,"itable":4311,"Ġvict":4312,"Ġeffe":4313,"outh":4314,"ĠIn":4315,"Ġtuer":4316,"Ġproche":4317,"Ġshirt":4318,"ately":4319,"Ġsavons":4320,"Ġouver":4321,"Ġacross":4322,"Ġcomprend":4323,"Ġdouleur":4324,"Ġpictures":4325,"Ġfigure":4326,"ĠconnaÃ®tre":4327,"ĠÃ©galement":4328,"Ġforeign":4329,"Ġimmediately":4330,"Te":4331,"aque":4332,"dge":4333,"reuse":4334,"Ġcess":4335,"oto":4336,"Ġcancer":4337,"Ġext":4338,"Ġcross":4339,"Ġmath":4340,"Ġprice":4341,"Ġcarefully":4342,"Ġvoix":4343,"Ġpieds":4344,"Ġsuspect":4345,"intÃ©rieur":4346,"Ġdistance":4347,"Voudriez":4348,"Ġsignifie":4349,"Ġpizza":4350,"Ai":4351,"Ġsn":4352,"Ġsend":4353,"Ġfair":4354,"Ġdeep":4355,"Ġgri":4356,"Ġplac":4357,"uellement":4358,"ouvrir":4359,"Ġapple":4360,"lax":4361,"ĠclÃ©s":4362,"ĠspÃ©c":4363,"Ġconsid":4364,"Ġcourage":4365,"Ġaimes":4366,"Ġcherche":4367,"ĠprÃ©fÃ©":4368,"Ġbanque":4369,"Ġtranqu":4370,"Ġtend":4371,"Ġdut":4372,"Ġloud":4373,"Ġcur":4374,"ilt":4375,"ĠrÃ©e":4376,"amour":4377,"Ġstorm":4378,"Ġaviez":4379,"Comp":4380,"ĠdÃ©cl":4381,"Ġsenti":4382,"Ġharder":4383,"Ġshower":4384,"ĠprÃ©fÃ©rÃ©":4385,"Ġmovies":4386,"Ġmenti":4387,"ĠtempÃªte":4388,"Ġsuivre":4389,"gar":4390,"ule":4391,"Ġcous":4392,"Ġwake":4393,"Ġvend":4394,"Ġgiven":4395,"ird":4396,"Ġallait":4397,"tenu":4398,"Ġspecial":4399,"Montre":4400,"Ġpromis":4401,"Ġinvolved":4402,"Ġobject":4403,"Ġinside":4404,"Ġservice":4405,"ignorais":4406,"Ġdriving":4407,"ĠYou":4408,"Ġpai":4409,"isÃ©e":4410,"ened":4411,"inqui":4412,"Ġmou":4413,"Ġfired":4414,"Ġrelax":4415,"Ġegg":4416,"aint":4417,"Ġsever":4418,"ieuse":4419,"Ġwhatever":4420,"Ġagreed":4421,"Ġconst":4422,"Ġcondition":4423,"Ġguitare":4424,"ĠrÃ©ussir":4425,"Ġsatisfied":4426,"Aucun":4427,"Ġconscience":4428,"Ġfault":4429,"Ġseveral":4430,"Cont":4431,"Since":4432,"ament":4433,"so":4434,"Ġtie":4435,"Ġach":4436,"Ġayez":4437,"env":4438,"ĠmÃ©t":4439,"Ġthrow":4440,"Ġroman":4441,"alous":4442,"Ġcomb":4443,"nem":4444,"Ġconvers":4445,"ĠtÃ©lÃ©phon":4446,"Ġviande":4447,"Ġsucre":4448,"Ġanimaux":4449,"Ġcontinuer":4450,"Ġopportun":4451,"ĠrÃ©flÃ©chir":4452,"Ġenviron":4453,"Ġrhume":4454,"ilement":4455,"men":4456,"opp":4457,"ouÃ©":4458,"oned":4459,"Ġwomen":4460,"und":4461,"Ġworse":4462,"Ġquelc":4463,"Ġimpl":4464,"ĠdrÃ´le":4465,"ĠÃ©cl":4466,"Ġrepro":4467,"ĠtravaillÃ©":4468,"Ġvolont":4469,"ĠÃ©tudiant":4470,"Ġamusant":4471,"iendra":4472,"Ġkissed":4473,"Ġurgent":4474,"Ġprogram":4475,"ĠIl":4476,"Ġaies":4477,"Ġahead":4478,"Ġvole":4479,"Ġchaise":4480,"Ġchoose":4481,"ief":4482,"Ġweb":4483,"acle":4484,"Ġmarier":4485,"Ġsemaines":4486,"Ġearlier":4487,"Ġretourner":4488,"ufs":4489,"Sorry":4490,"come":4491,"Ġpower":4492,"Ġlic":4493,"Ġcute":4494,"Ġvot":4495,"ings":4496,"rier":4497,"Ġchou":4498,"ĠtuÃ©":4499,"Ġproc":4500,"Ġshop":4501,"Ġextr":4502,"Ġcompter":4503,"ivement":4504,"Ġcarry":4505,"Quiconque":4506,"Ġtwice":4507,"Ġdiscours":4508,"Ġraining":4509,"Ġfacilement":4510,"Ġerreurs":4511,"Ġenjoyed":4512,"Ġemploy":4513,"Ġdiscussion":4514,"Ġjump":4515,"Venez":4516,"vious":4517,"yoto":4518,"Ġ3":4519,"Ġtaille":4520,"onter":4521,"Ġlaissez":4522,"Ġmid":4523,"Ã©ment":4524,"Ã©ter":4525,"Ġweird":4526,"Ġconfe":4527,"irez":4528,"venue":4529,"ĠÃ©te":4530,"oitiÃ©":4531,"Quels":4532,"Ġplayed":4533,"Ġacqu":4534,"Ġsouvenir":4535,"examen":4536,"Ġassist":4537,"ĠconseillÃ©":4538,"Ġeasily":4539,"000":4540,"iversitÃ©":4541,"ĠdÃ©range":4542,"Ġservi":4543,"Ġactuelle":4544,"Ġzoo":4545,"Ġmillion":4546,"Ġslept":4547,"Reste":4548,"ctement":4549,"ling":4550,"uÃ©":4551,"ĠdÃ¨s":4552,"Ġdanc":4553,"Ġsauv":4554,"erme":4555,"ĠmoitiÃ©":4556,"Ġvent":4557,"Ġmem":4558,"Ġlequel":4559,"Ġlake":4560,"icated":4561,"Ġcondu":4562,"Ġanywhere":4563,"ĠÃ©che":4564,"Ġsentiment":4565,"Ġpromen":4566,"ĠsoirÃ©e":4567,"Ġtraffic":4568,"Regardez":4569,"Ġpersuad":4570,"Ġmensong":4571,"Ġintrodu":4572,"iÃ¨me":4573,"ingt":4574,"eth":4575,"Ġheld":4576,"aintenant":4577,"Ġpartici":4578,"ĠmariÃ©":4579,"iving":4580,"Ġpassed":4581,"ĠpassÃ©e":4582,"Ġcontente":4583,"Isn":4584,"Ġblue":4585,"Ġpropres":4586,"Ġhardly":4587,"ences":4588,"empl":4589,"Ġrisque":4590,"ĠdÃ©mission":4591,"Ġstylo":4592,"Ġpauvre":4593,"Restez":4594,"Ġdents":4595,"esprit":4596,"Ġcoute":4597,"idÃ©e":4598,"Ġlig":4599,"oof":4600,"Ġlikely":4601,"Ġdeserve":4602,"stairs":4603,"Ġsurp":4604,"Ġdish":4605,"Ã©rop":4606,"Ġblanc":4607,"ĠfermÃ©":4608,"Ġpleur":4609,"Ġempty":4610,"Ġdecide":4611,"Ġexcuse":4612,"Ġsemblez":4613,"Ġpermis":4614,"Ġarticle":4615,"Ġviendra":4616,"Ferme":4617,"pose":4618,"Ġciel":4619,"Ġmail":4620,"itions":4621,"ities":4622,"Ġfri":4623,"Ġfant":4624,"Ġboute":4625,"atÃ©":4626,"Ġhy":4627,"Ġgauche":4628,"ists":4629,"Ġstuff":4630,"Ġstaying":4631,"Ġweeks":4632,"Ġdispar":4633,"Ġcherch":4634,"Ġboys":4635,"Ġsinging":4636,"Ġinstru":4637,"Ġresponsable":4638,"Show":4639,"Ġhonte":4640,"ĠapprÃ©ciÃ©":4641,"Ġouvrir":4642,"Ġenseignant":4643,"Ġennuy":4644,"Ġneighbor":4645,"ĠhonnÃªte":4646,"Ġconversation":4647,"Ã©roport":4648,"Viens":4649,"pÃ¨re":4650,"wich":4651,"ĠW":4652,"Ġscient":4653,"Ġline":4654,"ined":4655,"Ġnav":4656,"Ġfle":4657,"Ġfail":4658,"Ġmeat":4659,"Ġdocu":4660,"Ġcho":4661,"ales":4662,"Ġlied":4663,"adm":4664,"aps":4665,"ordin":4666,"Ġferait":4667,"attrap":4668,"Ġvivent":4669,"Ġcontinue":4670,"Ġtelevision":4671,"ĠAmerican":4672,"ĠcÃ©lÃ¨":4673,"Ġemprunter":4674,"Ġsandwich":4675,"ĠÃītats":4676,"Conn":4677,"book":4678,"hip":4679,"Ġden":4680,"enci":4681,"Ġcig":4682,"vec":4683,"Ġenem":4684,"Ġforce":4685,"apÃ©":4686,"ouvons":4687,"Ġrends":4688,"ĠbrÃ»":4689,"Ġvouliez":4690,"ĠinconvÃ©nient":4691,"Ġobs":4692,"Ġprofond":4693,"Ġcalme":4694,"hÃ´tel":4695,"Ġexperience":4696,"Ġgroupe":4697,"Hier":4698,"Make":4699,"af":4700,"ple":4701,"rase":4702,"Ġvingt":4703,"Ġqual":4704,"teen":4705,"Ġev":4706,"Ġash":4707,"urance":4708,"Ġarbre":4709,"impression":4710,"Ġlongue":4711,"Ã¢che":4712,"Ġsupport":4713,"Ġpleut":4714,"ĠenvoyÃ©":4715,"Ġdouche":4716,"Ġdocteur":4717,"Ġwonderful":4718,"Ġhundre":4719,"Ġairport":4720,"Ġfollowed":4721,"Ġsusp":4722,"ĠsupposÃ©":4723,"Ġreconnaissant":4724,"Ġnettoyer":4725,"Ġprotect":4726,"Ġnewspaper":4727,"Avec":4728,"Suis":4729,"Turn":4730,"Wait":4731,"gy":4732,"gle":4733,"Ġdriver":4734,"Ġsache":4735,"erm":4736,"Ġmien":4737,"Ã©qu":4738,"Ġfass":4739,"Ġhu":4740,"oie":4741,"Ġlead":4742,"Ġlaug":4743,"Ġelect":4744,"Ġparole":4745,"Ġavions":4746,"Ġavaient":4747,"Ġalso":4748,"Ġcroy":4749,"Ġmarry":4750,"Ġgotten":4751,"ĠdÃ©cider":4752,"Ġvieil":4753,"Ġvisage":4754,"Ġideas":4755,"Ġrefused":4756,"Ġboat":4757,"Ġyounger":4758,"Ġeye":4759,"Ġsuperm":4760,"fortable":4761,"Ġrarement":4762,"Ġinjured":4763,"Ġheavy":4764,"Ġmountain":4765,"Ġhorrible":4766,"Ġlaughed":4767,"Av":4768,"Maintenant":4769,"Va":4770,"cent":4771,"hier":4772,"rite":4773,"oux":4774,"Ġpack":4775,"Ġportes":4776,"Ġfly":4777,"Ġbur":4778,"ĠvÃ©cu":4779,"arch":4780,"Ġprov":4781,"Ġcrav":4782,"Ġdrank":4783,"Ġdipl":4784,"ception":4785,"ĠdiffÃ©rent":4786,"Ġwinter":4787,"ĠprÃ©vu":4788,"Ġpopulation":4789,"ĠÅĵil":4790,"Ġimagination":4791,"Ġbeginning":4792,"Voudrais":4793,"ĠrentrÃ©":4794,"dedans":4795,"For":4796,"aÃ©roport":4797,"vre":4798,"isse":4799,"esse":4800,"inÃ©":4801,"eum":4802,"Ġsuic":4803,"nez":4804,"Ġgrat":4805,"Ġherself":4806,"ĠÃ©m":4807,"Ġadore":4808,"Ġsentence":4809,"Dev":4810,"Ġconvinc":4811,"ĠmariÃ©e":4812,"Ġcopine":4813,"Should":4814,"Ġanimals":4815,"Ġprinci":4816,"Ġfishing":4817,"Ġjolie":4818,"Ġgift":4819,"Even":4820,"father":4821,"oque":4822,"umes":4823,"Ġpage":4824,"Ġcul":4825,"inture":4826,"ĠgoÃ»t":4827,"ards":4828,"Quoi":4829,"Ġsoul":4830,"Unis":4831,"Ġwalking":4832,"Ġpainted":4833,"Ġcontrol":4834,"Ġfailed":4835,"ĠarrÃªt":4836,"Aujourd":4837,"Ġcooking":4838,"Ġcalm":4839,"Ġbottle":4840,"ĠcommenÃ§a":4841,"gie":4842,"Ġsim":4843,"issez":4844,"Ġcer":4845,"ĠcensÃ©":4846,"Ġmorte":4847,"Ġnation":4848,"rie":4849,"Ġring":4850,"Ġchar":4851,"Ġliar":4852,"Ġaugment":4853,"acun":4854,"ifique":4855,"Ġcrains":4856,"cks":4857,"Ġbuilt":4858,"Ġmoved":4859,"Ã©ric":4860,"Ġpromets":4861,"Ġincroy":4862,"ĠmontrÃ©":4863,"Ġsitting":4864,"Ġleaves":4865,"Ġveget":4866,"Ġremercier":4867,"Bring":4868,"oche":4869,"enn":4870,"ering":4871,"Ġmerve":4872,"Ã©ch":4873,"Ġhol":4874,"Ġgouver":4875,"ushed":4876,"Ġplenty":4877,"Ġsale":4878,"import":4879,"Ġpartout":4880,"Ġgrad":4881,"ĠrÃ©d":4882,"ĠmanquÃ©":4883,"tÃ©rieur":4884,"Ġblague":4885,"Ġintention":4886,"Ġphrase":4887,"ĠdÃ©test":4888,"Ġimportante":4889,"Ġbird":4890,"Ġbattre":4891,"ĠAmerica":4892,"Ġsuitc":4893,"Ġtranquille":4894,"Ġcravate":4895,"Ġholid":4896,"hood":4897,"sy":4898,"ĠUn":4899,"Ġpomme":4900,"Ġwood":4901,"ash":4902,"Ġbody":4903,"arbre":4904,"levÃ©":4905,"Ġwel":4906,"Ġjealous":4907,"Ġsight":4908,"Leave":4909,"Ġgrave":4910,"Ġcommit":4911,"Ġremind":4912,"Ġgarde":4913,"Ġmentir":4914,"Ġattraper":4915,"Ġlaughing":4916,"Ġcertainement":4917,"Ġdebout":4918,"ĠvÃ©rifier":4919,"Ġduty":4920,"Ġought":4921,"Ġland":4922,"Ġlente":4923,"erc":4924,"inter":4925,"Ġmeant":4926,"vern":4927,"Ġcrow":4928,"aked":4929,"Ġgrandfather":4930,"Ġaccused":4931,"Ġplanning":4932,"Ġseemed":4933,"Ġconduis":4934,"ĠquittÃ©":4935,"ĠintÃ©ressÃ©":4936,"Ġknife":4937,"ĠCanadi":4938,"ĠhÃ´tel":4939,"Ġcouteau":4940,"Ġconvinced":4941,"Ġ30":4942,"Ġtaught":4943,"istes":4944,"Ġly":4945,"erait":4946,"Ġcoo":4947,"ased":4948,"Ġbain":4949,"Ġneuf":4950,"iced":4951,"ached":4952,"resh":4953,"Ġshare":4954,"ctive":4955,"Ġexh":4956,"icious":4957,"Ġcomporte":4958,"Ġhadn":4959,"Ġimpressed":4960,"Didn":4961,"Ġsauf":4962,"Ġrecognize":4963,"Bien":4964,"hum":4965,"ror":4966,"ĠV":4967,"Ġed":4968,"erne":4969,"Ġburn":4970,"aies":4971,"Ġjud":4972,"Ġoccasion":4973,"Ġlev":4974,"Ġrom":4975,"Ġrang":4976,"Ġcell":4977,"Ġtel":4978,"Ġplays":4979,"Ġauriez":4980,"Ġstol":4981,"âĢī":4982,"ctions":4983,"Ġextre":4984,"aveur":4985,"Ġapples":4986,"apprendre":4987,"Ġeut":4988,"rÃ©able":4989,"Ġdiscut":4990,"Ġmontagne":4991,"Ġrefus":4992,"Ġportait":4993,"ĠsÃ©jour":4994,"Ġexcellent":4995,"ĠcÃ©lÃ¨bre":4996,"Ġcigare":4997,"Ġsimil":4998,"Ġstolen":4999,"elez":5000,"ract":5001,"Ġdort":5002,"Ġpier":5003,"Ġspr":5004,"Ġcool":5005,"Ġfaveur":5006,"Ġhang":5007,"ĠgÃ©rer":5008,"Ġrevenir":5009,"Ã¨ves":5010,"Ġplant":5011,"Ġkil":5012,"Ġgovern":5013,"oph":5014,"Ġfrais":5015,"Ġdisent":5016,"Ġcompagn":5017,"Ġcray":5018,"aken":5019,"Ġparles":5020,"anceux":5021,"Ġcats":5022,"Ġgarage":5023,"Ġexcit":5024,"Ġsky":5025,"Ġcuisiner":5026,"Ġinstant":5027,"Ġseriously":5028,"Ġsilence":5029,"Ġsemblait":5030,"Ġressent":5031,"ĠrÃ©pondu":5032,"Ġdoubt":5033,"ĠprÃ©parer":5034,"Has":5035,"ear":5036,"ges":5037,"Ġpont":5038,"Ġpenc":5039,"Ġmienne":5040,"Ġwed":5041,"arter":5042,"Ġquant":5043,"rim":5044,"Ġplu":5045,"rend":5046,"amb":5047,"ĠcanapÃ©":5048,"Whose":5049,"ĠsiÃ¨":5050,"Ġfeed":5051,"Ã®mes":5052,"Ġaccord":5053,"Ġseuls":5054,"extÃ©rieur":5055,"Ġmuseum":5056,"ĠprÃªts":5057,"Ġstudied":5058,"ĠcinÃ©m":5059,"Ġtickets":5060,"Ġfeelings":5061,"Ġpopular":5062,"Ġconvaincu":5063,"ĠobligÃ©":5064,"Today":5065,"DÃ©solÃ©":5066,"ĠsociÃ©tÃ©":5067,"Ġbouteille":5068,"Cl":5069,"aÃ¯":5070,"Ġloi":5071,"Ġlone":5072,"Ġfill":5073,"Ġfiche":5074,"atch":5075,"Ġdef":5076,"Ġrevenu":5077,"Ġsugar":5078,"Ġkitch":5079,"rested":5080,"chedu":5081,"Ġdirection":5082,"Ġadresse":5083,"Ġordered":5084,"Ġrepos":5085,"Ġflu":5086,"Ġinvest":5087,"Ġmorce":5088,"ĠSt":5089,"Ġexplan":5090,"ĠtombÃ©e":5091,"Ġprofession":5092,"Ġsourire":5093,"Ġhabituellement":5094,"Ġtrees":5095,"Ġabsolute":5096,"ograph":5097,"ĠspÃ©cial":5098,"Ġeggs":5099,"ĠextrÃªme":5100,"Ġashamed":5101,"Ġextreme":5102,"Ġwedding":5103,"cation":5104,"dit":5105,"nÃ©es":5106,"time":5107,"arning":5108,"orme":5109,"Ġele":5110,"Ġforme":5111,"Ġarme":5112,"Ġtoilet":5113,"Ġbutton":5114,"Ġblood":5115,"Ġblind":5116,"Ġfallu":5117,"Ġrealize":5118,"Ġmonths":5119,"Ġcourses":5120,"Essaie":5121,"Ġchoisir":5122,"ĠprotÃ©g":5123,"ĠhabituÃ©":5124,"Ġendormi":5125,"rupt":5126,"Ġmagazine":5127,"ĠrÃ©ellement":5128,"Ġhundred":5129,"Ġincroyable":5130,"Ġlentement":5131,"ĠcinÃ©ma":5132,"Ġkitchen":5133,"ef":5134,"Ġer":5135,"Ġtaller":5136,"Ġaffe":5137,"Ġsout":5138,"Ġcre":5139,"Ġthough":5140,"Ġens":5141,"Ġwash":5142,"acqu":5143,"Ġproject":5144,"cts":5145,"oyons":5146,"Ġfeels":5147,"Ġaware":5148,"ĠarrivÃ©e":5149,"Ġobtenu":5150,"Ġcorps":5151,"Ġfortune":5152,"ĠdÃ©barrass":5153,"Ġjoindre":5154,"Ġrecommand":5155,"Ġwarned":5156,"ĠprÃ©fÃ©re":5157,"Ġquelconque":5158,"Cr":5159,"MÃªme":5160,"Pas":5161,"Ret":5162,"aÃ®t":5163,"bes":5164,"cture":5165,"iar":5166,"sons":5167,"erie":5168,"ousand":5169,"ories":5170,"Ġlaver":5171,"osion":5172,"urs":5173,"Ġavion":5174,"ifs":5175,"Ġvert":5176,"Ġmanager":5177,"Ġretr":5178,"Ġpause":5179,"ĠÃ©tudiÃ©":5180,"Ġsooner":5181,"ĠprÃ©sident":5182,"Ġconseilla":5183,"Ġgagne":5184,"ĠrencontrÃ©s":5185,"empÃªcher":5186,"Ġsaved":5187,"Ġfruits":5188,"ĠpossÃ¨de":5189,"ĠsÃ©rieusement":5190,"Ġchouette":5191,"Ġlonely":5192,"Marie":5193,"Ġ8":5194,"ĠTu":5195,"Ġutile":5196,"ouer":5197,"ĠpÃ©n":5198,"Ġnage":5199,"itive":5200,"Ġfing":5201,"ĠvÃ´":5202,"Ġglace":5203,"Ġjal":5204,"Ġunc":5205,"Ġunivers":5206,"Ġsept":5207,"Ġstick":5208,"Ġarrested":5209,"Ġclient":5210,"ounded":5211,"Ġdraw":5212,"Ġsoud":5213,"Ġpromesse":5214,"asseoir":5215,"ĠdÃ©pend":5216,"Ġpaint":5217,"Ġproposal":5218,"Ġpersonal":5219,"Ġinvitation":5220,"ĠdÃ©mÃ©n":5221,"ĠdÃ©ranger":5222,"ĠattrapÃ©":5223,"Ġparticular":5224,"Ġfaster":5225,"Ġnerveux":5226,"Ġreturn":5227,"Ġpromenade":5228,"Most":5229,"Pouvons":5230,"Ġtire":5231,"Ġdoi":5232,"Ġdoig":5233,"Ġlarg":5234,"arÃ©":5235,"armes":5236,"universitÃ©":5237,"Ġrej":5238,"Ġmemb":5239,"Ġforte":5240,"amm":5241,"urch":5242,"Ġstole":5243,"idered":5244,"Ġmarch":5245,"Ġferme":5246,"ĠJack":5247,"Åĵil":5248,"ĠAm":5249,"Ġawake":5250,"ĠidÃ©es":5251,"Ġconduit":5252,"Ġsleepy":5253,"Ġlangues":5254,"Ġannul":5255,"Ġgener":5256,"Ġexpecting":5257,"entretenir":5258,"Ġproduire":5259,"Ġbehav":5260,"Ġprudente":5261,"Ġmoyens":5262,"embrass":5263,"Ġapartment":5264,"Ġouverte":5265,"Sont":5266,"Vos":5267,"Ġmille":5268,"Ġbread":5269,"Ġnez":5270,"aurai":5271,"Ãªmes":5272,"Ġstri":5273,"ĠdÃ©Ã§u":5274,"Ã©couter":5275,"Ġcruel":5276,"ĠÃ©lect":5277,"Ġador":5278,"Ġheureuses":5279,"Ġcalling":5280,"Ġinvent":5281,"Ġregarda":5282,"Ġobvious":5283,"Ġdifficul":5284,"Ġdirai":5285,"Ġbouton":5286,"Ġreceived":5287,"Ġefforts":5288,"Excuse":5289,"Ġmaladie":5290,"Ġprincip":5291,"rÃ©es":5292,"vis":5293,"Ġ6":5294,"Ġtient":5295,"Ġdure":5296,"eng":5297,"omas":5298,"Ġfif":5299,"unte":5300,"ety":5301,"Ġlaz":5302,"chÃ©e":5303,"Ġself":5304,"acter":5305,"Ġstood":5306,"Ġavoid":5307,"Thomas":5308,"Ġverrou":5309,"Ġworst":5310,"Ġnobody":5311,"Ġadop":5312,"Ġgrands":5313,"Ġaccount":5314,"Ġvoitures":5315,"Ġconnu":5316,"ĠmusÃ©e":5317,"Ġbuying":5318,"Ġmissing":5319,"Ġfallait":5320,"Ġterminer":5321,"Ġvoice":5322,"Ġrencontre":5323,"God":5324,"Ġhistory":5325,"Ġregrette":5326,"Ġescape":5327,"Ġparfaitement":5328,"Ġsweet":5329,"Ġennuis":5330,"ĠautorisÃ©":5331,"ĠprÃ©parÃ©":5332,"Ġgouvernement":5333,"Ġgovernment":5334,"Ġexplanation":5335,"ĠextrÃªmement":5336,"Ġextremely":5337,"Aimes":5338,"br":5339,"romp":5340,"voir":5341,"Ġschedu":5342,"Ġcos":5343,"Ã©ner":5344,"ĠfiÃ¨re":5345,"Ġfile":5346,"Ġvase":5347,"Ġhide":5348,"ida":5349,"Ġteeth":5350,"Ġforced":5351,"avis":5352,"Ġarr":5353,"Ġhelping":5354,"Ġsembles":5355,"Ġcommon":5356,"Ġretrait":5357,"Ask":5358,"Ġpatience":5359,"Ġpermettre":5360,"oken":5361,"Ġbridge":5362,"Ġboring":5363,"Aimez":5364,"affaire":5365,"Ġconvaincre":5366,"Ġbreath":5367,"Ġsuddenly":5368,"Ġactuellement":5369,"ĠCanadian":5370,"ĠprÃ©fÃ©rerais":5371,"Tes":5372,"Vas":5373,"Ġ4":5374,"Ġpair":5375,"ĠlÃ¨ve":5376,"Ġmeur":5377,"its":5378,"aill":5379,"orn":5380,"tead":5381,"ows":5382,"iling":5383,"Ġchurch":5384,"Ġseven":5385,"Help":5386,"Ġpourriez":5387,"Ġasse":5388,"Ãªche":5389,"nel":5390,"allais":5391,"Ġexerc":5392,"Ġmanqu":5393,"ĠagrÃ©able":5394,"uits":5395,"Ġpensait":5396,"Ġmalheure":5397,"Ġafin":5398,"Ġwatched":5399,"Ġconsidered":5400,"Ġseules":5401,"Ġacting":5402,"Ġcrimin":5403,"Ġsubject":5404,"Ġlocked":5405,"Ġsympa":5406,"Ġslowly":5407,"ituteur":5408,"Ġpronon":5409,"ĠprotÃ©ger":5410,"Lis":5411,"So":5412,"bo":5413,"gress":5414,"ĠpÃªcher":5415,"Ġcustom":5416,"Ġmap":5417,"Ġmouth":5418,"Ġfresh":5419,"Ġvote":5420,"atiques":5421,"Ġmeal":5422,"ilty":5423,"Ġpract":5424,"Ġant":5425,"Ġpars":5426,"uts":5427,"urry":5428,"Ġamaz":5429,"Ġenter":5430,"artient":5431,"Ġcab":5432,"Ġprenez":5433,"ĠdÃ©couvert":5434,"Ġfaisais":5435,"Ġguilty":5436,"Ġmets":5437,"Ġanimal":5438,"oubliez":5439,"Essayez":5440,"occuper":5441,"Ã©tudier":5442,"ctobre":5443,"ctober":5444,"Ġconfection":5445,"Ġwelcome":5446,"Acc":5447,"Call":5448,"iÃ©e":5449,"met":5450,"Ã©quipe":5451,"Ġfur":5452,"Ġyen":5453,"ĠfrÃ¨res":5454,"raight":5455,"Ġfear":5456,"ccer":5457,"Ġappoint":5458,"Ġseront":5459,"Ġclaire":5460,"Ġchef":5461,"Ġcars":5462,"Ġlog":5463,"Ġpeint":5464,"Ġpleine":5465,"ĠOctober":5466,"ĠdÃ©mar":5467,"ĠprÃ©vois":5468,"Ġvalise":5469,"Ġespoir":5470,"like":5471,"Ġpolitique":5472,"Ġneighbors":5473,"expliquer":5474,"ĠprÃ©fÃ©rÃ©e":5475,"Austral":5476,"ode":5477,"sc":5478,"Ġcried":5479,"Ġband":5480,"entend":5481,"Ġchin":5482,"Ġfeet":5483,"Never":5484,"Ġrespe":5485,"aking":5486,"ĠÃ©ve":5487,"Ġperte":5488,"Ġsavent":5489,"Ġdrop":5490,"Ġenfin":5491,"glise":5492,"Ġpolite":5493,"Ġcapit":5494,"Ġsilenci":5495,"Ġtruc":5496,"Ġtrucs":5497,"Ġlanguages":5498,"Ġgrew":5499,"ĠÅĵufs":5500,"Ġprintemps":5501,"ĠKyoto":5502,"aimait":5503,"Certains":5504,"Ġravi":5505,"Ġenemy":5506,"Ġensuite":5507,"Ġsilencieux":5508,"Hurry":5509,"der":5510,"ude":5511,"ĠU":5512,"Ġdom":5513,"Ġpock":5514,"ination":5515,"heur":5516,"Ġvir":5517,"Ġhuit":5518,"ouser":5519,"Ġgiving":5520,"Ġanc":5521,"alitÃ©":5522,"Ġtears":5523,"ĠforcÃ©":5524,"Ġnotice":5525,"Ġstraight":5526,"Ġsoccer":5527,"ĠdÃ©Ã§":5528,"essaie":5529,"ĠcrÃ©":5530,"Ġserons":5531,"Ġbrothers":5532,"moire":5533,"Ġfaux":5534,"Ġnouveaux":5535,"ĠjouÃ©":5536,"ĠoccupÃ©s":5537,"Rem":5538,"ĠrÃ©sol":5539,"Ġsinger":5540,"Ġvisiter":5541,"Ġvisited":5542,"Ġmagn":5543,"Ġdirty":5544,"ĠgÃ©nÃ©ralement":5545,"Ġrecherche":5546,"Ġappartement":5547,"Ġsoucie":5548,"ĠmÃ©dicament":5549,"Garde":5550,"Ġmensonge":5551,"ĠJackson":5552,"None":5553,"ires":5554,"lac":5555,"line":5556,"pir":5557,"uck":5558,"Ġtir":5559,"Ġcit":5560,"inform":5561,"Ġfasses":5562,"Ġbored":5563,"atur":5564,"ĠhÃ¢":5565,"Ġrepr":5566,"ĠlevÃ©":5567,"Ġlearning":5568,"Ġeight":5569,"rends":5570,"ury":5571,"usted":5572,"Ġmanquer":5573,"Ġattack":5574,"Ã©rons":5575,"Ġpeace":5576,"ĠposÃ©":5577,"ildren":5578,"Ã©rir":5579,"ency":5580,"Ġchamp":5581,"Ġtrah":5582,"ellerai":5583,"Ġnulle":5584,"ĠblessÃ©e":5585,"ĠdiffÃ©ren":5586,"Ġcookies":5587,"Ġnative":5588,"Ġprendra":5589,"Ġbike":5590,"Ġplaisant":5591,"Ġconnaissance":5592,"Ġcorrectement":5593,"Ġchoisi":5594,"Ġabsolument":5595,"Ġprivate":5596,"Ġpaix":5597,"Ġmemory":5598,"Ġcostu":5599,"Life":5600,"Ġtill":5601,"Ġtight":5602,"Ġpare":5603,"isition":5604,"Ġcens":5605,"Ġmas":5606,"aimes":5607,"usez":5608,"Ġreach":5609,"llem":5610,"Ġroses":5611,"ĠprÃªtes":5612,"osing":5613,"Hey":5614,"tery":5615,"Ġconne":5616,"Ġgroup":5617,"Ġcroit":5618,"Ġclair":5619,"Ġcloche":5620,"appy":5621,"ĠÃ©ner":5622,"Ġcaused":5623,"Ġallerg":5624,"abilitÃ©":5625,"Ġencour":5626,"Ġprisonn":5627,"Ġflight":5628,"Ġscream":5629,"Ġremettre":5630,"Ã©dÃ©":5631,"ĠrefusÃ©":5632,"ĠsÃ»rs":5633,"Ġvolunte":5634,"Somebody":5635,"Ġstanding":5636,"Ġfourn":5637,"iendrai":5638,"Ġterrif":5639,"ĠÃ©couter":5640,"Ġpleased":5641,"Certaines":5642,"Ġsuitcase":5643,"DÃ©p":5644,"Sur":5645,"cut":5646,"gn":5647,"oul":5648,"Ġlour":5649,"Ġmood":5650,"quet":5651,"Ġballe":5652,"Ġhates":5653,"Ġthousand":5654,"Ġoctobre":5655,"Ġpourrions":5656,"accep":5657,"cted":5658,"astic":5659,"Ã©ra":5660,"Ġexpert":5661,"Ġconsac":5662,"Ġrecord":5663,"Ġflat":5664,"Ġsortie":5665,"rÃªt":5666,"Ġdepressed":5667,"Ġkeeps":5668,"Ġhabite":5669,"itesse":5670,"Ġvoisins":5671,"Ġlistened":5672,"isÃ©ment":5673,"Chaque":5674,"Ġfollowing":5675,"Ġrule":5676,"Ġracont":5677,"Ġgreen":5678,"ĠlÃ©gumes":5679,"ĠremarquÃ©":5680,"Ġaccepter":5681,"ĠacceptÃ©":5682,"Alors":5683,"Ġcompagnie":5684,"Ġabsolutely":5685,"Ġschedule":5686,"Fin":5687,"Mets":5688,"dle":5689,"Ġdomm":5690,"Ġlarmes":5691,"ermin":5692,"Ã©nÃ©":5693,"itiÃ©":5694,"Ġbare":5695,"ateurs":5696,"Ġener":5697,"Ġram":5698,"Ġchanceux":5699,"Ġcelles":5700,"amis":5701,"aped":5702,"Ġsurf":5703,"Ġdevait":5704,"Ġappa":5705,"ĠapportÃ©":5706,"rog":5707,"ĠÃ©n":5708,"acket":5709,"Ġspoken":5710,"Ġeats":5711,"Ġlots":5712,"ĠsÃ»res":5713,"Ġdrinks":5714,"Ġaiment":5715,"Ġstarting":5716,"Ġexpliquer":5717,"Ġpresident":5718,"Ġcoupable":5719,"Ġvoler":5720,"Ġexcited":5721,"Ġrains":5722,"ĠcontrÃ´le":5723,"ĠdÃ©brou":5724,"Ġira":5725,"Ġrude":5726,"ĠrÃ©veillÃ©":5727,"Ġdroite":5728,"ĠÃ©lÃ¨ves":5729,"Ġjeter":5730,"Ġhiding":5731,"Ġcandid":5732,"excuser":5733,"Ġcousin":5734,"Ġcrayon":5735,"Ġmorceau":5736,"ji":5737,"ĠnÃ©g":5738,"Ġvus":5739,"ĠprÃ©t":5740,"Ġcomfortable":5741,"Ġfaits":5742,"Ġcompos":5743,"Ġgross":5744,"ffre":5745,"ĠÃ©lÃ©":5746,"Ġentire":5747,"Ã©ration":5748,"Ġtalks":5749,"Ġgrandes":5750,"Esp":5751,"Ġcorde":5752,"Ġbigger":5753,"Ġrelig":5754,"ĠsuggÃ¨re":5755,"Ġlights":5756,"Ġresponsible":5757,"Ġgunsh":5758,"Ġambit":5759,"enfant":5760,"ĠLondon":5761,"ĠLondres":5762,"Ġspring":5763,"Ġpencil":5764,"Ġchinois":5765,"Ġcostume":5766,"Dep":5767,"feu":5768,"ged":5769,"occasion":5770,"Ġding":5771,"Ġaille":5772,"isation":5773,"Ġloup":5774,"inv":5775,"Ġnose":5776,"Ġfed":5777,"Ġbaiss":5778,"Ġaura":5779,"Ġauth":5780,"Ġnotes":5781,"ney":5782,"Ġshy":5783,"Ġrentre":5784,"Ġjambe":5785,"ĠentiÃ¨rement":5786,"Ġattract":5787,"Ġbrave":5788,"Ġstuck":5789,"rivez":5790,"Ġprevent":5791,"Ġbelieved":5792,"accomp":5793,"Ġaimez":5794,"Ġcouper":5795,"Ġannoy":5796,"Ġlettres":5797,"ĠintÃ©ressante":5798,"Children":5799,"Ġcuisin":5800,"Ġexplained":5801,"Ġraconter":5802,"ĠprÃ©cisÃ©ment":5803,"ĠfrappÃ©":5804,"Ġparticulier":5805,"Ġpanne":5806,"expÃ©rience":5807,"Ġfamiliar":5808,"Ġopportunity":5809,"ĠlycÃ©e":5810,"Ġappointment":5811,"ging":5812,"oes":5813,"over":5814,"isÃ©s":5815,"Ġlow":5816,"Ġmord":5817,"lled":5818,"Ġthreat":5819,"Ġpours":5820,"endie":5821,"Ġstone":5822,"Ġcance":5823,"ĠcongÃ©":5824,"iger":5825,"Ġriz":5826,"Ġarbres":5827,"Ġdevraient":5828,"Ġparties":5829,"Ġcru":5830,"Ġrentr":5831,"Ġimporte":5832,"Ġvenus":5833,"Ġnouvel":5834,"ĠprivÃ©":5835,"Ġmoon":5836,"Ġexplication":5837,"Read":5838,"Ġsingle":5839,"Ġmorts":5840,"Faisons":5841,"Ġtraverser":5842,"Ġbillet":5843,"ĠDieu":5844,"Ġsoient":5845,"ĠCanad":5846,"Ġtotally":5847,"Ġcircul":5848,"Ġchocolat":5849,"imagine":5850,"Ġligne":5851,"Ã©chapp":5852,"Ġdoivent":5853,"Ġlazy":5854,"Australie":5855,"ĠhÃ¢te":5856,"Ġenergy":5857,"13":5858,"Eh":5859,"Prom":5860,"lin":5861,"mÃ¨re":5862,"ss":5863,"Ã©te":5864,"Ġwoke":5865,"Ġfre":5866,"Ġharm":5867,"orie":5868,"otÃ©":5869,"Ġunh":5870,"Ġunique":5871,"ĠratÃ©":5872,"Ġchess":5873,"ieves":5874,"Ġwashing":5875,"Ġshocked":5876,"Quelles":5877,"uise":5878,"Ġfriendly":5879,"Ġplayer":5880,"Ġessaya":5881,"Ġrefaire":5882,"Ġbedroom":5883,"Ġsalt":5884,"Ġgentle":5885,"Ġsuivi":5886,"Ġchansons":5887,"ĠÃ©chapp":5888,"Ġgrowing":5889,"Ġpicked":5890,"Ġcomplaining":5891,"VoilÃł":5892,"Ġplaindre":5893,"Ġwallet":5894,"ĠmÃ©rite":5895,"Ġreturned":5896,"Ġgasp":5897,"underst":5898,"Ġparticip":5899,"Ġfright":5900,"Ġhyp":5901,"Ġvegetables":5902,"Ġretraite":5903,"Depuis":5904,"Fe":5905,"Gr":5906,"Hold":5907,"Jap":5908,"cool":5909,"haps":5910,"neu":5911,"wel":5912,"xim":5913,"Ġpaire":5914,"Ġpsy":5915,"erman":5916,"Ġwise":5917,"usse":5918,"riger":5919,"Ġearn":5920,"Ġrope":5921,"aurait":5922,"ĠrÃ©v":5923,"Ġvraie":5924,"Ġoffre":5925,"onna":5926,"Ġposition":5927,"Ġvaleur":5928,"Ġoui":5929,"Ġrock":5930,"Ġtrouvait":5931,"Ġ14":5932,"ĠmatinÃ©e":5933,"Ġpoem":5934,"ĠmÃ©moire":5935,"Ġconvince":5936,"habit":5937,"Ġsongs":5938,"Ġbagages":5939,"ĠamusÃ©":5940,"velopp":5941,"Ġchanges":5942,"ĠrÃªves":5943,"Ġbanan":5944,"ĠÃ©chouÃ©":5945,"AmÃ©rique":5946,"Essay":5947,"Ġhealthy":5948,"Ġemm":5949,"Aucune":5950,"Ġearthqu":5951,"Ġcurious":5952,"ĠcommandÃ©":5953,"Ġlicense":5954,"Japan":5955,"Dois":5956,"Jus":5957,"bum":5958,"hor":5959,"tain":5960,"umer":5961,"ĠWe":5962,"Ġpant":5963,"Ġnine":5964,"ata":5965,"arv":5966,"Ġneg":5967,"Ġocc":5968,"Ġlady":5969,"Ġbeat":5970,"Ã¨vre":5971,"Ġromp":5972,"Ġpratique":5973,"Ġnoticed":5974,"mpl":5975,"Ġsombre":5976,"igin":5977,"Ġhasard":5978,"Ġclock":5979,"Ã»mes":5980,"Ġcartes":5981,"Ġguest":5982,"Ġsentiments":5983,"Ġconfused":5984,"Ġchaleur":5985,"Ġobtenir":5986,"Ġmatins":5987,"Ġmistaken":5988,"Ġshoot":5989,"Ġcountries":5990,"Ġsalaire":5991,"Ġforgive":5992,"Ġsauver":5993,"Ġmeaning":5994,"Ġfilms":5995,"Ġchaude":5996,"Ġcertainly":5997,"Ġportable":5998,"Ġbrill":5999,"Ġnearly":6000,"Attends":6001,"Sometimes":6002,"Ġchocolate":6003,"See":6004,"ĠChinese":6005,"Ġattentivement":6006,"Ġcombat":6007,"Ġdisparu":6008,"ĠUnited":6009,"Ġexha":6010,"ĠvÃ´tre":6011,"ares":6012,"cidence":6013,"dra":6014,"oll":6015,"rage":6016,"Ġ9":6017,"Ġdam":6018,"Ġpil":6019,"Ġcream":6020,"inue":6021,"Ġmise":6022,"Ġvienne":6023,"arp":6024,"Ġquart":6025,"unt":6026,"Ġgam":6027,"Ġore":6028,"Ġreached":6029,"ilitÃ©s":6030,"Ġec":6031,"ications":6032,"Ġcommer":6033,"Ġaud":6034,"Ġamong":6035,"cious":6036,"venus":6037,"Ġmarrant":6038,"Ġentered":6039,"istic":6040,"Ġcontrib":6041,"ĠexpÃ©rience":6042,"action":6043,"Ġautom":6044,"Ġincap":6045,"Ġconclus":6046,"Ġobey":6047,"Ġmauvaises":6048,"Ġskin":6049,"Ġvoisin":6050,"ĠinvitÃ©s":6051,"Ġdirais":6052,"Ġbasket":6053,"ĠrÃ¨gle":6054,"Ġengine":6055,"Ġfighting":6056,"Ġtimide":6057,"Ġpurpose":6058,"ropri":6059,"Ġmajor":6060,"Ġextra":6061,"ĠdiplÃ´":6062,"Ġgradu":6063,"Ġholiday":6064,"Ouv":6065,"cy":6066,"ker":6067,"ym":6068,"Ġsigne":6069,"Ġnai":6070,"itez":6071,"Ġbour":6072,"Ġvain":6073,"Ġvitesse":6074,"ara":6075,"otion":6076,"ourv":6077,"rique":6078,"Ġlecture":6079,"chn":6080,"chant":6081,"ldom":6082,"icier":6083,"Ġseldom":6084,"ĠparaÃ®t":6085,"Ġcanad":6086,"Well":6087,"Ġsoyons":6088,"Ã¨rement":6089,"ession":6090,"Ġrice":6091,"Ġriches":6092,"ouvre":6093,"Ġdisg":6094,"Ġpassport":6095,"aband":6096,"issent":6097,"ĠsupplÃ©":6098,"ĠdÃ©termin":6099,"ĠdÃ©pourv":6100,"Ġanswered":6101,"Ġclever":6102,"Ġmisunderst":6103,"ĠvÃ©ritable":6104,"ĠintÃ©ressÃ©e":6105,"ĠÃ¢g":6106,"Ġentreprise":6107,"Ġnatur":6108,"Ġcalcul":6109,"Ġrealized":6110,"Ġtemper":6111,"ĠcoÃ»t":6112,"Ġdreams":6113,"Ġsteal":6114,"Ġescaped":6115,"Ġdropped":6116,"Attendez":6117,"Ġinquiet":6118,"Ġselon":6119,"ĠrÃ©sultat":6120,"ĠrÃ©sultats":6121,"Ġoiseau":6122,"Ġplaces":6123,"Ġfurther":6124,"ĠsupplÃ©ment":6125,"Mal":6126,"Voyez":6127,"eff":6128,"iable":6129,"lons":6130,"okes":6131,"ĠpÃ©ri":6132,"Ġcoun":6133,"Ġdeter":6134,"ott":6135,"rige":6136,"auc":6137,"icule":6138,"Ġtext":6139,"Ġtechn":6140,"ified":6141,"Ġdevais":6142,"Ġpartis":6143,"ighted":6144,"assurer":6145,"obile":6146,"Ġcacher":6147,"ivre":6148,"Ġspect":6149,"Ġcommis":6150,"ĠÃ©criv":6151,"Ġportefeu":6152,"Ġunderstood":6153,"ĠSatur":6154,"Ġcamion":6155,"Ġpasseport":6156,"Ġletters":6157,"Ġvoudriez":6158,"ĠmariÃ©s":6159,"ĠChine":6160,"Ġexamen":6161,"Ġimagine":6162,"Ġbicyclette":6163,"Ġtruck":6164,"Ġcollection":6165,"Ġbarbe":6166,"Ġamoureuse":6167,"ervation":6168,"Ġconstruit":6169,"Ġconcerned":6170,"Ġ2013":6171,"Ġoiseaux":6172,"nemi":6173,"Ġinstructions":6174,"Ġdocument":6175,"Ġhuge":6176,"ĠdÃ©barrasser":6177,"Ã©nergie":6178,"Ġportefeuille":6179,"ix":6180,"mother":6181,"ĠtirÃ©":6182,"Ġdue":6183,"Ġailles":6184,"Ġpush":6185,"Ġpisc":6186,"Ġsamed":6187,"Ġtooth":6188,"vered":6189,"eds":6190,"Ġrepe":6191,"outes":6192,"ama":6193,"aman":6194,"resp":6195,"Ġavance":6196,"Ġalbum":6197,"Ġsert":6198,"jection":6199,"Ġclou":6200,"Ġparlent":6201,"Ġpeinture":6202,"Ġview":6203,"Ġsoupe":6204,"Ġcalls":6205,"essaye":6206,"Ġterm":6207,"Ġexplosion":6208,"Ġ100":6209,"gged":6210,"Ġpretended":6211,"ĠsÅĵurs":6212,"ĠÃ©puis":6213,"entreprise":6214,"Ġforgotten":6215,"ĠthÃ©orie":6216,"oublier":6217,"Ġfoule":6218,"Ġtremble":6219,"Ġpunished":6220,"Ġdelighted":6221,"Ġjaponaise":6222,"Ġaccompl":6223,"Ġclimb":6224,"ĠembrassÃ©":6225,"Ġresults":6226,"Ġtranslate":6227,"attraper":6228,"ĠsiÃ¨ge":6229,"ĠStates":6230,"acquisition":6231,"embrasser":6232,"Ġunhappy":6233,"Ġoccur":6234,"ĠSaturday":6235,"Ġpiscine":6236,"Fr":6237,"Per":6238,"Watch":6239,"Yesterday":6240,"ah":6241,"aqu":6242,"euse":6243,"ubl":6244,"Ġ7":6245,"Ġtiens":6246,"Ġpon":6247,"Ġpool":6248,"Ġcow":6249,"inte":6250,"ĠvidÃ©":6251,"Ġisland":6252,"Ġrose":6253,"Ġchick":6254,"Ġsea":6255,"Ġweak":6256,"acy":6257,"Ġgold":6258,"ĠdÃ©jeun":6259,"esses":6260,"Ġexcept":6261,"Ġusual":6262,"Ġcompt":6263,"Lequel":6264,"lable":6265,"Ġtough":6266,"ĠentraÃ®":6267,"obby":6268,"Ġcovered":6269,"Ġpensent":6270,"umÃ©e":6271,"Ġsmarter":6272,"Ġtenu":6273,"Ġdepend":6274,"Ġaimer":6275,"Ġincred":6276,"Ġhearing":6277,"Ġbouche":6278,"Ġrendit":6279,"Ġmeilleurs":6280,"Ġcouch":6281,"Ġinstead":6282,"ercice":6283,"Ġdonnerai":6284,"Ġkidding":6285,"Ġgentille":6286,"Ġconnaissait":6287,"Ġsweater":6288,"ĠÃ©coutÃ©":6289,"Ġdescri":6290,"Ġsports":6291,"Ġvoleur":6292,"ĠÃ©checs":6293,"Ġdishes":6294,"ĠpÃ©nÃ©t":6295,"Ġuniversity":6296,"Ġpsych":6297,"Ġnaive":6298,"Sans":6299,"Sortez":6300,"Thing":6301,"With":6302,"aÃ®tre":6303,"ibles":6304,"oci":6305,"Ġdad":6306,"Ġlent":6307,"Ã©glise":6308,"iture":6309,"quÃ©e":6310,"Ġben":6311,"Ġbatt":6312,"Ġbisc":6313,"Ġveste":6314,"Ġtheory":6315,"Ġuns":6316,"tem":6317,"Ġlave":6318,"Ġbear":6319,"Ã¨tres":6320,"chons":6321,"Ġheat":6322,"Ġchances":6323,"Ġprise":6324,"terre":6325,"orer":6326,"Ġsharp":6327,"Ã©coute":6328,"oya":6329,"merg":6330,"aka":6331,"asser":6332,"Ġspeaker":6333,"Ġfume":6334,"ĠdÃ©tails":6335,"Ġended":6336,"ĠÃ©tudie":6337,"ĠdÃ©part":6338,"Ġcontrari":6339,"Ġmatters":6340,"ĠdifficultÃ©s":6341,"Ġargu":6342,"Ġprendrai":6343,"Ġresponsib":6344,"Ġsilent":6345,"Ġdessert":6346,"ĠGerman":6347,"ĠtentÃ©":6348,"fortun":6349,"bye":6350,"Ġtastes":6351,"Ġembarrassed":6352,"Excusez":6353,"anniversaire":6354,"Ġeffectu":6355,"Ġattractive":6356,"Things":6357,"Oh":6358,"ĠHe":6359,"Ġours":6360,"Ġaj":6361,"Ġsqu":6362,"esome":6363,"Ġcache":6364,"ĠnÃ©e":6365,"ĠhÃ©r":6366,"arriv":6367,"Ġgars":6368,"rimer":6369,"Ġeau":6370,"Ġenvers":6371,"Ġanx":6372,"Ġauras":6373,"endroit":6374,"avenir":6375,"ician":6376,"Ġmanage":6377,"Ġupstairs":6378,"ĠÃ©levÃ©":6379,"avaient":6380,"issait":6381,"Ġvenez":6382,"Ġconnaisse":6383,"Ġconnaissez":6384,"Ġveuilles":6385,"Ġconfident":6386,"ĠoccupÃ©es":6387,"Ġassister":6388,"Ġdouble":6389,"Ġsecrets":6390,"Ġskier":6391,"ystem":6392,"Ġmenteur":6393,"ĠÃ¢gÃ©":6394,"Ġbright":6395,"Ġwindows":6396,"Ġidiote":6397,"Ġescal":6398,"ĠprÃ©cip":6399,"Ġforever":6400,"ĠabandonnÃ©":6401,"Ã©tudie":6402,"Ġfascin":6403,"Ġbleu":6404,"Ġtaste":6405,"Ġcards":6406,"Ġcampagne":6407,"Ġmiracle":6408,"Ġmiddle":6409,"Ġfassiez":6410,"importance":6411,"ĠdiffÃ©rentes":6412,"Ġpoursui":6413,"Ġcirculation":6414,"Mettez":6415,"Tw":6416,"gu":6417,"saka":6418,"ĠNous":6419,"Ġtien":6420,"reur":6421,"Ġavert":6422,"Ġpose":6423,"onte":6424,"isions":6425,"esit":6426,"ita":6427,"Ġboit":6428,"Ġvint":6429,"arr":6430,"Ġevent":6431,"icate":6432,"osen":6433,"Ġking":6434,"andis":6435,"Ġaurez":6436,"ĠÃ©tat":6437,"Ġalliez":6438,"ĠdÃ©ce":6439,"Ġavis":6440,"ĠamÃ©l":6441,"ĠamÃ©ric":6442,"Ġsaches":6443,"ĠcrÃ©d":6444,"Ġmanaged":6445,"Ġserve":6446,"Ġtoucher":6447,"Ġresign":6448,"Ġcheap":6449,"Ġspot":6450,"Ġtombe":6451,"ĠÃ©conom":6452,"ĠprÃ©occup":6453,"Ġintend":6454,"Ġorange":6455,"Ġrecently":6456,"Ġderniers":6457,"Ġtwenty":6458,"ancer":6459,"Ġscience":6460,"Ġadvant":6461,"Ġfaill":6462,"apprÃ©cier":6463,"Ġheadache":6464,"Ġboisson":6465,"Ġstep":6466,"intÃ©resse":6467,"Ġsuggestion":6468,"ĠrÃ©alitÃ©":6469,"overed":6470,"Ġdivorce":6471,"Ġoptim":6472,"Ġoptions":6473,"Ġskiing":6474,"ĠChina":6475,"Ġgrimp":6476,"Ġexercise":6477,"information":6478,"Ġexhausted":6479,"Ġsamedi":6480,"Jou":6481,"Nos":6482,"Sors":6483,"Ver":6484,"hiver":6485,"Ġtienne":6486,"Ġpoin":6487,"Ġcouver":6488,"Ġmeu":6489,"Ġnames":6490,"arme":6491,"Ġthief":6492,"Ġtrac":6493,"Their":6494,"Ġwashed":6495,"illeux":6496,"Ġconven":6497,"Ġdevint":6498,"Ġdiss":6499,"Ġdistur":6500,"rob":6501,"Ġclos":6502,"astique":6503,"ĠcachÃ©":6504,"Ġdrug":6505,"Ġgrandi":6506,"Ġgrandmother":6507,"Ġprize":6508,"Ġbetray":6509,"Ġdiet":6510,"Ġconscient":6511,"ieved":6512,"ĠarrivÃ©s":6513,"Ġpoliceman":6514,"ĠcontrÃ´":6515,"Ġpretend":6516,"Ġsisters":6517,"ĠdiffÃ©rente":6518,"Ġchauff":6519,"Ġtyp":6520,"Ġmilieu":6521,"arrÃªt":6522,"Ġaccepted":6523,"Ġsoldats":6524,"Ġoppos":6525,"Ġressembl":6526,"Ġlegs":6527,"inquiÃ¨te":6528,"Ġdancing":6529,"Ġpierre":6530,"Ġrejoin":6531,"Ġbehavior":6532,"Ġamazing":6533,"Ġdommage":6534,"Ġauthor":6535,"Ġeconom":6536,"Ġincapable":6537,"Vois":6538,"allez":6539,"hÃ©s":6540,"host":6541,"ian":6542,"iant":6543,"uction":6544,"ĠGod":6545,"Ġtar":6546,"Ġsystem":6547,"Ġlosing":6548,"Ġmic":6549,"Ġmidi":6550,"Ġnap":6551,"Ġfab":6552,"lling":6553,"Ġhesit":6554,"Ġtoward":6555,"Ġquot":6556,"Ġgor":6557,"Ġjacket":6558,"Ã¨le":6559,"Ġcharm":6560,"Ġchacun":6561,"ĠÃ©toi":6562,"Ġstock":6563,"Ġsof":6564,"Ġmonter":6565,"anged":6566,"Ġavai":6567,"ify":6568,"igÃ©":6569,"Ġprogress":6570,"cteur":6571,"Ġmarket":6572,"Ġcarried":6573,"Ġfinan":6574,"abord":6575,"ĠFu":6576,"Ã¢ge":6577,"Ġorigin":6578,"Ġoldest":6579,"Ġawesome":6580,"ĠrestÃ©e":6581,"Ġpaying":6582,"ĠdÃ©tr":6583,"Ġdisputer":6584,"ĠTerre":6585,"Ġfolle":6586,"Ġ16":6587,"Ġvivant":6588,"Ġinterest":6589,"ĠpiÃ¨ces":6590,"ĠÃ©pouse":6591,"Ġtourner":6592,"Ġtrusted":6593,"Ġdisposons":6594,"Ġpoison":6595,"Ġtraveling":6596,"Ġpossibility":6597,"Ġpousser":6598,"Ġjudge":6599,"Ġsimilar":6600,"Ġgentleman":6601,"PrÃ©":6602,"nic":6603,"ttes":6604,"uff":6605,"zen":6606,"Ġing":6607,"Ġtap":6608,"Ġtirer":6609,"Ġdying":6610,"Ġpique":6611,"Ġcred":6612,"inf":6613,"Ġhom":6614,"arante":6615,"Ġunf":6616,"Ġunlike":6617,"Ġlamp":6618,"Ġham":6619,"Ġparie":6620,"illÃ©s":6621,"ĠallÃ©es":6622,"angers":6623,"Ġprove":6624,"ĠrÃ©gl":6625,"Ġmaisons":6626,"apped":6627,"hered":6628,"ĠcausÃ©":6629,"Ġpeindre":6630,"Ġpreuve":6631,"Ġspends":6632,"Ġprior":6633,"Ġdiary":6634,"Ġvues":6635,"Ġpolicier":6636,"Ġcouru":6637,"Ġsortit":6638,"Ġincre":6639,"Ġcertains":6640,"Ġcapital":6641,"Ġfaible":6642,"Ġargument":6643,"ĠmÃ©dec":6644,"ĠdÃ©rou":6645,"ĠcoÃ»ter":6646,"Ġarrivera":6647,"ĠsÃ©par":6648,"Ġmurder":6649,"Ġprotest":6650,"Ġhoping":6651,"Ġpardonner":6652,"Montrez":6653,"Continue":6654,"Ġintroduce":6655,"Ġnavire":6656,"Connais":6657,"accepter":6658,"Ġearthquake":6659,"Write":6660,"iale":6661,"ks":6662,"Ġsinc":6663,"onf":6664,"Ġcentre":6665,"Ġwet":6666,"ĠfÃ¢":6667,"assi":6668,"Ġhire":6669,"Ġhobby":6670,"entrÃ©e":6671,"Ġghost":6672,"Ġremb":6673,"rimÃ©":6674,"Ġmecs":6675,"Ġiss":6676,"Ġroi":6677,"ĠchÃ¨re":6678,"adresse":6679,"anges":6680,"ĠfrÃ©qu":6681,"els":6682,"eless":6683,"ĠcompÃ©t":6684,"Ġdemi":6685,"Ġgoodbye":6686,"assÃ©":6687,"Ġattitude":6688,"Ġbonheur":6689,"Ġsuppl":6690,"ĠdÃ©cida":6691,"Ġtenait":6692,"Ġourselves":6693,"ĠCD":6694,"espÃ©":6695,"Ġraise":6696,"Ġconditions":6697,"Ġclef":6698,"Ġpoche":6699,"Ġconvient":6700,"Ġmoving":6701,"Ġdevenue":6702,"Ġrelations":6703,"Ġcopy":6704,"ibat":6705,"Ġsyst":6706,"Ġcash":6707,"oigne":6708,"ĠobligÃ©e":6709,"Ġabandonner":6710,"Ġviolence":6711,"Aimeriez":6712,"Ġatteint":6713,"Ġsympath":6714,"enfants":6715,"ĠcÃ©libat":6716,"Ġrumeur":6717,"ternet":6718,"Ġdetails":6719,"Ġassistance":6720,"ĠdÃ©missionner":6721,"Ġennuyeux":6722,"Ġmerveilleux":6723,"Close":6724,"Two":6725,"Ġadvantage":6726,"Ġavailable":6727,"Deux":6728,"Of":6729,"Op":6730,"gal":6731,"ieur":6732,"light":6733,"nÃ©s":6734,"ĠpÃ¢":6735,"erver":6736,"Ġnuts":6737,"Ġbass":6738,"Ġyens":6739,"Ġgames":6740,"leterre":6741,"eday":6742,"Ġjume":6743,"Ġlab":6744,"Ġhall":6745,"Ġras":6746,"key":6747,"Ġliqu":6748,"osse":6749,"Ġalarm":6750,"Ġaltern":6751,"ulaire":6752,"Ġdevient":6753,"Ġdisting":6754,"appro":6755,"ĠentrÃ©":6756,"Ġadoles":6757,"ĠaccusÃ©":6758,"Ġthemselves":6759,"Ġcomprenez":6760,"Ġlaisserai":6761,"Ġhurts":6762,"Ġassise":6763,"ngleterre":6764,"azz":6765,"Ġeasier":6766,"Ġblesser":6767,"Ġsauter":6768,"Ġgentilles":6769,"ĠsongÃ©":6770,"Ġbirds":6771,"ĠfenÃªtres":6772,"Ġteachers":6773,"Appelle":6774,"Ġcosts":6775,"Ġthird":6776,"Ġfonctionner":6777,"Ġpunctu":6778,"ĠrÃ©veiller":6779,"ĠimaginÃ©":6780,"Ġperfectly":6781,"Ġviolon":6782,"ĠItal":6783,"ĠfermÃ©e":6784,"Ġpostp":6785,"Demande":6786,"Ġdentist":6787,"Ġdentiste":6788,"Ġstaring":6789,"Ġelectric":6790,"Ġfilled":6791,"Ġjaloux":6792,"Ġdoigt":6793,"Ġdingue":6794,"Ġnatural":6795,"Ġponctu":6796,"Ġsofa":6797,"Ġcredit":6798,"Ġunlikely":6799,"DÃ¨s":6800,"RÃ©":6801,"cter":6802,"do":6803,"ores":6804,"Ġtandis":6805,"Ġpaie":6806,"Ġsors":6807,"isez":6808,"esc":6809,"ĠnaÃ¯":6810,"itÃ´t":6811,"Ġhired":6812,"Ġhiver":6813,"Ġtoit":6814,"archÃ©":6815,"Ġthirst":6816,"Ġjug":6817,"Ġinse":6818,"Ġemerg":6819,"ayed":6820,"oney":6821,"Ġanyway":6822,"Ġdisait":6823,"Ġdisag":6824,"Ġmarre":6825,"Ġparlons":6826,"Ġpred":6827,"Ġfaudra":6828,"Enf":6829,"ĠdÃ©sesp":6830,"ĠAf":6831,"Ġsecr":6832,"Ġreply":6833,"Ġreposer":6834,"Ġmett":6835,"Ġlaissa":6836,"Ġdispon":6837,"Ġpetits":6838,"Ġstranger":6839,"Ġcontrat":6840,"Ġcontract":6841,"Ġabsence":6842,"ĠÃ©pous":6843,"Ġfeuilles":6844,"Ã©pouser":6845,"Ġinformations":6846,"Ġhuman":6847,"ĠcontinuÃ©":6848,"Ġteaching":6849,"ĠgÃ©nial":6850,"intÃ©ress":6851,"Ġsoldiers":6852,"Ġtraiter":6853,"Ġintelligente":6854,"Ġfacts":6855,"Ġorganized":6856,"Demain":6857,"Ġrumor":6858,"ĠeffrayÃ©":6859,"Ġmignonne":6860,"ĠrÃ©gime":6861,"ĠpleurÃ©":6862,"ordinaire":6863,"Ġdenied":6864,"Ġcercle":6865,"Ġcrowd":6866,"Ġburned":6867,"Ġmeurtre":6868,"Ġclairement":6869,"ĠrÃ©solu":6870,"Ġbiscuits":6871,"ĠFuji":6872,"ĠsystÃ¨me":6873,"Che":6874,"Quit":6875,"Sp":6876,"Voyons":6877,"den":6878,"Ġ$":6879,"Ġille":6880,"reg":6881,"ism":6882,"isme":6883,"Ġlaid":6884,"Ġcents":6885,"Ġfie":6886,"Ġviennent":6887,"entraÃ®":6888,"Ġthrew":6889,"Ġgaz":6890,"Ġgives":6891,"Ġunless":6892,"Ġos":6893,"Ġequ":6894,"Ġears":6895,"Ã¨tes":6896,"Ġrace":6897,"aule":6898,"alcool":6899,"icie":6900,"aded":6901,"agers":6902,"Ġexemp":6903,"ulance":6904,"Ġappartient":6905,"Ġjambes":6906,"Ġtells":6907,"Ġattir":6908,"ĠbrisÃ©":6909,"Ġsaviez":6910,"Ġvoulaient":6911,"icked":6912,"Ġvaisse":6913,"ĠdÃ©couvrir":6914,"Ġconsul":6915,"ĠrÃ©pÃ©ter":6916,"Ġsentis":6917,"Ġpersonnel":6918,"Ġbecom":6919,"Ġcomplicated":6920,"Ġrained":6921,"quip":6922,"Ġaccidents":6923,"Ġannon":6924,"ĠfatiguÃ©s":6925,"Ġinflu":6926,"ĠrencontrÃ©e":6927,"Ġsales":6928,"habite":6929,"Ġintern":6930,"Ġstress":6931,"Ġreconnu":6932,"emm":6933,"Ġsemblant":6934,"Ġsuggested":6935,"Ġviendrai":6936,"ĠcassÃ©e":6937,"Ġjuge":6938,"ĠimpressionnÃ©":6939,"Ġdescend":6940,"Ġprojets":6941,"Ġbott":6942,"Ġattemp":6943,"Ġappear":6944,"Ãīcoute":6945,"ĠÃ©trangÃ¨re":6946,"Ġvideo":6947,"Ġconcentr":6948,"ĠimpliquÃ©":6949,"Ġsupermark":6950,"Ġtoilettes":6951,"ĠconfectionnÃ©":6952,"Ġpareille":6953,"fortunately":6954,"By":6955,"Faire":6956,"Last":6957,"Pl":6958,"Sm":6959,"bon":6960,"coh":6961,"grÃ©":6962,"ike":6963,"lit":6964,"ox":6965,"Ġloss":6966,"inet":6967,"inze":6968,"Ġmass":6969,"Ġmaig":6970,"het":6971,"itation":6972,"Ġyes":6973,"atives":6974,"Ġhous":6975,"Ġlap":6976,"imm":6977,"Ġbell":6978,"Ġbelles":6979,"cemment":6980,"Ġroof":6981,"Ġprouver":6982,"agÃ¨re":6983,"ami":6984,"amuser":6985,"acted":6986,"Ġalla":6987,"allons":6988,"ĠdÃ©v":6989,"Ġsurve":6990,"Ġcomprom":6991,"Ġsize":6992,"ateful":6993,"Ġgrateful":6994,"indiquer":6995,"Ġbutter":6996,"Ġaccus":6997,"Ġaccro":6998,"Ġaccustom":6999,"Ġbelieves":7000,"Ġretirer":7001,"Ġdiam":7002,"Ġdirige":7003,"Ġsentez":7004,"Ġveuille":7005,"exercice":7006,"ussitÃ´t":7007,"ĠexpliquÃ©":7008,"Celui":7009,"Ġpoints":7010,"Ġanswers":7011,"Ġmission":7012,"England":7013,"Ġcontrar":7014,"Ġtourne":7015,"ĠterminÃ©e":7016,"Ġsuffit":7017,"Ġhighly":7018,"Ġimaginer":7019,"Ġartist":7020,"ĠtraversÃ©":7021,"uyer":7022,"Ġpoissons":7023,"Ġarms":7024,"Ġdestroy":7025,"Ġimprob":7026,"Ġprogramme":7027,"ĠfantÃ´":7028,"ĠprofondÃ©ment":7029,"Ġcroyais":7030,"ĠsupermarchÃ©":7031,"Ġgunshot":7032,"arvard":7033,"ĠvidÃ©o":7034,"Ġquotid":7035,"Open":7036,"Ġpunctual":7037,"Ġemergency":7038,"Ġsupermarket":7039,"cohol":7040,"cens":7041,"honn":7042,"mat":7043,"nant":7044,"night":7045,"Ã©h":7046,"anse":7047,"Ġfan":7048,"Ġfal":7049,"Ġfain":7050,"ashed":7051,"arrÃªte":7052,"idez":7053,"ices":7054,"ters":7055,"Ġwears":7056,"acitÃ©":7057,"Ġsommet":7058,"Ġcong":7059,"Ġabove":7060,"Ġverrai":7061,"icieux":7062,"Ġdises":7063,"Ġgrass":7064,"Ġappropri":7065,"siÃ¨re":7066,"Ġshoulder":7067,"Ġcheer":7068,"Ġnoon":7069,"assit":7070,"Ġbull":7071,"ĠÃ©coute":7072,"Ġsupporte":7073,"Ġcouramment":7074,"Ġpromener":7075,"Ġdownstairs":7076,"ĠdÃ©tendre":7077,"Ġremis":7078,"Ġresterai":7079,"Ġvoyez":7080,"Ġpoll":7081,"Ġchangement":7082,"Ġpicnic":7083,"Ġoublier":7084,"Ġcops":7085,"Ġexamination":7086,"Ġsurvive":7087,"Ġfixed":7088,"Ġpopulaire":7089,"Ġtraite":7090,"Ġdrog":7091,"Ġemail":7092,"Ġpuissions":7093,"Ãītait":7094,"ĠgÃ©nÃ©ral":7095,"Ġfairly":7096,"Ġintroduced":7097,"emploi":7098,"Fermez":7099,"Ġfailure":7100,"Ġsuicide":7101,"Ġcoop":7102,"Ġcomportement":7103,"Ġedu":7104,"Ġasseoir":7105,"Accord":7106,"Ġpantal":7107,"Perhaps":7108,"Ġchicken":7109,"Ġthirsty":7110,"Ġimprobable":7111,"Tiens":7112,"ners":7113,"rees":7114,"Ġdig":7115,"Ġpoup":7116,"ene":7117,"ĠlÃ¨":7118,"omach":7119,"Ġfurn":7120,"Ġfoc":7121,"Ġfich":7122,"Ġvendu":7123,"Ġtowel":7124,"ĠreÃ§":7125,"Ġmec":7126,"Ġmeals":7127,"Ã¨se":7128,"Ġdoors":7129,"Ġlies":7130,"Ġplat":7131,"onses":7132,"Ġgoal":7133,"Ġstomach":7134,"Ġwithin":7135,"Ã©conom":7136,"Whatever":7137,"Ġsurvenu":7138,"Ġdistr":7139,"Ġfever":7140,"Ã©rÃ©e":7141,"issons":7142,"Ġpouviez":7143,"Ã¢tre":7144,"ĠrÃ©ponses":7145,"Ġnoms":7146,"Ġfutur":7147,"Unfortunately":7148,"Ġremained":7149,"Ġenvis":7150,"Ġoccuper":7151,"ĠobÃ©":7152,"Ġkinds":7153,"Ġphotograph":7154,"ĠprÃ©sente":7155,"Ġuseful":7156,"ĠpoÃ¨me":7157,"perate":7158,"Chois":7159,"ĠportÃ©":7160,"Ġvoie":7161,"ĠÃ©tranger":7162,"Ġmiles":7163,"Shut":7164,"ĠapprÃ©cier":7165,"Ã©matiques":7166,"Ġchecked":7167,"Ġsoif":7168,"Ġclearly":7169,"Ġpleasure":7170,"Ġcirc":7171,"Ġcritique":7172,"Ġbathroom":7173,"Ġconcentrer":7174,"Ġmignon":7175,"ĠInternet":7176,"Ġjumped":7177,"Ġwoods":7178,"Ġmagnifique":7179,"Ġaccustomed":7180,"Good":7181,"mÃªmes":7182,"orent":7183,"ĠVous":7184,"erly":7185,"Ġcla":7186,"Ġcast":7187,"Ġnaked":7188,"Ġneither":7189,"Ġow":7190,"Ġrejet":7191,"Ã¨ter":7192,"aujourd":7193,"icer":7194,"endorm":7195,"agner":7196,"Ġstat":7197,"Ġstam":7198,"Ġmondi":7199,"Ġproxim":7200,"olÃ©e":7201,"enser":7202,"Ġwhis":7203,"agement":7204,"ĠÃ©lev":7205,"Ġeverywhere":7206,"Ġpassion":7207,"onnÃ©e":7208,"onnable":7209,"Ġferions":7210,"Ġposa":7211,"aimez":7212,"Ġveniez":7213,"Ġretired":7214,"ducation":7215,"Ġguide":7216,"ĠdÃ©sire":7217,"Ġjoueur":7218,"Ġarriva":7219,"Ġdepends":7220,"Ġimportance":7221,"ĠcoupÃ©":7222,"Ġ18":7223,"Ġmoteur":7224,"Ġbouger":7225,"ĠprÃªtÃ©":7226,"Ġinsurance":7227,"Ġordres":7228,"Ġruns":7229,"Parlez":7230,"Parfois":7231,"Ġacted":7232,"Ġchanteur":7233,"Ġgarer":7234,"Ġprisoners":7235,"Ġartiste":7236,"ĠapprÃ©cie":7237,"Ġdelicious":7238,"Ġtimbres":7239,"Ġborrowed":7240,"Ġtraduire":7241,"Ġtotalement":7242,"ĠpossibilitÃ©":7243,"ĠsÃ©rieuse":7244,"ĠtrompÃ©":7245,"ĠmathÃ©matiques":7246,"Ġwebs":7247,"Ġneighborhood":7248,"Connaissez":7249,"Ġleader":7250,"Ġrefusa":7251,"Ġmalheureux":7252,"board":7253,"Ġbarely":7254,"Ġfrightened":7255,"ĠcrÃ©dit":7256,"ĠcontrÃ´ler":7257,"ĠproximitÃ©":7258,"Ab":7259,"Rep":7260,"pa":7261,"rants":7262,"Ġug":7263,"Ġivre":7264,"ĠEngland":7265,"Ġtur":7266,"Ġayons":7267,"Ġpill":7268,"istre":7269,"Ġlune":7270,"Ġcaisse":7271,"Ġmerci":7272,"Ġwore":7273,"asun":7274,"Ġbeur":7275,"Ġbud":7276,"llo":7277,"ĠvirÃ©":7278,"atif":7279,"atoes":7280,"orre":7281,"Ġjeux":7282,"Ġjail":7283,"Ġunable":7284,"Ġrese":7285,"rif":7286,"riday":7287,"Ġmembre":7288,"champ":7289,"Ġcele":7290,"ically":7291,"ĠplantÃ©":7292,"pper":7293,"ĠÃ©tage":7294,"Ġfroi":7295,"Ġexch":7296,"Ġamen":7297,"Ġcompet":7298,"Ġground":7299,"ĠrÃ©cemment":7300,"Ġhappiness":7301,"Ġcloser":7302,"Ġrestes":7303,"Ġbrush":7304,"Ġoffended":7305,"ĠblÃ¢":7306,"Ġspeed":7307,"Ġvenues":7308,"ĠFriday":7309,"ĠguÃ¨re":7310,"Ġminuit":7311,"Ġsentais":7312,"Ġpromesses":7313,"Ġchildhood":7314,"ĠmontÃ©":7315,"Ġenseigne":7316,"Ġinsist":7317,"Ġdifficiles":7318,"Ġsolved":7319,"heureusement":7320,"Ġfiers":7321,"Ġvoudrait":7322,"ĠOsaka":7323,"Ġsalary":7324,"Ġnourrir":7325,"Ġcopain":7326,"Ġexample":7327,"Ġslight":7328,"Ġairpl":7329,"ĠJaponais":7330,"Ġjournaux":7331,"Ġhumeur":7332,"Ġsteak":7333,"Ġabandoned":7334,"aign":7335,"Ġreconnaissante":7336,"Ġrequest":7337,"Ġtreated":7338,"ĠÃ©trangers":7339,"Ġdisease":7340,"itutrice":7341,"Ġbelongs":7342,"Crois":7343,"ĠAmÃ©rique":7344,"ĠdÃ©marrer":7345,"Ġguests":7346,"Malheureusement":7347,"ĠdÃ©jeunÃ©":7348,"Ġresponsibility":7349,"Ġugly":7350,"Jam":7351,"Tenez":7352,"arest":7353,"cles":7354,"fety":7355,"nique":7356,"oÃ¯":7357,"oÃ»t":7358,"ram":7359,"Ġident":7360,"ouill":7361,"Ġdating":7362,"ĠaÃ®":7363,"Ġpous":7364,"Ġsortes":7365,"ĠcÃ¢":7366,"Ġnor":7367,"Ġnur":7368,"itaire":7369,"Ġgal":7370,"Ġnearest":7371,"Ġjokes":7372,"Ġrely":7373,"riage":7374,"rices":7375,"Ġhaute":7376,"ĠrÃ©t":7377,"Ġracc":7378,"Ġparked":7379,"Ġparvenir":7380,"Ġwasting":7381,"uteur":7382,"urÃ©":7383,"Ġmonn":7384,"Ġarea":7385,"Ġshape":7386,"Ġaliments":7387,"ular":7388,"icient":7389,"Ġapply":7390,"venues":7391,"Ġcode":7392,"Ġadul":7393,"Ġperform":7394,"Ġdrown":7395,"Ġwhenever":7396,"Ã¢ce":7397,"Entre":7398,"Ġmoqu":7399,"Ġpromises":7400,"Ġrepair":7401,"ancÃ©":7402,"ĠlaissÃ©e":7403,"espoir":7404,"Ġraisons":7405,"ĠdÃ©pensÃ©":7406,"Ġmotiv":7407,"Ġmayor":7408,"Ġhabitude":7409,"ĠfiÃ¨vre":7410,"ugle":7411,"Ġfoods":7412,"Ġpermit":7413,"Ġeffic":7414,"Ġhung":7415,"Ġenjoying":7416,"ology":7417,"ologie":7418,"Ġwinning":7419,"incendie":7420,"ĠresponsabilitÃ©":7421,"ĠcoÃ»tÃ©":7422,"Ġcleaned":7423,"Ġcomplained":7424,"Ġperdit":7425,"Ġstyle":7426,"Ġsouffre":7427,"Ġsmells":7428,"Ġlocal":7429,"Ġvendredi":7430,"Ġsmiled":7431,"Ġdestination":7432,"Ġcrossed":7433,"Ġculture":7434,"Ġcigarette":7435,"Ġexciting":7436,"Ġfinger":7437,"Ġdifficulty":7438,"Ġpocket":7439,"Ġtemperature":7440,"Ġoccurred":7441,"Ġbetrayed":7442,"Ġillegal":7443,"Ġvaisselle":7444,"Jamais":7445,"Ġnurse":7446,"Dr":7447,"Hand":7448,"Mother":7449,"Passe":7450,"Say":7451,"des":7452,"rain":7453,"ĠWhat":7454,"ĠTh":7455,"Ġdy":7456,"Ġdare":7457,"Ġdry":7458,"Ġdanse":7459,"Ġaill":7460,"Ġpushed":7461,"Ġloyer":7462,"Ġcouvert":7463,"inite":7464,"anic":7465,"ombre":7466,"Ġded":7467,"Ġhated":7468,"Ġgren":7469,"Ġja":7470,"oted":7471,"Ġlay":7472,"Ġsup":7473,"Ġelev":7474,"chose":7475,"Ġrab":7476,"Ġchosen":7477,"Ã©taire":7478,"icted":7479,"Ġteen":7480,"Ġlif":7481,"Ġlift":7482,"Ġplantes":7483,"aired":7484,"avance":7485,"ueill":7486,"Ġaveugle":7487,"Ġdesp":7488,"essence":7489,"Ġability":7490,"uler":7491,"ouvÃ©":7492,"Ġusing":7493,"Ġgramm":7494,"Ġbeaux":7495,"Ġentier":7496,"Ġcoffre":7497,"cky":7498,"Ã©rant":7499,"Ġcontacter":7500,"Ġdemandez":7501,"Ġspread":7502,"Ġspace":7503,"Ġpouvions":7504,"Ġprices":7505,"Ġaccent":7506,"Ġintim":7507,"raw":7508,"Ġcareless":7509,"Ġsmaller":7510,"Ġcourte":7511,"Ġcourrier":7512,"Ġpropri":7513,"Ġremain":7514,"Ġremark":7515,"Ġhurried":7516,"Ġraised":7517,"Ġincomp":7518,"ĠdÃ©prim":7519,"Ġrendue":7520,"Ġorders":7521,"ĠtempÃ©r":7522,"Ġsuivant":7523,"Ġsouhaiterais":7524,"Ġspending":7525,"Ġprudents":7526,"Ġcollect":7527,"ĠlumiÃ¨res":7528,"instituteur":7529,"Ġpressure":7530,"ĠnÃ©gl":7531,"Ġpuissiez":7532,"Aimerais":7533,"Ġrecommend":7534,"ĠSundays":7535,"Ġclimbed":7536,"Ġimpatiente":7537,"Ġdivorced":7538,"Ġdrives":7539,"Ġsucceeded":7540,"Ġpersuade":7541,"Ġrecognized":7542,"Gardez":7543,"ĠÃ©teint":7544,"Ġassistant":7545,"ĠsauvÃ©":7546,"ĠdiscutÃ©":7547,"Ġmembres":7548,"Ġstrict":7549,"ĠdÃ©Ã§ue":7550,"Ã©teindre":7551,"Ġmisunderstand":7552,"Ġarguing":7553,"Ġrembours":7554,"espÃ©rais":7555,"Ġquotidienne":7556,"Ġfurniture":7557,"Ġstamps":7558,"Ġbeurre":7559,"From":7560,"Leur":7561,"Moi":7562,"Oubl":7563,"Sel":7564,"eus":7565,"iÃ©s":7566,"rat":7567,"rure":7568,"rise":7569,"Ġpond":7570,"Ġlat":7571,"Ġciv":7572,"Ġfous":7573,"Ġfence":7574,"quante":7575,"ases":7576,"Ġhill":7577,"ĠgÃª":7578,"lever":7579,"Ġqueue":7580,"Ġjazz":7581,"ources":7582,"Ġoil":7583,"ril":7584,"oiff":7585,"Ġinutile":7586,"Ġenqu":7587,"chiez":7588,"Ġchand":7589,"Ġchall":7590,"Ġones":7591,"verse":7592,"tud":7593,"ĠdonnÃ©es":7594,"avions":7595,"Ġyourselves":7596,"Ġallum":7597,"uelle":7598,"ĠdÃ©ch":7599,"ortable":7600,"ivez":7601,"Ġappelle":7602,"Neither":7603,"Ġtouched":7604,"Ġcheese":7605,"Ġimpress":7606,"Ġattach":7607,"Ġbran":7608,"Ġlovely":7609,"achÃ¨te":7610,"Ġvieilles":7611,"ĠAn":7612,"Ġresta":7613,"Ġflower":7614,"Ġflics":7615,"iquÃ©e":7616,"Ġimage":7617,"ĠSp":7618,"Ġvolume":7619,"Ġfacture":7620,"ĠgardÃ©":7621,"ĠblessÃ©s":7622,"Ġinterrupt":7623,"Chacun":7624,"autor":7625,"Quelques":7626,"Ġclassroom":7627,"Ġcomplex":7628,"ĠdisposÃ©":7629,"Ġconnaissais":7630,"Ġbatter":7631,"Ġdistrib":7632,"ĠDay":7633,"ĠHarvard":7634,"Ġenseignante":7635,"ĠÃ©loig":7636,"Ġviolin":7637,"Ġmodel":7638,"Ġambulance":7639,"Ġtradition":7640,"Ġmanges":7641,"Ġmangez":7642,"Ãītiez":7643,"Ġpulled":7644,"Ġfoolish":7645,"Ġvolontaire":7646,"Ġmidnight":7647,"Ġserviette":7648,"Ġdocuments":7649,"Ġcigarettes":7650,"Ġinvestig":7651,"Ġclients":7652,"Ġpractice":7653,"Ã©chapper":7654,"Ġspectacle":7655,"Ġtremblement":7656,"ĠcÃ©libataire":7657,"Ġexemple":7658,"ĠcontrariÃ©":7659,"According":7660,"Ġpantalon":7661,"Ġcelebr":7662,"ĠtempÃ©rature":7663,"Sit":7664,"bri":7665,"uves":7666,"word":7667,"Ġdame":7668,"ones":7669,"Ġcrai":7670,"Ã©rence":7671,"Ġnone":7672,"omac":7673,"Ġbite":7674,"Ġquinze":7675,"Ġthin":7676,"eures":7677,"tered":7678,"auriez":7679,"Ġseats":7680,"Ġforces":7681,"amÃ©l":7682,"aces":7683,"ĠgoÃ»":7684,"Ġallong":7685,"allow":7686,"Ġavenir":7687,"aved":7688,"Ġfaite":7689,"Ġrig":7690,"Ġamour":7691,"Ġsaoul":7692,"Ġpartit":7693,"Ġpartager":7694,"appl":7695,"appel":7696,"ĠÃ©gard":7697,"Ġlongs":7698,"Ġworkers":7699,"Ġfromage":7700,"cked":7701,"Ġoffert":7702,"Ġexpress":7703,"Ġvisa":7704,"Ġpleure":7705,"Ġrepaired":7706,"Ġhanded":7707,"Ġscar":7708,"Ġscare":7709,"Ġincl":7710,"Ġtravaillent":7711,"Ġpetites":7712,"ĠdÃ©primÃ©":7713,"Ġcorner":7714,"Ġbadly":7715,"Ġtomba":7716,"ĠÃ©poque":7717,"Ġretourne":7718,"Ġcertaines":7719,"Ġiron":7720,"Ġindust":7721,"Ġworrying":7722,"Ġdisposer":7723,"zzy":7724,"Ġparcour":7725,"ĠpressÃ©":7726,"Ġplaint":7727,"Ġmangent":7728,"Ġnerveuse":7729,"Ġpleasant":7730,"Ġcurieux":7731,"Ġridicul":7732,"Ġravie":7733,"Ġ50":7734,"ĠhabituÃ©e":7735,"Ġignored":7736,"irmiÃ¨re":7737,"ordinateur":7738,"Ġmerveille":7739,"Retour":7740,"Ġsoudaine":7741,"Ġmembers":7742,"Ġobviously":7743,"Ġplaisanter":7744,"Few":7745,"Ġnegot":7746,"Ġdamage":7747,"ĠamÃ©lior":7748,"Ġgorge":7749,"Ġhouses":7750,"Ġmonnaie":7751,"Ġdrowned":7752,"Father":7753,"Spe":7754,"mi":7755,"nom":7756,"Ġaunt":7757,"Ġpal":7758,"Ġpoig":7759,"Ġsage":7760,"ening":7761,"Ġcreat":7762,"ĠcÃ©rÃ©":7763,"ining":7764,"Ã©ro":7765,"Ġwit":7766,"Ġboi":7767,"Ġbanc":7768,"Ġbomb":7769,"Ġhi":7770,"oust":7771,"euble":7772,"oient":7773,"Ġmel":7774,"Ġrater":7775,"Ġproof":7776,"aud":7777,"Ã©tude":7778,"Ġsepar":7779,"Ġparmi":7780,"Ġforc":7781,"Ġdonn":7782,"ades":7783,"Ġjeans":7784,"Ġstairs":7785,"Ġsoft":7786,"Ġsocial":7787,"ension":7788,"Ġfrustr":7789,"osez":7790,"Ã©che":7791,"Ġalcohol":7792,"uls":7793,"Ġsafety":7794,"enseigner":7795,"Ġcrain":7796,"Ġtouche":7797,"appellerai":7798,"Ġjustice":7799,"ignit":7800,"Ã©lic":7801,"ounds":7802,"ĠdeuxiÃ¨me":7803,"Ass":7804,"Ġdizzy":7805,"Ġyellow":7806,"ĠvisitÃ©":7807,"Ġplanned":7808,"Ġsentie":7809,"Ġoper":7810,"Ġsensible":7811,"Ġlately":7812,"Ġadvance":7813,"ĠdÃ©pÃª":7814,"ĠdÃ©pÃªcher":7815,"ĠcompliquÃ©":7816,"ĠtraÃ®":7817,"Ġinsul":7818,"Parlons":7819,"ĠrencontrÃ©es":7820,"Ġwondering":7821,"ĠprÃ©sentÃ©":7822,"Ġwriter":7823,"Ġservir":7824,"Ġsource":7825,"Cessez":7826,"Ġruined":7827,"Ġparfaite":7828,"Ġsuffisant":7829,"Ġdescendre":7830,"Ġressens":7831,"Ġpuisses":7832,"aimais":7833,"Desc":7834,"Ġatteindre":7835,"Ġenvirons":7836,"Ġsouper":7837,"Ġrempl":7838,"Ġtalented":7839,"Ġentendue":7840,"Ġrelaxed":7841,"Ġpersuaded":7842,"posez":7843,"ĠdÃ©rangerait":7844,"Ġmaster":7845,"ĠÃ©lÃ©g":7846,"Jusqu":7847,"Ġrompu":7848,"Ġaudience":7849,"Ġfailli":7850,"censeur":7851,"Ġairplane":7852,"Ġelevator":7853,"Selon":7854,"HÃ©":7855,"Yes":7856,"iest":7857,"off":7858,"tÃ©e":7859,"Ġtat":7860,"Ġtante":7861,"Ġpity":7862,"isa":7863,"Ġmons":7864,"Ġnons":7865,"Ġfarm":7866,"Ġbow":7867,"Ġvan":7868,"Ġhug":7869,"Ġgym":7870,"Ġjoking":7871,"Ġunus":7872,"Ã©tique":7873,"Ġseason":7874,"ĠforÃªt":7875,"ĠauprÃ¨s":7876,"ageux":7877,"opin":7878,"Ġstun":7879,"ifiÃ©":7880,"Ġsomeday":7881,"Ġexist":7882,"ĠarriÃ¨re":7883,"Ġalent":7884,"Doing":7885,"Ġusage":7886,"Ġdisiez":7887,"Ġgrab":7888,"Ġrende":7889,"Ġrenvers":7890,"Ġhero":7891,"Ġserved":7892,"rently":7893,"Ġtravailles":7894,"Ġloan":7895,"Ġpassait":7896,"Ġfinal":7897,"Ġblag":7898,"issant":7899,"aissance":7900,"Only":7901,"Ġshelf":7902,"Ġenfance":7903,"Ġretire":7904,"ption":7905,"Asse":7906,"ĠdÃ©sir":7907,"Ġpuzz":7908,"ĠderniÃ¨res":7909,"Ġterme":7910,"Ġveuillez":7911,"Ġwherever":7912,"ĠempÃª":7913,"Ġconfess":7914,"Ġconfront":7915,"Ġmortes":7916,"Ġaimerais":7917,"Ġcoups":7918,"Ġrefuser":7919,"Ġvivons":7920,"Ġrappelles":7921,"ĠprÃ©sence":7922,"Ġpoker":7923,"Bec":7924,"Parle":7925,"utiliser":7926,"ĠinvitÃ©e":7927,"Ġfalling":7928,"Disposez":7929,"Ġchatte":7930,"Ġbrief":7931,"ĠutilisÃ©":7932,"Ġsurprises":7933,"Ġcontinued":7934,"Ġouvrit":7935,"Ġgreet":7936,"ĠÃ©vident":7937,"Ġsignific":7938,"ĠillÃ©g":7939,"Ġfash":7940,"ĠlÃ©ger":7941,"Ġremarqu":7942,"Ġsouffle":7943,"ĠprogrÃ¨s":7944,"Ġlimite":7945,"Ġcesser":7946,"Ġtendance":7947,"Ġsuspicious":7948,"Ġburst":7949,"Devrais":7950,"interromp":7951,"ĠdifficultÃ©":7952,"Ġcapitale":7953,"Ġtiroir":7954,"ĠÃ©norme":7955,"Ġentirely":7956,"Ġprevented":7957,"ĠrentrÃ©e":7958,"Ġdetermin":7959,"Ġanxious":7960,"Ġeventually":7961,"Ġrejoindre":7962,"Ġissue":7963,"Ġdisagree":7964,"Ġeducation":7965,"Ġefficace":7966,"Toute":7967,"aÃ®":7968,"go":7969,"iants":7970,"mand":7971,"oom":7972,"uch":7973,"xante":7974,"Ġtong":7975,"oue":7976,"Ġdors":7977,"Ġaid":7978,"Ġaction":7979,"ennemi":7980,"ina":7981,"Ġways":7982,"asons":7983,"ĠbÃªte":7984,"aiment":7985,"entrer":7986,"lection":7987,"etÃ©":7988,"Ġneck":7989,"ĠchÃ¢":7990,"Ġcere":7991,"Ġtelles":7992,"add":7993,"Ġauquel":7994,"Ġallions":7995,"Ġstate":7996,"Ġstars":7997,"ifier":7998,"mped":7999,"oli":8000,"Ġexception":8001,"Three":8002,"oyal":8003,"oyÃ©e":8004,"Ġcrack":8005,"Ġcrise":8006,"Ġmanif":8007,"ĠbeautÃ©":8008,"Ġsaison":8009,"Ġparlait":8010,"Ġadult":8011,"Ġnowhere":8012,"Ġwrites":8013,"Ġcommettre":8014,"Ġphys":8015,"Ġpale":8016,"Ġmode":8017,"Ġcourut":8018,"Ġtenue":8019,"rÃ©h":8020,"iqua":8021,"Ġinvite":8022,"Ġfuri":8023,"phab":8024,"ĠempÃªcher":8025,"Ġremonter":8026,"Ġdisput":8027,"Ã©der":8028,"Ġmontra":8029,"Ġpatr":8030,"Ġboug":8031,"Ġrendrai":8032,"ĠprÃ©fÃ¨res":8033,"aled":8034,"Ġpoches":8035,"Ġreviens":8036,"Ġnuages":8037,"ledge":8038,"Choose":8039,"Ġexamens":8040,"Ġbague":8041,"ibi":8042,"Ġcomplet":8043,"Ġrub":8044,"Ġchaussettes":8045,"Ġcleaning":8046,"Ġarmy":8047,"Ġsemblent":8048,"Ġtreize":8049,"ĠrÃ©veillÃ©e":8050,"Ã¯n":8051,"ĠAmericans":8052,"ĠenseignÃ©":8053,"Ġpieces":8054,"Ġfrapper":8055,"ĠrÃ©alisÃ©":8056,"Ġapproach":8057,"Ġsettle":8058,"Ġinnocence":8059,"ĠmÃ©th":8060,"Ġconduite":8061,"Ġevidence":8062,"Avant":8063,"humeur":8064,"ĠrecommandÃ©":8065,"Passez":8066,"Ġretrouver":8067,"ĠCanada":8068,"Ġskinny":8069,"Without":8070,"ĠhÃ©ros":8071,"Ġescaliers":8072,"Ġfroide":8073,"Because":8074,"Ġfashion":8075,"Ġtongue":8076,"Cher":8077,"Lui":8078,"Water":8079,"aments":8080,"ertÃ©":8081,"erves":8082,"Ġcy":8083,"ĠmÃª":8084,"ĠmÃªmes":8085,"hemat":8086,"Ġfog":8087,"Ġbais":8088,"Ġbond":8089,"Ġvague":8090,"unch":8091,"lex":8092,"Ġunif":8093,"Ġod":8094,"Ġmember":8095,"Ġround":8096,"Ġestim":8097,"Ã©tage":8098,"Ã©tagÃ¨re":8099,"Ġsearch":8100,"Ġparking":8101,"Ġwealth":8102,"aviez":8103,"Ġconte":8104,"Ġdesert":8105,"ĠMars":8106,"Ã©cris":8107,"Ġhistoi":8108,"Ġamount":8109,"Ġsable":8110,"Ġsachiez":8111,"bling":8112,"Ġserp":8113,"Ġbienvenue":8114,"Ġcarp":8115,"Ġtoile":8116,"Ġpercent":8117,"Ġdemanded":8118,"Ġprepar":8119,"Ġdrag":8120,"Ġmalch":8121,"Ġpharm":8122,"ĠdÃ©couv":8123,"ĠdÃ©cÃ©dÃ©":8124,"achÃ¨ter":8125,"phants":8126,"Ġconfond":8127,"Ġscene":8128,"Ġfriendship":8129,"ĠtrouvÃ©e":8130,"Ġforest":8131,"Ġadvise":8132,"Ġstudies":8133,"Ġcoupe":8134,"Ġcapables":8135,"Ġfallen":8136,"ĠamusÃ©e":8137,"Ġinstituteur":8138,"Cesse":8139,"ĠthÃ©Ã¢tre":8140,"Ġregretter":8141,"urgence":8142,"Ġteaches":8143,"Ġbillets":8144,"ĠtraitÃ©":8145,"Ġtraveled":8146,"Ġillness":8147,"ĠrÃ©pondit":8148,"Ġrarely":8149,"Ġbleue":8150,"Ġpossession":8151,"ĠrÃ©cup":8152,"Ġmerc":8153,"Ġselling":8154,"Ġprudentes":8155,"Ãītais":8156,"Ġoption":8157,"ĠhÃ´pital":8158,"ĠmÃ©dicaments":8159,"Ġemploye":8160,"ĠÃ©chec":8161,"Ġparticiper":8162,"Ġaugmentation":8163,"Croyez":8164,"ĠUS":8165,"llemagne":8166,"Ġsurface":8167,"Essayons":8168,"Ġoreilles":8169,"Ġgraduated":8170,"oublierai":8171,"ĠpoupÃ©e":8172,"Ġailleurs":8173,"amÃ©li":8174,"Ġhistoires":8175,"Part":8176,"School":8177,"Sommes":8178,"abl":8179,"ius":8180,"Ġi":8181,"ĠDo":8182,"Ġdor":8183,"ĠpÃªche":8184,"Ġsite":8185,"Ġcad":8186,"Ġcoiff":8187,"ĠfumÃ©e":8188,"Ġvoc":8189,"ĠvÃ©h":8190,"Ġhost":8191,"arc":8192,"Ġgel":8193,"Ġneiger":8194,"Ġodd":8195,"rime":8196,"ĠlavÃ©":8197,"Ġinhabit":8198,"chÃ©s":8199,"Ġrat":8200,"Ġrough":8201,"ĠrÃ´le":8202,"Ġceinture":8203,"irts":8204,"Ġpourrai":8205,"Ġaurions":8206,"illon":8207,"utation":8208,"Ġstories":8209,"Ġmys":8210,"oreille":8211,"ifiques":8212,"Ġshorter":8213,"apers":8214,"Ġwhose":8215,"ĠmaÃ®tre":8216,"Ġarmes":8217,"ĠcrÃ¨me":8218,"Ġrenv":8219,"apporter":8220,"ounce":8221,"Ġtravaillez":8222,"ĠcoÃ¯n":8223,"mbers":8224,"Ġcaus":8225,"Ġbrown":8226,"Ġpassa":8227,"Ġpassword":8228,"Ġcontest":8229,"udes":8230,"Ġblanche":8231,"Ġposter":8232,"ĠÃ©cras":8233,"ĠdÃ©cÃ©d":8234,"Ġguard":8235,"Ġmoque":8236,"Ġjoues":8237,"Ġjouait":8238,"Ġjobs":8239,"Ġawful":8240,"anced":8241,"attention":8242,"Ġunderstands":8243,"Ġscold":8244,"Ġdepart":8245,"Ġassum":8246,"ngth":8247,"Rec":8248,"Ġdouz":8249,"ĠexcitÃ©":8250,"ĠfatiguÃ©es":8251,"Ġabsor":8252,"erreurs":8253,"Ġskill":8254,"ĠdiffÃ©rents":8255,"Ġrelation":8256,"Ġreliable":8257,"Ġnatif":8258,"Ġcopie":8259,"Ã©poque":8260,"ĠÃ©tudiante":8261,"Ġsuffering":8262,"ĠdÃ®nÃ©":8263,"Ġstrength":8264,"Ġmenu":8265,"Ġdreaming":8266,"Ġsurvived":8267,"attendrai":8268,"Ġdiscussed":8269,"ĠgÃ©nie":8270,"Apporte":8271,"Ġproduits":8272,"ĠÃ©gal":8273,"Ġdrove":8274,"ricitÃ©":8275,"Ġexperien":8276,"Ġcolline":8277,"ĠempruntÃ©":8278,"Ġappeared":8279,"Ġrempli":8280,"Demand":8281,"Ġfamilier":8282,"ÃªtetÃ©":8283,"Ġimprove":8284,"Ġmagazines":8285,"Ġpersuader":8286,"ermany":8287,"Ġfassions":8288,"Ġdiplom":8289,"Ġcommitted":8290,"Ġleva":8291,"Ġadorable":8292,"Ġcriminal":8293,"Ġrespecter":8294,"ĠÃ©veillÃ©":8295,"Ġcuisinier":8296,"Ġclouds":8297,"Ġtarte":8298,"Ġfinanci":8299,"Ġgentillesse":8300,"Ġdisponible":8301,"ĠÃ©pousÃ©":8302,"Ġfalse":8303,"ĠcongÃ©s":8304,"Ġbudget":8305,"Ġmisunderstanding":8306,"..":8307,"50":8308,"Mar":8309,"Pres":8310,"com":8311,"cents":8312,"ias":8313,"mis":8314,"pock":8315,"viens":8316,"ĠThat":8317,"ĠpÃ©t":8318,"Ġpression":8319,"Ġpneu":8320,"Ġcaut":8321,"Ġmente":8322,"Ġmoust":8323,"anou":8324,"Ġwounded":8325,"ĠbÃ©nÃ©":8326,"Ġviennes":8327,"atis":8328,"ential":8329,"Ġtheater":8330,"Ġgain":8331,"ĠgÃ©nÃ©":8332,"usion":8333,"Ġjoy":8334,"Ġmeas":8335,"ĠleÃ§on":8336,"Ġbeard":8337,"Ã¨che":8338,"Ġrug":8339,"Ã©tiez":8340,"Ġparte":8341,"illÃ©es":8342,"Ġmyst":8343,"ĠdÃ©n":8344,"Ġknowing":8345,"angez":8346,"ific":8347,"usting":8348,"Ġdeviner":8349,"ational":8350,"icip":8351,"law":8352,"ĠtouchÃ©":8353,"Ġbeauty":8354,"Ġgoods":8355,"Ġmarriage":8356,"Ġentra":8357,"Ġbruy":8358,"Ġbrouill":8359,"Ġpasseng":8360,"Ġcontents":8361,"Ġblank":8362,"Ġspell":8363,"Ġpaquet":8364,"ĠdÃ©sor":8365,"Ġsmiling":8366,"assembl":8367,"ĠdÃ©tail":8368,"ĠconfÃ©rence":8369,"Ġscrew":8370,"pected":8371,"Ġtrouves":8372,"Ġraisonnable":8373,"Ġchanceuse":8374,"Ġrappelez":8375,"Ġcaptain":8376,"Ġbegins":8377,"Ġshoe":8378,"ĠblessÃ©es":8379,"Ġactions":8380,"Ġactiv":8381,"Ġrespond":8382,"ĠchantÃ©":8383,"Ġinterromp":8384,"ĠdÃ©bat":8385,"Ġrelieved":8386,"Ġrisques":8387,"Ġcinquante":8388,"Ġrestez":8389,"Ġsouris":8390,"Ġtaxes":8391,"Ġconnaissent":8392,"Ġconnaissons":8393,"arrÃªta":8394,"Ġacceptable":8395,"Ġpuni":8396,"Ġknock":8397,"Ġfrappa":8398,"ĠautorisÃ©e":8399,"ĠautorisÃ©s":8400,"ĠRome":8401,"Ġrecevoir":8402,"Ġmodern":8403,"Ġdebt":8404,"Ġbleed":8405,"Ġ197":8406,"Ġessaie":8407,"Ġembrasser":8408,"Ġvictim":8409,"ĠcessÃ©":8410,"Ġdeeply":8411,"inquiÃ©ter":8412,"issement":8413,"Ġromant":8414,"Ġelection":8415,"Ġsoudain":8416,"Ġprisonniers":8417,"Ġlourd":8418,"EspÃ©rons":8419,"Ġambitious":8420,"ĠloupÃ©":8421,"Ġcancel":8422,"ĠÃ©chappÃ©":8423,"Ġquartier":8424,"abandonner":8425,"ĠÃ¢gÃ©e":8426,"Ġstealing":8427,"Ġpoursuiv":8428,"apprÃ©cierais":8429,"Ġfield":8430,"Ġconsulter":8431,"Ã©conomie":8432,"Ġmondiale":8433,"orrect":8434,"Ġquotidiennement":8435,"Ġchallen":8436,"hematics":8437,"Ġpassengers":8438,"Eat":8439,"Gu":8440,"Hav":8441,"Seriez":8442,"Tour":8443,"cue":8444,"fond":8445,"hy":8446,"ipped":8447,"lant":8448,"look":8449,"mos":8450,"tons":8451,"xpected":8452,"Ġtit":8453,"ĠtÃ¢che":8454,"Ġpants":8455,"enu":8456,"eras":8457,"Ġmaire":8458,"ĠmÃ©tÃ©":8459,"Ġmettez":8460,"ĠnÃ´":8461,"Ġnaissance":8462,"ompe":8463,"Ġfirm":8464,"Ġdece":8465,"Ġhole":8466,"uste":8467,"Ġunlu":8468,"Ġreasons":8469,"tee":8470,"Ġlav":8471,"Ġinde":8472,"cean":8473,"Ġennem":8474,"Ġdozen":8475,"chent":8476,"chau":8477,"Ġrit":8478,"Ġanger":8479,"aler":8480,"verrai":8481,"Ġplants":8482,"osÃ©":8483,"irurg":8484,"Ġparvenu":8485,"illy":8486,"ĠallumÃ©":8487,"Ġsocks":8488,"Ġexag":8489,"Ġdumb":8490,"Ġhappier":8491,"Ġlongues":8492,"Ġdirectement":8493,"Ġenth":8494,"Ġparlais":8495,"cket":8496,"Ġperds":8497,"Ġfautes":8498,"Ġferas":8499,"Ġmalin":8500,"Once":8501,"Ġintrig":8502,"Env":8503,"Ġsentit":8504,"Ġsentait":8505,"ĠAl":8506,"Ġproperly":8507,"Ġmeth":8508,"Ġfully":8509,"Ġregardes":8510,"ĠdÃ©ton":8511,"Ġunderstanding":8512,"Ġremise":8513,"Ġtrouva":8514,"ĠSh":8515,"Ġincome":8516,"Ġassurance":8517,"Ġboard":8518,"Ġcherches":8519,"Ġvivait":8520,"Ġimportantes":8521,"Ġgreatest":8522,"Ġgenius":8523,"Ãīte":8524,"Ġactor":8525,"Ġargue":8526,"Ġtempor":8527,"Ġmenac":8528,"velop":8529,"ibly":8530,"ĠrÃªver":8531,"Ġaddition":8532,"ĠsurvÃ©cu":8533,"Appelez":8534,"Ġvalises":8535,"Ġboxes":8536,"ĠfonctionnÃ©":8537,"ignez":8538,"Ġstronger":8539,"occupe":8540,"ĠÃ©viter":8541,"Ġknocked":8542,"Ġplainte":8543,"tress":8544,"Ġpolitics":8545,"ĠrÃ©aliser":8546,"Ġsatisfaite":8547,"monie":8548,"Ġholding":8549,"Ġappears":8550,"Ãīcrivez":8551,"Ġpoured":8552,"Ġapplication":8553,"Ġnewspapers":8554,"Ġremercie":8555,"Ġdoubts":8556,"Ġconstamment":8557,"Ġreprod":8558,"Ġscientifique":8559,"Ġflying":8560,"Ġcommittee":8561,"Ġcrowded":8562,"Ġdefinite":8563,"ĠdÃ©mÃ©nagÃ©":8564,"ĠannulÃ©":8565,"Ġfifty":8566,"Ġfifteen":8567,"Ġcapitaine":8568,"ĠracontÃ©":8569,"Ġcanceled":8570,"ĠdÃ©pourvu":8571,"ĠÃ©crivain":8572,"Ġterms":8573,"Ġincredible":8574,"Ġliquide":8575,"Ġbottom":8576,"Ġcastle":8577,"Ġwitness":8578,"ĠchÃ¢teau":8579,"Ġbrouillard":8580,"Ġunlucky":8581,"Aide":8582,"Cle":8583,"Kyoto":8584,"dis":8585,"io":8586,"neur":8587,"pre":8588,"ran":8589,"umb":8590,"Ġeur":8591,"ĠCe":8592,"Ġtal":8593,"ĠtÃ©m":8594,"reen":8595,"Ġdot":8596,"Ġdri":8597,"isÃ©es":8598,"Ġlou":8599,"ĠlÃ¢":8600,"erk":8601,"eral":8602,"ĠmÃ©c":8603,"Ã©ant":8604,"Ã©rez":8605,"ana":8606,"Ġnamed":8607,"ombe":8608,"Ġfoi":8609,"Ġfout":8610,"Ġbarg":8611,"Ġbaked":8612,"arrow":8613,"entendu":8614,"Ġthick":8615,"Ġgate":8616,"Ġlack":8617,"Ġtrack":8618,"Ġrate":8619,"Ã©taient":8620,"renez":8621,"Ġastu":8622,"Ġaside":8623,"oln":8624,"oler":8625,"Ġshame":8626,"Ġexige":8627,"Ġfaith":8628,"Ġarrog":8629,"ciation":8630,"arez":8631,"Ġsieste":8632,"ĠsonnÃ©":8633,"Ġapporter":8634,"tence":8635,"Ġdemie":8636,"Laquelle":8637,"Ġagit":8638,"Ġcheated":8639,"Ã®le":8640,"resseux":8641,"article":8642,"Ġattrib":8643,"Ġgotta":8644,"Ġoffered":8645,"Ġdemandes":8646,"Ġdemandais":8647,"Ġferons":8648,"ĠprÃ©venu":8649,"ĠprÃ©nom":8650,"Ġlasted":8651,"Ġoranges":8652,"Ġparesseux":8653,"Ġwondered":8654,"Ġportez":8655,"ĠtroisiÃ¨me":8656,"Ġconfirm":8657,"Ġarrivent":8658,"ĠremÃ¨de":8659,"Ġhurler":8660,"Ġaimeriez":8661,"acebook":8662,"Ġobst":8663,"Ġkindness":8664,"Ġcompliment":8665,"ĠdouÃ©":8666,"Ġstruck":8667,"Ġmeilleures":8668,"Ġquitte":8669,"ips":8670,"Ġcambri":8671,"Ġfirent":8672,"Ġsalade":8673,"Ġsauce":8674,"Ġpapa":8675,"Ġbitter":8676,"incoln":8677,"Ġhorreur":8678,"Ġbags":8679,"ĠdÃ©rangÃ©":8680,"Ġadmire":8681,"Ġsincere":8682,"Ġrobbed":8683,"Ġopinions":8684,"Ġhandsome":8685,"Ġmourut":8686,"Ġpatients":8687,"Ġvalu":8688,"Ġvalue":8689,"Ġcoincidence":8690,"Ġpickpock":8691,"ĠparticuliÃ¨rement":8692,"ĠRussi":8693,"Ġformulaire":8694,"Ġaccompli":8695,"Ġhauteur":8696,"ĠpossibilitÃ©s":8697,"ĠvÃ©rifiÃ©":8698,"Ġproduct":8699,"DÃ©solÃ©e":8700,"Ġcharger":8701,"ĠconsidÃ©rÃ©":8702,"Ġpowerful":8703,"Ġmensonges":8704,"Ġdeny":8705,"Ġplanted":8706,"ĠquantitÃ©":8707,"Ġjalouse":8708,"Ġdrawer":8709,"ĠreprÃ©s":8710,"ĠÃ©nervÃ©":8711,"ĠnÃ©goci":8712,"Ġbaisser":8713,"Ġpratiquement":8714,"ĠsupplÃ©mentaire":8715,"Frank":8716,"ĠpÃ©nÃ©trer":8717,"Ġchauffeur":8718,"Ġhesitate":8719,"ĠrÃ©gler":8720,"ĠmÃ©decins":8721,"Ġbecoming":8722,"Ġdestroyed":8723,"Ġchandail":8724,"Ġunusual":8725,"addition":8726,"ĠiP":8727,"ĠtÃ©moin":8728,"Bon":8729,"Ceux":8730,"Man":8731,"Non":8732,"Oui":8733,"Pro":8734,"Prices":8735,"cope":8736,"eared":8737,"hand":8738,"huit":8739,"mit":8740,"wer":8741,"writ":8742,"zed":8743,"ĠdotÃ©":8744,"Ġamp":8745,"Ġallem":8746,"Ġsain":8747,"Ġsink":8748,"Ġsail":8749,"Ġsaig":8750,"isent":8751,"Ġlines":8752,"Ġlouer":8753,"Ġcasse":8754,"Ġmall":8755,"ĠmÃ©n":8756,"Ġmobile":8757,"Ġmaman":8758,"Ġnet":8759,"Ġnarrow":8760,"itter":8761,"Ġfake":8762,"Ġvilles":8763,"ormer":8764,"estre":8765,"estomac":8766,"Tomorrow":8767,"aison":8768,"ottes":8769,"ili":8770,"idÃ©es":8771,"lley":8772,"chait":8773,"Ġrues":8774,"Ġheur":8775,"Ġheight":8776,"iew":8777,"tured":8778,"Ġparla":8779,"rences":8780,"Ġweigh":8781,"Ġaurons":8782,"aves":8783,"Ġunexpected":8784,"Ġassi":8785,"Ġstared":8786,"Ġlesson":8787,"ĠdÃ©velopp":8788,"ĠdÃ©rob":8789,"Ġprover":8790,"oiseau":8791,"ĠMex":8792,"herbe":8793,"Ã©cl":8794,"apa":8795,"Ġamical":8796,"Ġpartage":8797,"Ġcroyez":8798,"ĠmaniÃ¨res":8799,"uiss":8800,"Ġclaim":8801,"Ġesprit":8802,"Ġhelps":8803,"obÃ©":8804,"Ġtrained":8805,"Ġcares":8806,"Ġpassage":8807,"Ġsaving":8808,"Ġspare":8809,"Ġmalentendu":8810,"Ġintent":8811,"Ġcourri":8812,"ĠplanÃ¨te":8813,"ĠfranÃ§aise":8814,"ĠrestÃ©s":8815,"accus":8816,"Ġfinding":8817,"ĠgarÃ©":8818,"aiderai":8819,"Ġfortun":8820,"Ġproches":8821,"ĠmÃ©pr":8822,"Ġcroiss":8823,"Ġreviendra":8824,"Ġcamar":8825,"utilise":8826,"Ãītud":8827,"Ġdollar":8828,"Ġpapers":8829,"Ġhigher":8830,"Ġsouri":8831,"Ġirons":8832,"Apportez":8833,"ĠlibertÃ©":8834,"Ġbarking":8835,"Ġdelayed":8836,"Ġordinateurs":8837,"Ġwarning":8838,"Ġcomplaints":8839,"Ġapologized":8840,"Ġcadeaux":8841,"Ġengaged":8842,"Ġperdue":8843,"ĠrÃ©flÃ©chi":8844,"Ġclimat":8845,"loge":8846,"arian":8847,"Ġtotal":8848,"Ġchevaux":8849,"Ġridicule":8850,"Almost":8851,"Ġcandy":8852,"Ġnotebook":8853,"Ġpoulet":8854,"Ġprotection":8855,"ographe":8856,"Ġlimit":8857,"Ġdirecteur":8858,"Ġdetail":8859,"envoyer":8860,"ĠvotÃ©":8861,"ĠemployÃ©s":8862,"Ġelected":8863,"Forget":8864,"Ġgratuite":8865,"Ġholidays":8866,"Ġromans":8867,"Ġdoigts":8868,"Ġmarchand":8869,"Ġadopted":8870,"Ġpockets":8871,"lacer":8872,"ĠcensÃ©e":8873,"DÃ©pÃª":8874,"Ġapparence":8875,"Ġearns":8876,"Ġrepeat":8877,"Ġdescribe":8878,"Ġbench":8879,"ĠcontrariÃ©e":8880,"Ġajouter":8881,"Ġcloset":8882,"Ġtapis":8883,"Ġlampe":8884,"Ġrelationship":8885,"Ġfocus":8886,"ĠblÃ¢mer":8887,"Ġrabb":8888,"Assure":8889,"Ġgreeted":8890,"Ġdetermined":8891,"Ġceremon":8892,"Ġpatronne":8893,"Ġbaiser":8894,"ĠcoÃ¯ncidence":8895,"Angleterre":8896,"Europe":8897,"Mais":8898,"Pard":8899,"Pendant":8900,"bs":8901,"mates":8902,"offe":8903,"roid":8904,"ste":8905,"ump":8906,"ĠThe":8907,"ĠLe":8908,"ĠPourquoi":8909,"Ġtente":8910,"ouff":8911,"reuses":8912,"Ġdurer":8913,"Ġaver":8914,"ĠaussitÃ´t":8915,"Ġsavaient":8916,"Ġlion":8917,"Ġlux":8918,"Ġlower":8919,"ĠlÃ¢che":8920,"Ġcout":8921,"omfortable":8922,"ĠfÃ»mes":8923,"Ġbasse":8924,"Ġbark":8925,"Ġvar":8926,"Ġdeaf":8927,"eule":8928,"Ġjog":8929,"tective":8930,"section":8931,"Ġenreg":8932,"Ġrail":8933,"Ġhein":8934,"outons":8935,"Ġchim":8936,"Ġpros":8937,"icag":8938,"Ġtex":8939,"Ġonze":8940,"Ġplate":8941,"iev":8942,"Ġparoles":8943,"ĠcomitÃ©":8944,"Ġitself":8945,"actÃ©":8946,"nelle":8947,"ops":8948,"lymp":8949,"Ġdesperate":8950,"Ġshock":8951,"Ã©cart":8952,"Ġquels":8953,"ĠcomprÃ©h":8954,"chette":8955,"Ġapprend":8956,"Ġagir":8957,"venez":8958,"Ã©rÃ©s":8959,"Ã©rateur":8960,"Ġpreuves":8961,"Ġblow":8962,"ĠmatiÃ¨re":8963,"Ġvenait":8964,"ĠFacebook":8965,"ĠretirÃ©":8966,"Ã´ts":8967,"Ġfaisiez":8968,"Ġvieill":8969,"ĠrÃ©parÃ©":8970,"Ġregardez":8971,"Ġglo":8972,"Ġlaisses":8973,"Ġconfortable":8974,"Ġscol":8975,"ĠscÃ¨ne":8976,"Ġtrouvent":8977,"Ġfold":8978,"Ġtravaillons":8979,"Ġassume":8980,"Ġconcerne":8981,"Ġtableaux":8982,"Ġgarant":8983,"Ġopening":8984,"Ġdoctors":8985,"Ġbegun":8986,"Ġmiser":8987,"ĠÃ©parg":8988,"Ġsalad":8989,"Ġowns":8990,"ĠChicag":8991,"Ġinterv":8992,"Ġcooked":8993,"Ġattended":8994,"Ġtruly":8995,"Ġcontinua":8996,"Ġclosely":8997,"ĠrÃ©frig":8998,"Ġsacrif":8999,"Ġdisappoint":9000,"Ġsuperbe":9001,"Ġthirteen":9002,"ĠÃ©goÃ¯":9003,"Ġsoixante":9004,"Ġmillions":9005,"Ġurgence":9006,"Ġsuccessful":9007,"Ġdonnez":9008,"Ġprepare":9009,"ĠdÃ©licieux":9010,"Ġnovels":9011,"Ġtromper":9012,"ĠÃ©trangÃ¨res":9013,"Ġlocuteur":9014,"Ġpaintings":9015,"Ġpauvres":9016,"Ġnaturel":9017,"Ġhopes":9018,"ĠmentionnÃ©":9019,"Ġobjectif":9020,"ĠvolontÃ©":9021,"Ġdanced":9022,"Ġcherchais":9023,"Ġflex":9024,"ĠÃ©mot":9025,"Ġnational":9026,"important":9027,"Ġreminds":9028,"Ġuncomfortable":9029,"Ġlarger":9030,"Ġlargest":9031,"Ġprononcer":9032,"Listen":9033,"Ġlogique":9034,"DÃ©pÃªche":9035,"Ġreligion":9036,"Ġannoying":9037,"Ġthreatened":9038,"Ġconclusion":9039,"ĠdiplÃ´mÃ©":9040,"aucun":9041,"Ġtextbook":9042,"Ġeconomy":9043,"ĠingÃ©n":9044,"Ġconcentrate":9045,"Ġpollution":9046,"ĠamenÃ©":9047,"ĠnÃ©glig":9048,"Ġnonsense":9049,"Ġstunned":9050,"Ġmenteuse":9051,"Frankly":9052,"ĠChicago":9053,"Allemagne":9054,"Con":9055,"Cats":9056,"Find":9057,"French":9058,"Heure":9059,"Perm":9060,"RÃ©p":9061,"Time":9062,"co":9063,"ctes":9064,"gs":9065,"gest":9066,"lou":9067,"mbles":9068,"rud":9069,"urent":9070,"vres":9071,"ware":9072,"ysi":9073,"Ġ:":9074,"Ġpy":9075,"Ġpor":9076,"Ġpure":9077,"Ġpig":9078,"Ġpist":9079,"Ġsigner":9080,"Ġsilly":9081,"ony":9082,"ishing":9083,"istence":9084,"envers":9085,"Ġlus":9086,"ervÃ©":9087,"Ġcure":9088,"ĠcÃ´t":9089,"iteur":9090,"Ġfate":9091,"assez":9092,"ascenseur":9093,"Ġdeg":9094,"Ġdevelop":9095,"arture":9096,"Ġunde":9097,"Ġuniver":9098,"Ġretenir":9099,"oids":9100,"antly":9101,"sept":9102,"ilities":9103,"Ġtrompe":9104,"Ã¨ce":9105,"Ã¨ner":9106,"choir":9107,"Ġrassembl":9108,"Ġchirurg":9109,"ieuses":9110,"onst":9111,"Ġweapon":9112,"agÃ©e":9113,"illed":9114,"uez":9115,"Ġshook":9116,"Ġsurr":9117,"Think":9118,"enseign":9119,"onnement":9120,"Commen":9121,"Ġresist":9122,"Ġcheaper":9123,"ĠÃ©pr":9124,"ĠÃ©quip":9125,"Ġhelpful":9126,"Ġmarteau":9127,"obtenir":9128,"Ġtrains":9129,"Ġpersonn":9130,"Ġpassagers":9131,"Ġsometime":9132,"Ġbluff":9133,"Ġcommande":9134,"ummer":9135,"Ġliter":9136,"ĠprÃ©venir":9137,"Ġbelt":9138,"Ġintended":9139,"Ġphysi":9140,"ĠdÃ©coll":9141,"ĠrÃ©par":9142,"endrez":9143,"Ġputting":9144,"Ġdeparture":9145,"Ġmoral":9146,"Ġ12":9147,"Ġobjection":9148,"Ġwalks":9149,"Ġmotor":9150,"Ġcorriger":9151,"Ġmaybe":9152,"Ġdouce":9153,"Ġdoulou":9154,"Ġbiggest":9155,"Ġaffair":9156,"Ġconseille":9157,"Ġinsane":9158,"Ġchangements":9159,"ĠmÃ©chant":9160,"Ġsolaire":9161,"Ġchoices":9162,"Ġvisiting":9163,"armÃ©e":9164,"ĠretournÃ©":9165,"apprÃ©ci":9166,"Ġintersection":9167,"ĠemployÃ©":9168,"Ġcrier":9169,"Ġgentils":9170,"emporter":9171,"Ġmessages":9172,"Ġinformed":9173,"Ġsourit":9174,"wards":9175,"Ġsymb":9176,"Ġdessin":9177,"Ġreasonable":9178,"ĠLune":9179,"Ġhabits":9180,"Ġtrembl":9181,"Ġouvrage":9182,"Ġcomputers":9183,"Ġcuill":9184,"ĠÅĵuv":9185,"Ġcenter":9186,"ĠMondays":9187,"Ã©tudiants":9188,"Ġviolent":9189,"Ġsatisfaits":9190,"Trois":9191,"Ġtimid":9192,"Ġstyl":9193,"Ġambition":9194,"ĠsupposÃ©e":9195,"ĠrÃ©col":9196,"ĠfermÃ©s":9197,"shirt":9198,"Ġcurios":9199,"ĠmÃ©rit":9200,"Ġconstruction":9201,"Ãīcris":9202,"Ġconvaincue":9203,"Ġmiroir":9204,"Ġmirror":9205,"imagin":9206,"Ġadmitted":9207,"Anybody":9208,"ĠprÃ©fÃ©rable":9209,"Ġmouchoir":9210,"ĠÃ©clair":9211,"ĠÃ©teindre":9212,"Ġlignes":9213,"Ġfleuve":9214,"admets":9215,"Ġpackage":9216,"ĠValent":9217,"Ġhanging":9218,"Ġeleven":9219,"Ġfingers":9220,"ĠdÃ©mÃ©nager":9221,"ĠAmÃ©ric":9222,"Ġgenerous":9223,"ĠinventÃ©":9224,"piration":9225,"Ġattacked":9226,"Ġallergic":9227,"Espagne":9228,"neuf":9229,"Ġemmener":9230,"aucune":9231,"ĠÃ©puisÃ©":9232,"Ġmeubles":9233,"Ġdisturb":9234,"ĠÃ©toiles":9235,"Ġhammer":9236,"Ġalternative":9237,"ĠnaÃ¯f":9238,"Check":9239,"Smoking":9240,"endormir":9241,"Ġwebsite":9242,"Ġperformance":9243,"ĠsupÃ©ri":9244,"Ġmerveilleuse":9245,"Ġsoudainement":9246,"ĠcÃ©rÃ©monie":9247,"Ġblagues":9248,"Ġpreparing":9249,"Ġscolded":9250,"ĠAlice":9251,"Ġceremony":9252,"ĠrÃ©frigÃ©rateur":9253,"CommenÃ§ons":9254,"Aidez":9255,"Bl":9256,"Du":9257,"Each":9258,"Sever":9259,"ipt":9260,"ky":9261,"mn":9262,"mar":9263,"oved":9264,"vant":9265,"ville":9266,"ĠEst":9267,"ĠLet":9268,"Ġtatt":9269,"Ġsons":9270,"Ġsop":9271,"Ġcult":9272,"Ġmos":9273,"Ġmiens":9274,"ĠmÃ¨tres":9275,"Ã©an":9276,"Ã©lect":9277,"quit":9278,"Ġbol":9279,"Ġbale":9280,"ĠvÃ©g":9281,"arily":9282,"ailed":9283,"Ġgants":9284,"eul":9285,"Ġocean":9286,"Ġredu":9287,"ilos":9288,"imate":9289,"Ġhamb":9290,"Ġprat":9291,"alif":9292,"Ġplomb":9293,"irais":9294,"Ġforts":9295,"Ġweap":9296,"agnes":9297,"agissait":9298,"ĠexprÃ¨s":9299,"Ã©cut":9300,"onge":9301,"ĠamitiÃ©":9302,"Ġsaou":9303,"Ġcris":9304,"Ġcrash":9305,"Ġupon":9306,"ĠserrÃ©":9307,"ĠclÃ´":9308,"appartient":9309,"apprends":9310,"ounced":9311,"Ġreservation":9312,"Ġcoach":9313,"Ġcauser":9314,"ivid":9315,"Ġbross":9316,"Ġpasses":9317,"Ġcontag":9318,"Ġprenons":9319,"Ġplafond":9320,"Ġmater":9321,"ĠÃ©crite":9322,"Ġretira":9323,"ĠdÃ©cor":9324,"Ġfaisaient":9325,"Ġminim":9326,"Ġrecons":9327,"Ġplanet":9328,"Åĵufs":9329,"Ġrooms":9330,"Ġsecours":9331,"ization":9332,"Ġdiscour":9333,"Ġdiscovered":9334,"Ġdispute":9335,"espace":9336,"Ġaimons":9337,"Ġcesse":9338,"Ġconcours":9339,"Ġdecl":9340,"Ġrefriger":9341,"Ġprofonde":9342,"ggage":9343,"Ġcorresp":9344,"Ġrendra":9345,"Ġluggage":9346,"Ġaffam":9347,"Ġstru":9348,"Stand":9349,"ĠpiÃ¨ge":9350,"Ġreviend":9351,"Ġperman":9352,"Ġpermett":9353,"Ġ200":9354,"habitu":9355,"Ġfarmer":9356,"Ġinterpr":9357,"Ġpartiel":9358,"Ġbitten":9359,"emprun":9360,"ĠsuggÃ©rÃ©":9361,"Ġcopies":9362,"Ġportent":9363,"Ġsitue":9364,"Prenons":9365,"ĠamusÃ©s":9366,"Ġmenace":9367,"Ġirresp":9368,"Ġrouges":9369,"Ġdisposais":9370,"Ġdreamed":9371,"ĠfaÃ§ons":9372,"Ġkissing":9373,"Ġfoudre":9374,"Ġversion":9375,"lettes":9376,"Ġswear":9377,"Ġapology":9378,"ĠÃ©lÃ¨ve":9379,"ĠimpressionnÃ©e":9380,"Ġressources":9381,"Ġlegal":9382,"Ġterriblement":9383,"Ġjeta":9384,"Ġferma":9385,"ĠNag":9386,"Ġhorses":9387,"Ġinjuste":9388,"ĠcollÃ¨":9389,"ĠdÃ©lic":9390,"Plusieurs":9391,"Ġmountains":9392,"Ġpotatoes":9393,"Ġbothering":9394,"Ġtranslated":9395,"Ġpardon":9396,"ĠInd":9397,"ĠprÃ©fÃ©rez":9398,"Ġachieve":9399,"ĠtÃ©lÃ©phonÃ©":9400,"ĠÃ©clata":9401,"Ġsurpren":9402,"Ġpleurait":9403,"Ġkilos":9404,"Ġprofessional":9405,"Ġerr":9406,"Ġinvented":9407,"Ġcustomers":9408,"Ġscreaming":9409,"ĠprÃ©tend":9410,"Ġgrossier":9411,"Ġmordu":9412,"Ġfreez":9413,"Ouvrez":9414,"Ġdisgusting":9415,"Ġdrugs":9416,"ĠdÃ©truit":9417,"ĠfrÃ©quence":9418,"Ġelectricity":9419,"Ġbullet":9420,"Ġridiculous":9421,"Ġnegoti":9422,"phabet":9423,"ĠmÃ©thode":9424,"Ġassumed":9425,"Ġdouzaine":9426,"Presque":9427,"Ġchallenge":9428,"Ġphysique":9429,"Several":9430,"Ġsophist":9431,"ĠvÃ©gÃ©t":9432,"ilosoph":9433,"Ġweapons":9434,"Ġirrespons":9435,"Americ":9436,"Actu":9437,"Fill":9438,"Money":9439,"Toi":9440,"bb":9441,"cri":9442,"jam":9443,"rut":9444,"Ġtaux":9445,"Ġdata":9446,"Ġpus":9447,"Ġpel":9448,"Ġsir":9449,"Ġsne":9450,"Ġsonne":9451,"onest":9452,"Ġloser":9453,"Ã©ducation":9454,"heures":9455,"Ġfought":9456,"Ġfuss":9457,"Ġvirer":9458,"athered":9459,"orce":9460,"Ġgout":9461,"Ġgathered":9462,"Ġpassez":9463,"Ġjup":9464,"Ġok":9465,"rimin":9466,"anted":9467,"Ġinfect":9468,"Ġrattraper":9469,"iring":9470,"Ġforcer":9471,"ĠforcÃ©e":9472,"ĠÃ©tasun":9473,"urity":9474,"allait":9475,"Ġsore":9476,"uels":9477,"Ġath":9478,"Ġknowledge":9479,"Ġshout":9480,"ĠfraÃ®":9481,"Ġarrest":9482,"Ġalike":9483,"Ġdumped":9484,"Ġcompar":9485,"Ġcroir":9486,"Ġappr":9487,"ĠentrÃ©e":9488,"Ġentrance":9489,"Ġadap":9490,"Ġadvert":9491,"abilitÃ©s":9492,"Ġspy":9493,"Ġspite":9494,"ĠmatÃ©ri":9495,"ĠBrit":9496,"Ġvaches":9497,"Ġsupper":9498,"ĠdÃ©cour":9499,"ĠconsidÃ©":9500,"Ġconsomm":9501,"Ġpleuve":9502,"Ġjouez":9503,"Ġpoli":9504,"Ġpolici":9505,"Ġtenez":9506,"essayais":9507,"Ġpaye":9508,"Ġflood":9509,"Ġhandy":9510,"ĠarrivÃ©es":9511,"Ġremoved":9512,"ocÃ©an":9513,"Ġenvoyer":9514,"Ġaimerait":9515,"Ġstarts":9516,"Ġincident":9517,"Ġ17":9518,"Ġobt":9519,"Allume":9520,"Ġsleeps":9521,"Ġenseigner":9522,"Ġrendent":9523,"Ġpoet":9524,"Ġtric":9525,"iaque":9526,"ĠappelÃ©e":9527,"Ġembau":9528,"Ġinviter":9529,"Ġsituations":9530,"Ġinterdit":9531,"Ġrencontres":9532,"adorerais":9533,"Ġsouhaitez":9534,"ĠinformÃ©":9535,"Ġstupides":9536,"Ġstreets":9537,"Ġpublished":9538,"Ġhaircut":9539,"Ġadmettre":9540,"Ġindiff":9541,"Ġarriverait":9542,"Ġfausse":9543,"cule":9544,"Ġmontrerai":9545,"uya":9546,"Ġbattu":9547,"Ġdisappeared":9548,"Ġdistrait":9549,"ĠsÃ©v":9550,"Ġtenter":9551,"rica":9552,"Ġcasser":9553,"Ã¨vement":9554,"Ġimagined":9555,"Ġwarmer":9556,"ĠengagÃ©":9557,"Ġaccompan":9558,"Ġsells":9559,"ĠinquiÃ¨te":9560,"Ġpurse":9561,"Anyone":9562,"Ġcharges":9563,"Ġexcellente":9564,"Ġlouder":9565,"ĠtÃ©lÃ©phoner":9566,"Ġconference":9567,"admire":9568,"ĠbrÃ»lÃ©":9569,"Ġgratuit":9570,"Ġringing":9571,"Ġfluently":9572,"Ġincroyablement":9573,"Ġannuler":9574,"entendis":9575,"Ġdomicile":9576,"Promise":9577,"Ouvre":9578,"Ġdistinguer":9579,"Ġjuger":9580,"Ġinfluence":9581,"ĠfantÃ´mes":9582,"Ġenvisager":9583,"Ġstatue":9584,"parents":9585,"Ġturning":9586,"Ġresearch":9587,"Speak":9588,"Ġalentours":9589,"ĠillÃ©gal":9590,"Ġemployees":9591,"Ġdefinitely":9592,"Ġgloves":9593,"Ġrefrigerator":9594,"Bu":9595,"Fo":9596,"Luck":9597,"More":9598,"Mange":9599,"Res":9600,"bage":9601,"flÃ©ch":9602,"gage":9603,"hib":9604,"kin":9605,"nait":9606,"pas":9607,"xy":9608,"year":9609,"Ġign":9610,"Ġaper":9611,"ĠaisÃ©":9612,"Ġpomp":9613,"Ġsin":9614,"Ġsienne":9615,"Ġsites":9616,"once":9617,"Ġcities":9618,"Ġcott":9619,"Ġmun":9620,"Ġmiel":9621,"Ġmix":9622,"anches":9623,"Ġnive":9624,"ĠfÃªtes":9625,"asing":9626,"Ġvache":9627,"Ġho":9628,"Ġhook":9629,"ousias":9630,"Ġquas":9631,"ailles":9632,"ung":9633,"ĠÃ®":9634,"leased":9635,"aises":9636,"Ġjury":9637,"Ġunb":9638,"Ġreb":9639,"oires":9640,"Ġeager":9641,"Ã¨tre":9642,"chite":9643,"Ġralent":9644,"Ġraf":9645,"Ġhello":9646,"Ġanal":9647,"Ã©toffe":9648,"icien":9649,"Ġseated":9650,"tumn":9651,"irmer":9652,"Ġwasted":9653,"Ãªtu":9654,"Ital":9655,"ctÃ©":9656,"ĠMt":9657,"Ã©cout":9658,"apacitÃ©":9659,"Ġarchite":9660,"While":9661,"Ġaliment":9662,"blige":9663,"Ġdisais":9664,"onnez":9665,"Ġgranted":9666,"itement":9667,"Ġcraint":9668,"ĠrÃ©chau":9669,"uisent":9670,"Ġagress":9671,"Ġreserve":9672,"ĠÃ©qu":9673,"obe":9674,"Ġcover":9675,"Ġbienvenu":9676,"mbered":9677,"Ġimpuiss":9678,"Ġbrand":9679,"onnÃ¨rent":9680,"Ġblonde":9681,"Ġspoi":9682,"issante":9683,"Ġgueule":9684,"Ġconnait":9685,"Ġconnue":9686,"Ġyelling":9687,"ĠdÃ©saccord":9688,"Ġrecent":9689,"Ġrecovered":9690,"ĠpayÃ©e":9691,"minist":9692,"Ġregardait":9693,"Ġhandled":9694,"Ġconfidence":9695,"Ġsensitive":9696,"ĠSaint":9697,"Ġinconn":9698,"Ġfuneral":9699,"Ġprofit":9700,"Ġreviendrai":9701,"ĠretardÃ©":9702,"ignorer":9703,"Ġfiable":9704,"ĠsignÃ©":9705,"Ġsigned":9706,"Ġsalon":9707,"Ġeffet":9708,"ĠgrossiÃ¨re":9709,"Ġacteur":9710,"ĠsautÃ©":9711,"Ġpapiers":9712,"Ġdira":9713,"Ġinterrup":9714,"Ġrestaurants":9715,"inconvÃ©nient":9716,"incapacitÃ©":9717,"Ġbehave":9718,"Ġsounded":9719,"ĠpubliÃ©":9720,"Ġnearby":9721,"Shall":9722,"Ġplaisante":9723,"Ġsurprising":9724,"Ġhumains":9725,"Ġarmed":9726,"Ġsnowing":9727,"Ġsubway":9728,"ĠobligÃ©s":9729,"Ġsweat":9730,"Ġpleuvait":9731,"Ġimpatience":9732,"Ġnoisy":9733,"ĠjetÃ©":9734,"Ġblew":9735,"ĠPark":9736,"Ġexperiment":9737,"Ġnoirs":9738,"Ġpossibly":9739,"ĠprivÃ©e":9740,"Lorsqu":9741,"ĠdÃ©goÃ»t":9742,"Ġcritic":9743,"Ġjoli":9744,"Ġballon":9745,"Ġendormie":9746,"Anything":9747,"Ġchanteuse":9748,"Ġsurvivre":9749,"Ġeffect":9750,"ĠmÃ©tro":9751,"Ġvoter":9752,"ĠchoquÃ©":9753,"Ġenemies":9754,"ĠqualitÃ©":9755,"Ġburning":9756,"Shouldn":9757,"ĠarrÃªtÃ©e":9758,"Ġressenti":9759,"Ġprofessionnel":9760,"Ġvolunteer":9761,"Ġlourde":9762,"accompagner":9763,"Ġhypoth":9764,"mploy":9765,"Ġincredibly":9766,"Ġeffectuer":9767,"ĠamÃ©ricain":9768,"Ġdisturbed":9769,"Ġfabri":9770,"ĠcoÃ»tera":9771,"ĠpÃ¢le":9772,"Enfin":9773,"Ġdrogue":9774,"Drink":9775,"Ġteenager":9776,"Ġindustry":9777,"Ġpharmac":9778,"Ġbleeding":9779,"Guess":9780,"ĠmÃ©tÃ©o":9781,"Ġmethod":9782,"Ġtalents":9783,"Ġbargain":9784,"Ġallemand":9785,"Ġintentions":9786,"Ġaverage":9787,"Ġjogging":9788,"ĠÃ©goÃ¯ste":9789,"Ġuniverse":9790,"Ġtattoo":9791,"Ġsophisticated":9792,"ĠvÃ©gÃ©tar":9793,"Ġaccompanied":9794,"Ad":9795,"Dieu":9796,"Fumer":9797,"Maman":9798,"Papa":9799,"Soon":9800,"ax":9801,"can":9802,"jud":9803,"offre":9804,"yond":9805,"Ġur":9806,"ĠShe":9807,"ĠQue":9808,"Ġtense":9809,"Ġtip":9810,"Ġtape":9811,"Ġdangers":9812,"ĠpÃ©tr":9813,"onques":9814,"Ġlut":9815,"Ġlois":9816,"Ġcave":9817,"Ġcuire":9818,"Ã©en":9819,"Ġnag":9820,"Ġnord":9821,"Ġwild":9822,"quin":9823,"asy":9824,"Ġbre":9825,"Ġbound":9826,"Ġhar":9827,"Ġhil":9828,"Ġquarante":9829,"veille":9830,"organ":9831,"Ġthro":9832,"Ġneat":9833,"ota":9834,"Ġrequi":9835,"teaux":9836,"Ġleak":9837,"ids":9838,"Ġbeyond":9839,"Ġtrous":9840,"chon":9841,"Ġrand":9842,"Ġprince":9843,"aules":9844,"Ġang":9845,"Ġceiling":9846,"icles":9847,"Ġpartez":9848,"endue":9849,"endrier":9850,"agir":9851,"Ġastr":9852,"Ãªter":9853,"uted":9854,"Ġallais":9855,"Ġstamp":9856,"quelles":9857,"Ġdeserves":9858,"Ġprocess":9859,"Ã©crit":9860,"apes":9861,"Ġverres":9862,"Ġuseless":9863,"ĠgrÃ¢ce":9864,"Ġcroient":9865,"Ġferez":9866,"Ġoutr":9867,"Ġsonner":9868,"Ġrented":9869,"Next":9870,"Ġdemeure":9871,"Ġclar":9872,"Ġages":9873,"Ġcheek":9874,"ĠentiÃ¨re":9875,"obil":9876,"aides":9877,"Ġattends":9878,"Ġfinit":9879,"Ġpeau":9880,"uded":9881,"issue":9882,"Ġmaterne":9883,"Ġpositive":9884,"ĠexpÃ©ri":9885,"Ġbonjour":9886,"Ġroll":9887,"Ġregular":9888,"Ġphilosoph":9889,"Ġmince":9890,"Ġpolicy":9891,"Ġcourageux":9892,"Ġtwin":9893,"ĠAsi":9894,"essayez":9895,"Ġactress":9896,"Ġreporter":9897,"Ġsortis":9898,"Ġglac":9899,"Ġacheta":9900,"encre":9901,"Ġscand":9902,"though":9903,"Ġmusician":9904,"Ġaimait":9905,"ĠSe":9906,"Ġexplications":9907,"Ġlisez":9908,"Ġessayez":9909,"Ġcherchez":9910,"Ġdoux":9911,"Ġbouge":9912,"Ġrainy":9913,"ĠvoyagÃ©":9914,"Ġinsult":9915,"Ġcontraire":9916,"Ġskirt":9917,"Ġblessure":9918,"Ġdevenus":9919,"Ġpassera":9920,"habiller":9921,"Ġrelated":9922,"Ġkidn":9923,"Ġcrimes":9924,"Ins":9925,"Doesn":9926,"Ġstret":9927,"Ġprisoner":9928,"ĠcÃ´te":9929,"Ġadmis":9930,"Ġindivid":9931,"Ġfastest":9932,"Ġruin":9933,"Ġheaded":9934,"attendait":9935,"Ġhumor":9936,"Ġtransp":9937,"Ġtransport":9938,"ĠrÃ©flex":9939,"Ġcorrecte":9940,"Ġmangea":9941,"Ġbattle":9942,"Ġdeadline":9943,"ĠespÃ©rons":9944,"Ġdaughters":9945,"ĠGr":9946,"ĠGermany":9947,"Ġdarker":9948,"Ġpleuvra":9949,"Ġfactory":9950,"Ġapproche":9951,"Ġclimate":9952,"Ġtraduit":9953,"Ġtraduction":9954,"Ġthanks":9955,"Ġprivacy":9956,"Ġembarrassing":9957,"Ġproducts":9958,"Ġrisks":9959,"Ġapplau":9960,"ĠeffrayÃ©e":9961,"Ġentendit":9962,"ĠpoussÃ©":9963,"excuse":9964,"ĠignorÃ©":9965,"Ġhorrif":9966,"allemand":9967,"Ġvictime":9968,"Ġquelconques":9969,"Ġsouvenirs":9970,"Ġconducteur":9971,"Ġsurprendre":9972,"Ġscientist":9973,"ennuyer":9974,"ĠrÃ©duire":9975,"ĠdÃ©testent":9976,"Ġcooper":9977,"humour":9978,"Ġedge":9979,"ĠsÃ©journÃ©":9980,"Ġsimilaire":9981,"Ġkilom":9982,"ophone":9983,"Ġselfish":9984,"Ġmeurt":9985,"Ġrespecte":9986,"Ġprisonnier":9987,"Grab":9988,"ĠrÃ©vÃ©l":9989,"Juste":9990,"ĠdÃ©terminÃ©":9991,"ĠsupplÃ©mentaires":9992,"ĠpÃ©riode":9993,"Ġcounting":9994,"Ġsquare":9995,"Ġauthority":9996,"ĠÃ©toile":9997,"ĠfÃ¢chÃ©":9998,"Ġpredict":9999,"ĠÃ©levÃ©s":10000,"Ġjaune":10001,"Ġbatterie":10002,"Ġinvestigation":10003,"applique":10004,"Ġtatou":10005,"ĠrÃ©cupÃ©rer":10006,"Ġmystery":10007,"Demandez":10008,"ĠreprÃ©sent":10009,"Ġcourriel":10010,"Ġfortunate":10011,"ĠcÃ´tÃ©s":10012,"ĠValentine":10013,"ĠclÃ´ture":10014,"Ġcorrespond":10015,"Ġokay":10016,"Ġniveau":10017,"ĠÃ®le":10018,"Ġhilar":10019,"Ġthroat":10020,"Cut":10021,"Cond":10022,"MÃ¨re":10023,"Ob":10024,"PÃ¨re":10025,"Pass":10026,"Rac":10027,"Sal":10028,"bly":10029,"ium":10030,"ma":10031,"mine":10032,"nons":10033,"oblige":10034,"ral":10035,"ration":10036,"rasse":10037,"to":10038,"uri":10039,"uÃ©e":10040,"wood":10041,"Ġtig":10042,"Ġtarg":10043,"Ġtendu":10044,"Ġdoutes":10045,"Ġpareil":10046,"ison":10047,"enfu":10048,"Ġcise":10049,"inos":10050,"Ġmi":10051,"Ã©pr":10052,"anÃ§a":10053,"quette":10054,"aster":10055,"Ġbombe":10056,"Ġvente":10057,"Ġdefe":10058,"ĠhÃ©s":10059,"vere":10060,"entiel":10061,"oter":10062,"otte":10063,"Ġoven":10064,"Ġreject":10065,"Ġink":10066,"Ġennemi":10067,"Ġrush":10068,"autÃ©":10069,"Ġancient":10070,"alf":10071,"member":10072,"Ġfortes":10073,"onstr":10074,"onscious":10075,"Ġkicked":10076,"Ġpourraient":10077,"amie":10078,"Ġatom":10079,"Ġavancer":10080,"Ġconce":10081,"igine":10082,"olution":10083,"Ġshall":10084,"Ġwhist":10085,"icial":10086,"Ġpartons":10087,"Ġsonna":10088,"idemment":10089,"venant":10090,"Ã§ait":10091,"Ġcoc":10092,"istance":10093,"Ġadorent":10094,"ĠpassÃ©es":10095,"Ġmud":10096,"Ġspl":10097,"Ġspoon":10098,"issors":10099,"Ġmathematics":10100,"Ġexprimer":10101,"ĠBe":10102,"Ġbuvez":10103,"ĠlittÃ©":10104,"Ġsheep":10105,"Ġwhoever":10106,"Ġbelow":10107,"Ġordre":10108,"Ġdiable":10109,"glasses":10110,"Ġjouent":10111,"Ġrecover":10112,"Ġpersonnelle":10113,"Ġpromit":10114,"Ġpromotion":10115,"Ġsecurity":10116,"Ġterror":10117,"Ġflag":10118,"Ġsimply":10119,"Ġemporter":10120,"ĠemportÃ©":10121,"Ġemplettes":10122,"Ġscissors":10123,"Ġarrives":10124,"ĠÃ©tudes":10125,"Ġincons":10126,"ĠdÃ©penser":10127,"Ġmontagnes":10128,"ĠcherchÃ©":10129,"Ġremembered":10130,"Ġpath":10131,"Remember":10132,"ĠhabillÃ©":10133,"Ġtrouverais":10134,"Ġmistook":10135,"ĠprÃ©sents":10136,"ĠrÃ©servation":10137,"Ġanswering":10138,"ĠinfirmiÃ¨re":10139,"Ġrevienne":10140,"Ġabsur":10141,"ĠÃ©pouser":10142,"ĠÃ©paule":10143,"ĠÃ©paules":10144,"ĠOlymp":10145,"ologist":10146,"Ġproduise":10147,"weight":10148,"Ġvoient":10149,"Ġbaggage":10150,"Ġinstitutrice":10151,"ĠsÃ»rement":10152,"Ġirrit":10153,"ĠrÃªvÃ©":10154,"iendrait":10155,"Ġagreement":10156,"oignez":10157,"Ġboissons":10158,"Ġsush":10159,"Ġlibres":10160,"ĠnÃ©cessaires":10161,"intÃ©rÃªt":10162,"Ġbills":10163,"ĠPrÃ©s":10164,"Ġcentaines":10165,"ĠpublicitÃ©":10166,"Attention":10167,"Ġsignification":10168,"ĠÃ©lu":10169,"ĠassistÃ©":10170,"Ġtallest":10171,"Ġemmen":10172,"ĠrÃ©ussite":10173,"ĠdÃ©fi":10174,"ĠdÃ©fin":10175,"ĠorganisÃ©":10176,"odeur":10177,"Ġrequired":10178,"Ġcandles":10179,"explosion":10180,"Ġpoule":10181,"Ġsoucier":10182,"arrivera":10183,"raÃ®ch":10184,"Ġhoped":10185,"ĠchargÃ©":10186,"ĠprÃ©pare":10187,"ĠrÃ©gul":10188,"Ġtendit":10189,"Ġloudly":10190,"ĠdÃ©clarÃ©":10191,"ĠachÃ¨te":10192,"Ġreprocher":10193,"Ġvoleurs":10194,"Ġvoted":10195,"ĠWar":10196,"Ġflew":10197,"ĠbrÃ»l":10198,"Ġcroyait":10199,"Ġerror":10200,"Ġstrike":10201,"Ġselfie":10202,"Ġallergique":10203,"Ġfournir":10204,"ĠconsacrÃ©":10205,"ĠÃ¢gÃ©es":10206,"Ġgrimper":10207,"Ġressemblent":10208,"Ġunfair":10209,"Ġghosts":10210,"Ġpostponed":10211,"ĠAfrica":10212,"Ġoses":10213,"Ġattempt":10214,"Ġappearance":10215,"Choisis":10216,"ĠdÃ©primÃ©e":10217,"Ġcollecting":10218,"ĠamÃ©liorÃ©":10219,"Ġoperation":10220,"Ġserpents":10221,"ĠUSA":10222,"Ġvaluable":10223,"Ġpickpockets":10224,"Ġmarchandises":10225,"Ġflexible":10226,"Heureusement":10227,"ĠfraÃ®che":10228,"Ġcottage":10229,"Ġquasiment":10230,"Ġciseaux":10231,"ĠPrÃ©sident":10232,"10":10233,"Had":10234,"Hang":10235,"Ign":10236,"Mangez":10237,"Rends":10238,"Ser":10239,"Women":10240,"awn":10241,"cast":10242,"clÃ©":10243,"fum":10244,"lam":10245,"mate":10246,"mail":10247,"ov":10248,"rine":10249,"town":10250,"ued":10251,"upp":10252,"uct":10253,"utement":10254,"wed":10255,"ĠElle":10256,"Ġtin":10257,"ĠtÃ©l":10258,"ĠtÃ¢":10259,"Ġaie":10260,"Ġaient":10261,"Ġpes":10262,"Ġsoigne":10263,"ising":10264,"Ġmouse":10265,"Ġmirent":10266,"heart":10267,"Ġnin":10268,"Ġnicer":10269,"Ġnana":10270,"iti":10271,"Ġwre":10272,"Ġwest":10273,"ĠfÃ©lic":10274,"ators":10275,"Ġquarter":10276,"Ġjui":10277,"Ġjoie":10278,"Ġlawn":10279,"Ġhautement":10280,"Ġease":10281,"Ġends":10282,"Ġprude":10283,"alarme":10284,"Ġteint":10285,"ĠdonnÃ©e":10286,"endent":10287,"illons":10288,"ĠtuÃ©s":10289,"Ġprohib":10290,"Ġshaken":10291,"Ġfro":10292,"ĠMay":10293,"Ġexig":10294,"stick":10295,"Ġabat":10296,"Ġtab":10297,"Ġalibi":10298,"Ġcompared":10299,"Ġparts":10300,"Ġgrown":10301,"Ġcro":10302,"Ġmanip":10303,"Ġmanques":10304,"Comm":10305,"Ġserions":10306,"Ġtouchez":10307,"Ġclassi":10308,"Ġrescu":10309,"Ġsaisi":10310,"Ġlongu":10311,"obsc":10312,"Ġpensons":10313,"Ġcarottes":10314,"ĠimpÃ´ts":10315,"Ġatta":10316,"Ã©rait":10317,"Ġbeside":10318,"Ġperple":10319,"Ġcontro":10320,"Ġblond":10321,"Ġblock":10322,"Ġspont":10323,"ĠprÃ©d":10324,"erty":10325,"Ġmesures":10326,"Ġaccur":10327,"Ġparesse":10328,"Ġfauteu":10329,"Ġdiriez":10330,"ĠconsÃ©qu":10331,"ĠrÃ©pand":10332,"ĠdÃ©sert":10333,"Ġfranche":10334,"Ġprises":10335,"Ġtwins":10336,"ĠAp":10337,"Ġflash":10338,"Ġsouvenez":10339,"ogram":10340,"ĠdÃ©tour":10341,"Ġaimed":10342,"Ġincendie":10343,"Ġfolles":10344,"Ġassure":10345,"Ġassass":10346,"Ġcommentaire":10347,"Ġconclu":10348,"Ġ15":10349,"Ġcondam":10350,"Ġmoto":10351,"Ġturns":10352,"Ġrappel":10353,"Ġkeeping":10354,"ĠhabillÃ©e":10355,"Ġcleared":10356,"Ġfactures":10357,"Ġlangage":10358,"Ġaiderai":10359,"Ġwishes":10360,"ĠmÃ©ch":10361,"ĠintÃ©ressÃ©s":10362,"Ãīl":10363,"Ġmentally":10364,"Ġforgiven":10365,"Ġsauve":10366,"Ġsaurait":10367,"Ġ25":10368,"ĠtournÃ©":10369,"Ġinterfe":10370,"Ġentretenir":10371,"ĠcriÃ©":10372,"Christmas":10373,"Ġfavori":10374,"Disp":10375,"autom":10376,"Ġattendent":10377,"ĠÃ©tudiantes":10378,"Ġtyph":10379,"Ġinstall":10380,"ĠresponsabilitÃ©s":10381,"Ġmusicien":10382,"Ġtaxis":10383,"Ġroug":10384,"ĠsucrÃ©":10385,"Ġrobber":10386,"Ġhonor":10387,"Ġbanane":10388,"Ġsacs":10389,"ĠGree":10390,"Ġsunglasses":10391,"Ġstopping":10392,"Ġviendrait":10393,"Ġgrows":10394,"Ġtenta":10395,"Ġsuits":10396,"Ġcoins":10397,"Ġmagasins":10398,"Attrap":10399,"Ġmedical":10400,"Ġknit":10401,"Washing":10402,"Ġplaintes":10403,"Ġbuildings":10404,"Ġreceive":10405,"Ġmoderne":10406,"Ġ199":10407,"ĠpossÃ©d":10408,"Ġpanier":10409,"Ġessai":10410,"Ġcardiaque":10411,"Ġdivorcer":10412,"Ġcircle":10413,"Ġcamping":10414,"Ġproduction":10415,"ĠinvitÃ©es":10416,"Ġmoyenne":10417,"Ġignorance":10418,"Ġimproved":10419,"Ġdettes":10420,"Ġtranslation":10421,"Ġsurvivors":10422,"Ġplacard":10423,"Compare":10424,"Ġimpliqu":10425,"Ġreproche":10426,"Ġlicenci":10427,"Ġfantastic":10428,"ĠchoquÃ©e":10429,"Avons":10430,"Ġexcitant":10431,"Ġparticularly":10432,"ĠÃ©lectron":10433,"Ġprincipal":10434,"Ġancien":10435,"Remettez":10436,"Ġcitiz":10437,"ĠprÃ©tendu":10438,"Ġcomposition":10439,"Ġambitieux":10440,"Ġbanana":10441,"Ġvoisinage":10442,"Ġaccomplir":10443,"Ġpointe":10444,"Ġtypes":10445,"Ġoriginal":10446,"Continuez":10447,"ĠfrÃ©quent":10448,"Ġpostpone":10449,"escal":10450,"Ġequal":10451,"hetic":10452,"Ġlapin":10453,"Ġfainted":10454,"ĠlÃ¨vres":10455,"Ġdistracted":10456,"Ġexchange":10457,"Ġadultes":10458,"ĠSpain":10459,"ĠallongÃ©":10460,"Ġparcourir":10461,"Ġpuzzle":10462,"Ġsignificant":10463,"Ġfurieux":10464,"Ġdorment":10465,"Ġenthousias":10466,"ĠdÃ©tonation":10467,"ĠRussian":10468,"Ġmiserable":10469,"Ġunderest":10470,"Ġmotorcy":10471,"ĠcuillÃ¨re":10472,"Ã©lectricitÃ©":10473,"Ġminimum":10474,"jamas":10475,"ĠrafraÃ®ch":10476,"Ġtatouage":10477,"Ġtarget":10478,"enfuir":10479,"Ġsoigneusement":10480,"Ġjuice":10481,"Ġclassique":10482,"Ġperplex":10483,"But":10484,"Bois":10485,"LÃ¢che":10486,"Men":10487,"Ste":10488,"Ten":10489,"Won":10490,"cure":10491,"dom":10492,"drai":10493,"main":10494,"mÃ©e":10495,"phe":10496,"ros":10497,"ueux":10498,"uyez":10499,"xophone":10500,"yth":10501,"ĠHow":10502,"ĠWhy":10503,"ĠTout":10504,"ĠPlease":10505,"Ġpages":10506,"ĠpitiÃ©":10507,"isant":10508,"istÃ©":10509,"Ġloose":10510,"Ġlancer":10511,"Ġcot":10512,"Ġcuit":10513,"Ġcord":10514,"Ġmand":10515,"Ġmouve":10516,"Ġmile":10517,"Ġmiennes":10518,"Ġfreak":10519,"Ġvo":10520,"Ġhers":10521,"Ġtool":10522,"ordre":10523,"Ġgau":10524,"Ġjerk":10525,"ourdi":10526,"Ġunl":10527,"Ġreleased":10528,"rigÃ©":10529,"Ã¨nes":10530,"chief":10531,"Ġrout":10532,"Ġraw":10533,"Ġchic":10534,"Ġchiff":10535,"Ġchaises":10536,"Ġtels":10537,"ainted":10538,"ĠonÃ©":10539,"Ġsees":10540,"Ġfork":10541,"agez":10542,"ĠÃ©tendu":10543,"nellement":10544,"Ġstaff":10545,"Ġstraw":10546,"Ġsoins":10547,"Ġatter":10548,"ĠdÃ©fait":10549,"Ġmonte":10550,"tesse":10551,"Ġcongr":10552,"essai":10553,"ĠMar":10554,"stances":10555,"Ġabe":10556,"elve":10557,"Ġsaxophone":10558,"ffer":10559,"Ġmanuel":10560,"Ġappren":10561,"Ġrenomm":10562,"Celle":10563,"sieds":10564,"ĠÃªtres":10565,"Ġclot":10566,"appelez":10567,"print":10568,"Ġpensiez":10569,"Ġadress":10570,"igned":10571,"ignons":10572,"Ġstubb":10573,"Ġcontient":10574,"Ġoffens":10575,"ĠmalgrÃ©":10576,"olet":10577,"Ġbug":10578,"iquez":10579,"Ġintime":10580,"ĠdÃ©crire":10581,"Assieds":10582,"Monte":10583,"Enjoy":10584,"Ġguarante":10585,"huile":10586,"Ġminor":10587,"Ġvision":10588,"Ġtermes":10589,"Ġmeters":10590,"ĠidÃ©":10591,"Ġdowntown":10592,"ĠopÃ©ration":10593,"Ġfuite":10594,"ĠtÃ©lÃ©vis":10595,"phant":10596,"Ġimit":10597,"ĠdÃ©tendu":10598,"ext":10599,"Ġremains":10600,"Ġputs":10601,"Ġtrouvais":10602,"Ġaimable":10603,"Ġdecor":10604,"Ġboots":10605,"Ġknees":10606,"Ġmotion":10607,"Ġgarbage":10608,"Ġrendrait":10609,"Ġstrangers":10610,"Ġgardes":10611,"ĠpoÃ¨te":10612,"ĠintÃ©rÃªt":10613,"Ġpersonally":10614,"Ġnumbers":10615,"Ġcommences":10616,"Ġcommencent":10617,"Ġgenoux":10618,"Ġpermet":10619,"Ġtourists":10620,"Ġtouristes":10621,"apprÃ©cient":10622,"Ġrelative":10623,"Ġnatale":10624,"Ġattendons":10625,"ĠrisquÃ©":10626,"Ġcalmes":10627,"Ġexaminer":10628,"Ġinstin":10629,"Ġresponsables":10630,"Ġreconnais":10631,"Ġexacte":10632,"Ġchanging":10633,"Ġadmired":10634,"Ġfourchette":10635,"ĠprÃ©voyez":10636,"Ġsilver":10637,"Ġterribly":10638,"Ġhumide":10639,"Ġtransm":10640,"Ġdessous":10641,"lected":10642,"ronom":10643,"Ġdistances":10644,"Ġespion":10645,"ĠespÃ¨re":10646,"Ġpunish":10647,"Ġtentative":10648,"Ġcomplaint":10649,"Ġtests":10650,"Ġpoil":10651,"Ġengagement":10652,"ĠmodÃ¨le":10653,"Ġmilliers":10654,"Ġrecommenc":10655,"ĠfermÃ©es":10656,"Ġrequis":10657,"Ġrequire":10658,"ĠembarrassÃ©":10659,"ĠdivorcÃ©":10660,"Although":10661,"Ġ500":10662,"ĠnettoyÃ©":10663,"Ġcampus":10664,"reedom":10665,"Ġcandle":10666,"Ġproductive":10667,"levant":10668,"Ġhonesty":10669,"roph":10670,"Ġignorant":10671,"Ġbreathe":10672,"Ġeffective":10673,"Ġsnakes":10674,"ĠconsidÃ¨re":10675,"ĠpersuadÃ©":10676,"Ġcherchait":10677,"Ġscientifiques":10678,"Ġobserv":10679,"Ġqualif":10680,"Ġpacked":10681,"ĠsoulagÃ©":10682,"ennuie":10683,"Ġgrades":10684,"Ġsuitcases":10685,"Ġcellphone":10686,"acquÃ©rir":10687,"ĠverrouillÃ©e":10688,"ĠadoptÃ©":10689,"Ġmalheureuse":10690,"Lisez":10691,"Ġanticip":10692,"Ġdomest":10693,"Ġtrahi":10694,"ĠcensÃ©s":10695,"Ġvolunteered":10696,"Ġterrified":10697,"Ġconsacrer":10698,"ĠdÃ©brouiller":10699,"Ġgrosses":10700,"ĠbaissÃ©":10701,"Ġhypnot":10702,"Ġbananes":10703,"Ġbrillant":10704,"Ġpilot":10705,"Ġgambling":10706,"Ġcommerce":10707,"Ġbasketball":10708,"Ġcanadien":10709,"Ġcanadienne":10710,"ĠdÃ©terminer":10711,"ĠprÃ©occupe":10712,"Ġtowards":10713,"Ġincrease":10714,"ĠItaly":10715,"Ġcompromise":10716,"Ġappropriate":10717,"ĠobÃ©ir":10718,"Choisissez":10719,"Ġcivil":10720,"Ġremplir":10721,"Ġbougies":10722,"Ġcautious":10723,"Ġexagger":10724,"DÃ©pÃªchez":10725,"Ġrabbit":10726,"Ġsurrounded":10727,"Ġmosquit":10728,"aliforn":10729,"Ġcrisis":10730,"Actually":10731,"Ġjupe":10732,"Follow":10733,"Ġmaternelle":10734,"ĠkilomÃ¨tres":10735,"Ġlongueur":10736,"Ġstubborn":10737,"DÃ©":10738,"Either":10739,"Light":10740,"Lock":10741,"Pr":10742,"Sw":10743,"Serais":10744,"Tra":10745,"Valent":10746,"crit":10747,"fs":10748,"mor":10749,"oblig":10750,"tation":10751,"ua":10752,"wise":10753,"ĠLa":10754,"Ġtun":10755,"Ġtaire":10756,"Ġtail":10757,"Ġtied":10758,"ouille":10759,"Ġaig":10760,"Ġsarc":10761,"onse":10762,"isp":10763,"ermÃ©":10764,"Ġmaid":10765,"ĠmÃ©l":10766,"Ã©rent":10767,"anÃ§":10768,"Ġnue":10769,"itables":10770,"Ġwire":10771,"Ġfest":10772,"Ġbaig":10773,"atic":10774,"atrice":10775,"Ġdette":10776,"Ġtoes":10777,"univers":10778,"Ġgather":10779,"Ġgear":10780,"ĠgÃ©rant":10781,"Ġjette":10782,"Ġunes":10783,"rira":10784,"Ġlean":10785,"imul":10786,"Ġeld":10787,"Ġtrap":10788,"Ġenvel":10789,"charg":10790,"chÃ©es":10791,"Ġchop":10792,"Ã©tang":10793,"ĠIf":10794,"alÃ©":10795,"Ġplaig":10796,"osition":10797,"ooled":10798,"Ġitem":10799,"ader":10800,"adÃ©":10801,"Ġauraient":10802,"endons":10803,"Ġunemploy":10804,"agent":10805,"accept":10806,"Ġgoals":10807,"arde":10808,"igr":10809,"Ġshared":10810,"Ġshirts":10811,"store":10812,"ookie":10813,"Ġwhiche":10814,"oins":10815,"Ġdeviens":10816,"Ġdevras":10817,"Ġdevoted":10818,"ouvant":10819,"ouvrez":10820,"enseigne":10821,"pered":10822,"Ġgras":10823,"Ġappellerai":10824,"role":10825,"roche":10826,"Ġserrure":10827,"Ã»te":10828,"asted":10829,"Ġentour":10830,"objet":10831,"Ġtraining":10832,"Ġimpol":10833,"Ġattic":10834,"Ġbesoins":10835,"Ġoffrir":10836,"Ġofficer":10837,"Ġdemandai":10838,"Ġpein":10839,"Ġpreniez":10840,"Ġblamed":10841,"Ġsplit":10842,"Ġreads":10843,"Ont":10844,"Ġbucket":10845,"ertain":10846,"fection":10847,"Ġenfre":10848,"aches":10849,"Ġconsult":10850,"Ġjouais":10851,"Åĵuf":10852,"Ġpersonnellement":10853,"ĠAr":10854,"ĠAngleterre":10855,"Ġpropose":10856,"Ġoverweight":10857,"Ġconfus":10858,"Ġautrement":10859,"Ġdisposes":10860,"Ġnuits":10861,"Ġessaye":10862,"Ġassoci":10863,"ĠdÃ©pit":10864,"ĠdÃ©penses":10865,"Ġboite":10866,"Reviens":10867,"Ġdouze":10868,"ĠcouchÃ©":10869,"ĠrÃ©serv":10870,"Ġinsp":10871,"Ġinspiration":10872,"Ġbeginner":10873,"Ġsecretary":10874,"Ġcamper":10875,"Ġtrick":10876,"ĠÃ©pic":10877,"Ġdevenues":10878,"Ġvoisine":10879,"Ġbreaking":10880,"dix":10881,"Ġinterpre":10882,"Ġemployer":10883,"ĠvoilÃł":10884,"ĠbriÃ¨vement":10885,"Ġconfiant":10886,"Ġsouhaiter":10887,"ĠamusÃ©es":10888,"ĠdÃ©rang":10889,"Ġirre":10890,"Ġfits":10891,"Ġsyn":10892,"Ġbataille":10893,"Ġbattery":10894,"Ġlibrai":10895,"Ġouvre":10896,"Ġsoldat":10897,"Ġsoldier":10898,"Ġboutique":10899,"ĠobligÃ©es":10900,"Ġstrongly":10901,"Ġsecondes":10902,"ricul":10903,"ĠHaw":10904,"Ġcentury":10905,"ĠfrontiÃ¨re":10906,"awa":10907,"Ġformed":10908,"Ġrespected":10909,"Ġreceipt":10910,"Ġwheel":10911,"Ġemotion":10912,"Ġwalls":10913,"Ġdebate":10914,"Ġdebts":10915,"Ġaccompag":10916,"Ġcollier":10917,"ĠprÃ©parÃ©e":10918,"ĠdÃ©lai":10919,"And":10920,"Ġsoucis":10921,"Ġborder":10922,"Ġmignons":10923,"Ġmentioned":10924,"Ġattentive":10925,"Ġcrossing":10926,"Ġmaths":10927,"ĠconditionnÃ©":10928,"Ġachieved":10929,"Ġ300":10930,"Ġmillionaire":10931,"Ġdancer":10932,"Ġconduct":10933,"Ġinstrument":10934,"Ġprovide":10935,"Devine":10936,"ĠaugmentÃ©":10937,"Ġreminded":10938,"ĠsÃ©journer":10939,"ĠsiÃ¨cle":10940,"Ġunconscious":10941,"Ġcriminel":10942,"Ġchampagne":10943,"Ġplaisanterie":10944,"Ġconnection":10945,"Ġapparent":10946,"Ġcandidat":10947,"Ġgunshots":10948,"Ġchinoise":10949,"ĠcuisiniÃ¨re":10950,"Ġgaspiller":10951,"veloppe":10952,"Ġconclusions":10953,"Ġbenef":10954,"guard":10955,"Ġconvenient":10956,"hÃ©sitez":10957,"Ġmicro":10958,"Ġhomes":10959,"ĠmÃ©decine":10960,"Ġalternatives":10961,"Ġponctuel":10962,"RÃ©flÃ©ch":10963,"ĠdÃ©sespÃ©rÃ©":10964,"ĠsecrÃ©taire":10965,"Ġattirante":10966,"Ġmassage":10967,"Ġmaigre":10968,"ĠfantÃ´me":10969,"Ġexchanged":10970,"ĠcÃ¢lin":10971,"Ġdedicated":10972,"Ġgrenier":10973,"Ġdespise":10974,"ĠenquÃªte":10975,"Ġcraign":10976,"ĠpoignÃ©e":10977,"Ġgrabbed":10978,"ĠrenversÃ©":10979,"Asseyons":10980,"Ġmanifest":10981,"Ġcarpet":10982,"achÃ¨terais":10983,"ĠvÃ©hicule":10984,"Ġdepartment":10985,"ĠpÃ©trole":10986,"Ġrugby":10987,"Ġennemis":10988,"handed":10989,"ĠheurtÃ©":10990,"ĠdÃ©robÃ©":10991,"Ġtexte":10992,"RÃ©pond":10993,"Ġdouloureux":10994,"habituer":10995,"ĠpÃ©trin":10996,"Ġrejected":10997,"ĠtÃ¢ches":10998,"Ġrescued":10999,"obscuritÃ©":11000,"automne":11001,"Ġenvelope":11002,"Ġwhichever":11003,"Aj":11004,"Bir":11005,"Bonne":11006,"Cor":11007,"Cons":11008,"Dix":11009,"Hist":11010,"Hum":11011,"Rendez":11012,"Sou":11013,"Summer":11014,"Util":11015,"Vis":11016,"ik":11017,"lor":11018,"lic":11019,"pte":11020,"ring":11021,"table":11022,"uine":11023,"vente":11024,"Ġot":11025,"ĠWashing":11026,"Ġdust":11027,"Ġpin":11028,"Ġske":11029,"Ġsiff":11030,"Ġsouth":11031,"oncer":11032,"Ġling":11033,"ĠlancÃ©":11034,"Ġcough":11035,"ĠcÃ©lÃ©":11036,"Ġcrew":11037,"inci":11038,"ĠmÃ¨ne":11039,"Ġnoire":11040,"itution":11041,"Ġfol":11042,"Ġvive":11043,"Ġvies":11044,"Ġvivez":11045,"Ġtoy":11046,"Ġtoys":11047,"aries":11048,"artement":11049,"orde":11050,"entez":11051,"estim":11052,"ĠÃĩa":11053,"ĠgÃ©":11054,"leure":11055,"edy":11056,"eut":11057,"Ġjure":11058,"Ġunre":11059,"Ġretenu":11060,"Ġsud":11061,"Ġsuffe":11062,"Ġbeating":11063,"Ġrot":11064,"Ġrad":11065,"Ġraff":11066,"Ġrusse":11067,"Ġchest":11068,"Ġchairs":11069,"aurions":11070,"Ã©tit":11071,"Ã©tions":11072,"icale":11073,"Ġongles":11074,"Ġseau":11075,"iron":11076,"Ġparan":11077,"Ġforty":11078,"Ġcomfort":11079,"Ġdonnes":11080,"treet":11081,"onsieur":11082,"Ġpourv":11083,"agon":11084,"aghet":11085,"amuse":11086,"ĠÃ©tonnÃ©":11087,"Ġsting":11088,"uies":11089,"orta":11090,"Ġwhale":11091,"ĠmaÃ®t":11092,"Ġdislike":11093,"aremment":11094,"Ġparten":11095,"Ġgrond":11096,"Ġoutdo":11097,"Ġmanche":11098,"lab":11099,"rochÃ©":11100,"uisit":11101,"uisse":11102,"appr":11103,"appelles":11104,"Ġaggress":11105,"Ġagrees":11106,"venait":11107,"iffel":11108,"ival":11109,"ords":11110,"ĠoffensÃ©":11111,"Ġparlerai":11112,"abe":11113,"Ġspaghet":11114,"ĠBible":11115,"Ġburied":11116,"Ġjourney":11117,"Ġvenais":11118,"Ġpouvaient":11119,"Ġaccess":11120,"Ġaccueill":11121,"Ã¢chez":11122,"Ġpajamas":11123,"Ġdirig":11124,"Ġconserv":11125,"Ġjouets":11126,"Ġsmok":11127,"Ġcourus":11128,"Ġcourts":11129,"Ġrecrut":11130,"Ġpromettre":11131,"Ġrested":11132,"ouverte":11133,"Ġreprendre":11134,"ĠpayÃ©s":11135,"Ġflic":11136,"Ġhandker":11137,"ĠachetÃ©e":11138,"Ġdiscount":11139,"Ġconfuse":11140,"Ġfinds":11141,"Ġmuscles":11142,"ĠCaliforn":11143,"Ġenvoy":11144,"ĠStreet":11145,"Ġpresence":11146,"ĠdÃ©pense":11147,"Ġ11":11148,"Ġprofiter":11149,"ĠdurÃ©":11150,"Ġpattes":11151,"Ġbedtime":11152,"Rempl":11153,"Ġboue":11154,"Ġtrouveras":11155,"Ġtrouverai":11156,"Ġcoul":11157,"Ġcouche":11158,"Ġgarderai":11159,"Ġconsequ":11160,"Ġrevient":11161,"iped":11162,"ĠcamÃ©ra":11163,"Ġabsente":11164,"Ġskate":11165,"accorder":11166,"Ġeffront":11167,"Ġefficient":11168,"Ġnourri":11169,"Ġnourris":11170,"Ġsauta":11171,"Ġrespirer":11172,"Ġdifficulties":11173,"okk":11174,"Ġtourist":11175,"Ġprofesseurs":11176,"cinq":11177,"auteur":11178,"Ġattendez":11179,"Ġrising":11180,"Ġvoici":11181,"Ġexamined":11182,"gery":11183,"Ġclassmates":11184,"Ġindo":11185,"ĠindÃ©p":11186,"Ġindisp":11187,"Ġdisposent":11188,"Ġtraversa":11189,"ĠprÃ©voir":11190,"Ġhumain":11191,"Ġsafely":11192,"Ġpatiente":11193,"Ġjournaliste":11194,"Ġdisappear":11195,"Ã®tres":11196,"ĠEiffel":11197,"Ġdivided":11198,"rouille":11199,"Ġenseignants":11200,"institutrice":11201,"Ġdisposez":11202,"Ġmurs":11203,"Ġidiots":11204,"Ġdescendu":11205,"Ġbringing":11206,"ĠlÃ©gÃ¨rement":11207,"Ġnerfs":11208,"Trouve":11209,"Ġsatisfaire":11210,"Ġhidden":11211,"Ġhalfway":11212,"Ġessaies":11213,"Ġtask":11214,"Ġblackboard":11215,"Ġcurieuse":11216,"Ġcritici":11217,"Ġcritical":11218,"Ġcommunication":11219,"annÃ©es":11220,"ĠprÃªterai":11221,"Ġtranquilles":11222,"Ġcousins":11223,"Ġobjectifs":11224,"Ġthrown":11225,"Ġacquainted":11226,"ĠdÃ©missionnÃ©":11227,"Ġpleura":11228,"Ġfantastique":11229,"Ġchoqu":11230,"ĠbrÃ»le":11231,"Ġfluent":11232,"Ġrecommanda":11233,"ĠÃ©lectrique":11234,"ength":11235,"Ġverrouiller":11236,"Ġarrange":11237,"Ġ40":11238,"Ġvirus":11239,"Ġreprises":11240,"Ġconnected":11241,"Finalement":11242,"Ġcandidature":11243,"Ġpanneau":11244,"Ġbananas":11245,"Essaye":11246,"Japanese":11247,"Ġmisunderstood":11248,"Ġaccomplish":11249,"Ġcoward":11250,"ĠeffectuÃ©":11251,"Ġfascinating":11252,"Ġoptimiste":11253,"Ġoptimistic":11254,"Jouons":11255,"ĠdÃ©roulÃ©":11256,"ĠsincÃ¨rement":11257,"Ġjumeaux":11258,"ĠAfrique":11259,"ĠsecrÃ¨te":11260,"Ġdescendit":11261,"Ġcompromis":11262,"Ġdiamond":11263,"honnÃªtetÃ©":11264,"ĠrejetÃ©":11265,"Ġgalerie":11266,"Ġadulte":11267,"Ġlifted":11268,"ĠempÃªchÃ©":11269,"Ġodeur":11270,"Ġexperienced":11271,"ĠmystÃ¨re":11272,"Ãīteins":11273,"Ġeuros":11274,"Ġarrogant":11275,"Ã©clair":11276,"Ġgratuitement":11277,"Ġfolded":11278,"Ġporc":11279,"Ġpistolet":11280,"Ġsurprenant":11281,"Ġpelouse":11282,"Ġpoliciers":11283,"inosau":11284,"Ignore":11285,"Ġwreck":11286,"Ġprohibited":11287,"Ġfranchement":11288,"Ġinterfere":11289,"Ġmotorcycle":11290,"Ġvolley":11291,"essaierai":11292,"ĠtÃ©lÃ©viseur":11293,"ĠWashington":11294,"Ġsuffered":11295,"Ġaggressive":11296,"Ġspaghett":11297,"Ġhandkerchief":11298,".Â»":11299,"Cal":11300,"DÃ©b":11301,"Love":11302,"Pre":11303,"Sc":11304,"Sort":11305,"Voy":11306,"Whe":11307,"Walk":11308,"York":11309,"bu":11310,"cing":11311,"fl":11312,"jug":11313,"tout":11314,"vaisse":11315,"was":11316,"Ġ000":11317,"ĠtÃ©":11318,"Ġdict":11319,"Ġdigne":11320,"Ġdrew":11321,"Ġpag":11322,"Ġpige":11323,"Ġscept":11324,"ĠsÃ©p":11325,"Ġled":11326,"ĠlanÃ§a":11327,"Ġcible":11328,"Ġmoutons":11329,"Ġnier":11330,"Ġnia":11331,"Ġnorth":11332,"itz":11333,"itif":11334,"Ġwound":11335,"Ġfid":11336,"Ġfum":11337,"Ġbone":11338,"Ġbaign":11339,"Ġvul":11340,"atul":11341,"Ġhoney":11342,"Ġtoler":11343,"arriÃ¨re":11344,"arched":11345,"orough":11346,"origine":11347,"enture":11348,"uns":11349,"Ġthorough":11350,"Ġneuve":11351,"Ġjun":11352,"ource":11353,"Ġovers":11354,"Ġrever":11355,"owning":11356,"ĠinÃ©v":11357,"idable":11358,"Ġbee":11359,"ayons":11360,"Ġrow":11361,"Ġrass":11362,"Ġrattrap":11363,"Ġryth":11364,"ĠchÃ¨que":11365,"Ġchuch":11366,"Ġpray":11367,"ico":11368,"icing":11369,"Ġsew":11370,"Ġsearched":11371,"Ġplastique":11372,"irait":11373,"iration":11374,"ador":11375,"Ġautumn":11376,"agÃ¨res":11377,"acte":11378,"urant":11379,"nown":11380,"Ġatmos":11381,"angle":11382,"igme":11383,"ola":11384,"Ġshake":11385,"ĠdansÃ©":11386,"ĠMin":11387,"Ġaraig":11388,"Ġsurvenir":11389,"Ġsurgery":11390,"Ġdeviennent":11391,"Ġdeviendra":11392,"ĠdevinÃ©":11393,"Ġworn":11394,"ĠpartagÃ©":11395,"Ġgris":11396,"Ġcrashed":11397,"ĠrÃ©vÃ©":11398,"ĠrÃ©ception":11399,"Ġappet":11400,"Pourrions":11401,"jeune":11402,"Ġclue":11403,"Ġcheating":11404,"Ġhelpless":11405,"Ġworker":11406,"Ġparliez":11407,"Ġcarb":11408,"Ġbranche":11409,"Ġadvenu":11410,"Ġloaded":11411,"Ġdiffer":11412,"ellement":11413,"Ġpregn":11414,"Ġprenne":11415,"Ġprennes":11416,"Ġbloom":11417,"Ġdrapeau":11418,"issage":11419,"Ġmalheur":11420,"Ġexpenses":11421,"ĠouÃ¯":11422,"ĠprÃ©venue":11423,"Ġpride":11424,"Ġsupply":11425,"Ġenfui":11426,"Ġphras":11427,"ĠdÃ©cid":11428,"ĠdÃ©cÃ¨s":11429,"Ġfaisant":11430,"Montez":11431,"Ġparent":11432,"Ġconscious":11433,"ĠrÃ©pÃ©t":11434,"ĠrÃ©pare":11435,"Ġfamilles":11436,"activ":11437,"Ġjoueurs":11438,"Ġsmo":11439,"Ġtwelve":11440,"Ġweekends":11441,"essayerai":11442,"Ġawfully":11443,"Ġregardais":11444,"Ġsouvient":11445,"phÃ¨re":11446,"Ġsortons":11447,"Ġglanced":11448,"Ġscary":11449,"Ġscener":11450,"ĠCould":11451,"Ġsword":11452,"Ġpartirai":11453,"Ġincorrect":11454,"Ġfox":11455,"Ġtravaillais":11456,"Ġassurer":11457,"Ġchaleure":11458,"ĠdÃ©poser":11459,"Ġobjet":11460,"Ġdecisions":11461,"Ġrefer":11462,"Ġknee":11463,"Ġvolcan":11464,"Ġrendiez":11465,"ĠrÃ©sister":11466,"ĠrÃ©server":11467,"Ġvoyons":11468,"Ġcapac":11469,"Ġquitta":11470,"Ġchangea":11471,"ĠmÃ©mor":11472,"Ġyoungest":11473,"Ġstops":11474,"Ġinformer":11475,"Ġvisiteurs":11476,"ĠintÃ©ressÃ©es":11477,"Ġactive":11478,"Ġactrice":11479,"Arriv":11480,"Ġfalls":11481,"ologue":11482,"Ġattendit":11483,"ĠportÃ©e":11484,"Ġvoies":11485,"Ã©paule":11486,"Ġlightning":11487,"Ġsuffer":11488,"Ġclasses":11489,"Ġprudence":11490,"ĠdisposÃ©e":11491,"Ġguessed":11492,"Ġendroits":11493,"ettons":11494,"Ġjoined":11495,"Ġhabitudes":11496,"ĠPac":11497,"Ġsunsc":11498,"Ġtentation":11499,"Ġseconds":11500,"ĠcoincÃ©":11501,"ĠboÃ®tes":11502,"ĠfiertÃ©":11503,"Ġdimin":11504,"ĠpressÃ©e":11505,"ĠfrappÃ©e":11506,"Ġressembles":11507,"Travai":11508,"Ġapproved":11509,"Ġtimbre":11510,"ĠsupposÃ©s":11511,"Ġchemises":11512,"Ġmanquez":11513,"Ġtreating":11514,"Ġconstruire":11515,"ĠdÃ©guis":11516,"Ġrumeurs":11517,"Ġballes":11518,"Ġstarved":11519,"Ġstarving":11520,"Ġcouleurs":11521,"agnol":11522,"Ġentendus":11523,"excus":11524,"Ġcommander":11525,"ĠchargÃ©e":11526,"Ġpronounce":11527,"Ġtopic":11528,"Ġvictimes":11529,"Ġouvertes":11530,"Ġsnack":11531,"ĠtÃ©lÃ©phonerai":11532,"Ġvolontaires":11533,"Ġprocurer":11534,"Ġacquit":11535,"Ġmillionnaire":11536,"Ġfridge":11537,"Ġsandwiches":11538,"Ġprofondeur":11539,"Ġevil":11540,"Ġsupportive":11541,"Ġburgl":11542,"Ġprovided":11543,"Ġcharacter":11544,"Ġvegetarian":11545,"human":11546,"ĠlevÃ©e":11547,"Ġcrayons":11548,"Ġpencils":11549,"Ġsoutien":11550,"ĠvÃ´tres":11551,"Ġpersonality":11552,"Ġfermement":11553,"Ġgeneral":11554,"ĠadorÃ©":11555,"Ġmanquent":11556,"Ġchampion":11557,"Ġscreamed":11558,"ĠdÃ©brouillÃ©":11559,"Ġreligious":11560,"ĠparticipÃ©":11561,"Ġnegative":11562,"Ġcommercial":11563,"Ġautomobile":11564,"Ġgraduate":11565,"ĠprÃ©cipit":11566,"ĠdÃ©cevoir":11567,"Ġcouverture":11568,"Ġclosest":11569,"Ġsupplies":11570,"ĠCDs":11571,"Ġclefs":11572,"Ġsympathique":11573,"approche":11574,"Ġadolescent":11575,"emmener":11576,"Ãīcoutez":11577,"Ġmaigri":11578,"immeuble":11579,"Ġfichier":11580,"Ġpills":11581,"ĠpoussiÃ¨re":11582,"ĠpropriÃ©tÃ©":11583,"Ġrembourser":11584,"Ġlatest":11585,"Ġimpressive":11586,"Ġcreative":11587,"opinion":11588,"Ġbriefly":11589,"Ġsettled":11590,"ĠbondÃ©":11591,"Ġcontemp":11592,"Ġdeserted":11593,"Ġmalchanceux":11594,"Ġinhabituel":11595,"ĠdÃ©sorient":11596,"ĠnÃ´tre":11597,"ĠdotÃ©e":11598,"Ġcamarades":11599,"Ġinterview":11600,"Permettez":11601,"Ġdegrees":11602,"Ġsymbol":11603,"Ġstrugg":11604,"Ġurb":11605,"ĠApril":11606,"ĠÃ©lectronique":11607,"Ġcongratul":11608,"Ġlibrairie":11609,"Birds":11610,"Whether":11611,"vaisselle":11612,"Ġrythme":11613,"Ġscenery":11614,"Ġsunscreen":11615,"Air":11616,"Add":11617,"Bet":11618,"Fl":11619,"Gener":11620,"Hab":11621,"Half":11622,"Lond":11623,"OK":11624,"Pay":11625,"Rappelle":11626,"Save":11627,"Soit":11628,"Soud":11629,"Tie":11630,"avert":11631,"bou":11632,"bÃ©c":11633,"card":11634,"die":11635,"for":11636,"mm":11637,"oz":11638,"och":11639,"rÃ©t":11640,"vÃ©e":11641,"vol":11642,"Ġorte":11643,"ĠOÃ¹":11644,"ĠSi":11645,"Ġult":11646,"Ġtue":11647,"Ġdai":11648,"Ġpressed":11649,"Ġpairs":11650,"Ġsien":11651,"Ġsla":11652,"Ġsaurais":11653,"Ġsages":11654,"Ġloyal":11655,"ery":11656,"Ġcauche":11657,"intes":11658,"Ġmamm":11659,"anish":11660,"ĠnoyÃ©":11661,"itor":11662,"Ġwaved":11663,"Ġfoire":11664,"Ġfrig":11665,"Ġfreedom":11666,"quatre":11667,"Ġbav":11668,"Ġbunch":11669,"ĠbÅĵuf":11670,"atin":11671,"Ġhais":11672,"arly":11673,"Ġge":11674,"Ġgosse":11675,"usÃ©e":11676,"Ġoignons":11677,"riers":11678,"Ġlaund":11679,"Ġine":11680,"Ġinqu":11681,"ila":11682,"ilÃ©":11683,"Ġeigh":11684,"Ġtrunk":11685,"Ġrats":11686,"ĠchÃ´":11687,"Ġchasse":11688,"Ġonline":11689,"Ġplats":11690,"ĠformÃ©":11691,"Ġdonated":11692,"adap":11693,"adays":11694,"ender":11695,"Ġaston":11696,"Ġaspir":11697,"amies":11698,"opt":11699,"ura":11700,"uring":11701,"Ġlesquelles":11702,"ĠsoÃ»":11703,"Ġatro":11704,"ĠdÃ©d":11705,"ĠdÃ©jeune":11706,"ĠavisÃ©":11707,"Ġavril":11708,"Ġaveu":11709,"Ġproceed":11710,"Ġshave":11711,"ensable":11712,"ensible":11713,"Ġfrac":11714,"ĠMont":11715,"Ġexistence":11716,"Ã©coutes":11717,"ointing":11718,"onger":11719,"Dogs":11720,"Ġamener":11721,"ulse":11722,"Ġdevra":11723,"Ġverify":11724,"ouvrit":11725,"Ġuses":11726,"ciente":11727,"Ġcompass":11728,"Ġcomporter":11729,"peare":11730,"Ġgray":11731,"Ġcraw":11732,"Ġmanners":11733,"Ġagent":11734,"Ġresource":11735,"ĠÃ©vÃ©":11736,"Ã®n":11737,"Ġentret":11738,"ĠentrÃ©s":11739,"resser":11740,"Ġcarr":11741,"Ġattendant":11742,"Ġattaque":11743,"Ġattaqu":11744,"Ġbrace":11745,"Ġbrosse":11746,"ignÃ©":11747,"Ġperhaps":11748,"Ġconten":11749,"Ġfinie":11750,"Ġdemandait":11751,"Ġbush":11752,"abs":11753,"issions":11754,"aisser":11755,"ums":11756,"umstances":11757,"Ġbuv":11758,"geon":11759,"Ġbookstore":11760,"ĠpiquÃ©":11761,"Ġorch":11762,"Ġconsom":11763,"Ġconsists":11764,"ĠrÃ©putation":11765,"ĠJune":11766,"Ġsoulever":11767,"Ġnomme":11768,"Ġpolie":11769,"Six":11770,"Ġrecall":11771,"Ġnightm":11772,"Ġpromoted":11773,"ouverture":11774,"Ġreplace":11775,"Ġopera":11776,"Ġmoments":11777,"Ġinvention":11778,"ancÃ©e":11779,"Ġregardant":11780,"ĠdÃ©tester":11781,"ĠarrivÃ¨rent":11782,"Ġremets":11783,"Ġswam":11784,"Ġimportants":11785,"ĠTit":11786,"ĠaimÃ©e":11787,"ĠSud":11788,"errement":11789,"Ġassur":11790,"Ġ13":11791,"Ġdecent":11792,"Ġbold":11793,"Ġvivid":11794,"Ġchambres":11795,"Ġbouill":11796,"Ġexcess":11797,"Ġwatches":11798,"Ġfaces":11799,"ĠcoulÃ©":11800,"Start":11801,"Ġentendues":11802,"ĠcapacitÃ©":11803,"Ġquitt":11804,"Ġsings":11805,"Ġfaille":11806,"Ġblessures":11807,"Ġimmeuble":11808,"Ġmagic":11809,"Before":11810,"Ġbreaks":11811,"Ġmentez":11812,"Ġhunting":11813,"Ġsaura":11814,"Ġ21":11815,"Ġoublia":11816,"Ġretourna":11817,"Ġtourna":11818,"Ġtrouverez":11819,"Ġfallut":11820,"Change":11821,"Ġsonger":11822,"Ġcalmer":11823,"Ġexams":11824,"ĠprÃ©senta":11825,"Ġtemptation":11826,"Ġsuivante":11827,"Ġvitre":11828,"Ġvitam":11829,"Ġchangent":11830,"Ġrobot":11831,"Ġaddressed":11832,"Ġsilenc":11833,"Ġhumid":11834,"Ġcontentes":11835,"anchement":11836,"urgers":11837,"Ġmangeons":11838,"ĠversÃ©":11839,"ĠarmÃ©e":11840,"Ġjournalist":11841,"akespeare":11842,"Ġdisappointing":11843,"Ġlaws":11844,"Ġbabys":11845,"ĠÃ©chouer":11846,"Ġbarb":11847,"Ġrichest":11848,"Ġtraitement":11849,"Ġviendrais":11850,"Ġprinces":11851,"Ã©trange":11852,"Ġzone":11853,"Ġjuin":11854,"Ġfrappe":11855,"Ġdroits":11856,"Ġpolitical":11857,"Ġpolitician":11858,"ĠlÃ©gal":11859,"Trust":11860,"Trouvez":11861,"Ġnormale":11862,"ccasions":11863,"Ġ194":11864,"Ġsouffrir":11865,"dessous":11866,"ĠsÃ©rieuses":11867,"ĠmÃ©ritez":11868,"ĠremportÃ©":11869,"Ġtrompes":11870,"Ġrideau":11871,"ĠembrassÃ©e":11872,"Ġendormis":11873,"Ġheavily":11874,"Ġintrod":11875,"Ġnaturelle":11876,"Ġrisky":11877,"Ã©vidence":11878,"Ġlimites":11879,"Ġjeunesse":11880,"imaginer":11881,"Ġmaladies":11882,"ĠpardonnÃ©":11883,"Ġsurvivants":11884,"ĠconsidÃ©ration":11885,"Ġcurtain":11886,"Comprenez":11887,"Ġpaierai":11888,"Ġconstantly":11889,"Ġconditioner":11890,"Ġenvironment":11891,"ĠÃ©clatÃ©":11892,"Ġcarrying":11893,"Ġdeserved":11894,"Ġsurpoids":11895,"Ġdishwas":11896,"Ġobserve":11897,"Ġquality":11898,"Ġhugged":11899,"Devrions":11900,"Ġgravement":11901,"Ġcreep":11902,"ĠretrouvÃ©":11903,"Ġadopt":11904,"Ġarranger":11905,"Ġlogical":11906,"Ġencourage":11907,"ĠÃ©lÃ©phants":11908,"Reading":11909,"ĠCanadien":11910,"Promets":11911,"Ġparticipate":11912,"Ġbrillante":11913,"Ġpilote":11914,"Ġtermine":11915,"Ġaimerions":11916,"Ġpsychic":11917,"Ġspotted":11918,"Ġtracasse":11919,"hÃ©site":11920,"Ġcharming":11921,"Ġcharmant":11922,"Ġfinancial":11923,"ĠdÃ©roule":11924,"ĠsincÃ¨re":11925,"ĠfÃ¢chÃ©e":11926,"Ġadolescents":11927,"intÃ©ressant":11928,"Play":11929,"honneur":11930,"Ġowes":11931,"About":11932,"Entrez":11933,"Ġmotivated":11934,"Ġgrammaire":11935,"Ġintimid":11936,"Ġremarks":11937,"Ġincompet":11938,"Oublie":11939,"Ġcraindre":11940,"Ġmonsieur":11941,"Ġconfessed":11942,"Ġnecklace":11943,"Ġuniform":11944,"ĠrenvoyÃ©":11945,"Haven":11946,"looking":11947,"Assurez":11948,"ievable":11949,"ĠcuriositÃ©":11950,"Ġbaleine":11951,"Ġpratiquer":11952,"Ġdiscouraged":11953,"Ġcriticism":11954,"ĠhypothÃ¨se":11955,"obilier":11956,"ĠlittÃ©r":11957,"Ġflashlight":11958,"ĠcondamnÃ©":11959,"Ġclothing":11960,"Ġrecommencer":11961,"Valentin":11962,"Ġenfreint":11963,"Ġoutdoors":11964,"Ġindoors":11965,"ĠtÃ©moi":11966,"ĠrÃ©vÃ©la":11967,"Ġphrases":11968,"Ġsmooth":11969,"Arrives":11970,"humanitÃ©":11971,"Ġbracelet":11972,"Ġdishwasher":11973,"Ac":11974,"AussitÃ´t":11975,"DÃ©g":11976,"Draw":11977,"Honest":11978,"Ici":11979,"Jud":11980,"LÃ¨ve":11981,"Lincoln":11982,"Mom":11983,"Send":11984,"Soyons":11985,"Talk":11986,"Use":11987,"VÃ©rif":11988,"affe":11989,"een":11990,"ipp":11991,"iÃ©es":11992,"iendrez":11993,"jama":11994,"known":11995,"lation":11996,"mage":11997,"niez":11998,"oard":11999,"overy":12000,"rÃ´":12001,"rÃ¨rent":12002,"rages":12003,"zard":12004,"ĠThey":12005,"ĠNe":12006,"ĠQu":12007,"ĠAs":12008,"ĠRe":12009,"Ġtint":12010,"Ġtira":12011,"Ġtiendra":12012,"Ġtaill":12013,"oule":12014,"oulÃ©":12015,"rel":12016,"reusement":12017,"Ġdus":12018,"Ġack":12019,"Ġpne":12020,"Ġpitch":12021,"ĠpÃ¨se":12022,"Ġsque":12023,"Ġsides":12024,"ĠsÃ¨che":12025,"enverrai":12026,"ero":12027,"Ġmaux":12028,"Ã©que":12029,"anes":12030,"Ġnie":12031,"ĠniÃ©":12032,"Ġwol":12033,"qual":12034,"Ġber":12035,"Ġbul":12036,"Ġbars":12037,"Ġyard":12038,"ato":12039,"Ġdetective":12040,"Ġtower":12041,"aii":12042,"orld":12043,"Ġtherm":12044,"Ġthumb":12045,"ĠÃ´":12046,"Ġgained":12047,"Ġjalous":12048,"Ġunw":12049,"ĠuniversitÃ©":12050,"rimp":12051,"Ġlapt":12052,"Ġbegged":12053,"Ã¨ques":12054,"Ġranger":12055,"Ġchi":12056,"Ġchap":12057,"Ġchass":12058,"icit":12059,"Ġsevente":12060,"Ġplaire":12061,"Ġplaign":12062,"osa":12063,"ossi":12064,"irty":12065,"Ġparvenue":12066,"Ġparvenus":12067,"ands":12068,"Ġpourra":12069,"ending":12070,"aming":12071,"acting":12072,"acles":12073,"resent":12074,"opÃ©en":12075,"Ġstage":12076,"uivez":12077,"olic":12078,"ustri":12079,"Ġfrog":12080,"orted":12081,"Ġabas":12082,"Ġabst":12083,"Ġaboard":12084,"Ġridden":12085,"Ġsurgeon":12086,"Ġalphabet":12087,"Ġamm":12088,"Ġamend":12089,"ulp":12090,"ulous":12091,"Ġdevrez":12092,"Ġdisob":12093,"Ġcomptes":12094,"Ġcompose":12095,"Ġcrut":12096,"Ġcrue":12097,"Ġcramp":12098,"Ġcrops":12099,"roite":12100,"Ġdemonstr":12101,"Ġagi":12102,"Ġrescue":12103,"Ġsaisir":12104,"ĠÃ©du":12105,"assurance":12106,"obs":12107,"obt":12108,"Ġcauses":12109,"Ġbrag":12110,"Ġadj":12111,"Ġadminist":12112,"Ġloge":12113,"Ġpassent":12114,"Ġvoulut":12115,"Ġvoulions":12116,"Ġthanked":12117,"Ġpref":12118,"Ġprecious":12119,"udd":12120,"Ġblown":12121,"about":12122,"Ġspin":12123,"Ġferont":12124,"Ġcommission":12125,"ĠÃ©coulÃ©":12126,"Ġshel":12127,"ĠdÃ©cisions":12128,"identitÃ©":12129,"ĠsoulevÃ©":12130,"Ġvisible":12131,"Ġpupp":12132,"Ġcourtes":12133,"Ġplayers":12134,"Ġflir":12135,"iquerai":12136,"Ġregards":12137,"Ġhandic":12138,"ĠachevÃ©":12139,"Ġsoirs":12140,"usses":12141,"Ġswitch":12142,"Ġswallow":12143,"ocr":12144,"ocrat":12145,"ĠSouth":12146,"Ġexpliqua":12147,"Ġincon":12148,"Ġtravaillait":12149,"Ġtravailleurs":12150,"Ġconcl":12151,"Ġrefroid":12152,"Ġshows":12153,"Ġpainful":12154,"ĠpoÃ¨mes":12155,"Ġannounced":12156,"ĠmÃ©prise":12157,"Ġdormait":12158,"Ġmises":12159,"ĠarrÃªta":12160,"Ġvisitors":12161,"istered":12162,"ĠÃ©poux":12163,"Ãīv":12164,"Ġnourr":12165,"ĠmariÃ©es":12166,"Ġmentent":12167,"toie":12168,"Ġoublie":12169,"Ġprofessor":12170,"Arrivez":12171,"ĠdÃ©bord":12172,"Ġentrepr":12173,"vingt":12174,"Ġnatation":12175,"Ġcalendrier":12176,"Ġfeuille":12177,"Ġslice":12178,"Ġtemple":12179,"Ġamuser":12180,"ĠbiÃ¨res":12181,"Ġsourd":12182,"Ġreconnus":12183,"Ġreconnue":12184,"Ġmilit":12185,"Ġiras":12186,"Ġirait":12187,"Ġrouler":12188,"Ġarticles":12189,"Ġindique":12190,"Ġeyesight":12191,"Ġadded":12192,"Ġaddicted":12193,"Ġconnaissiez":12194,"iendras":12195,"iendront":12196,"Ġtrump":12197,"Ġappreciated":12198,"ĠgÃ¢teaux":12199,"Ġvalid":12200,"Ġtremp":12201,"ĠÃ©chou":12202,"ĠespÃ©rait":12203,"Ġbased":12204,"Ġchangera":12205,"Ġviendras":12206,"Ġsubsc":12207,"Ġraconte":12208,"Ġcommencez":12209,"Ġmachines":12210,"ĠprÃ©cieux":12211,"Ġgagnera":12212,"ĠÃ©vanou":12213,"Expl":12214,"Ġpresser":12215,"Wash":12216,"Ġformidable":12217,"Ġbothered":12218,"Ġsatisfaites":12219,"Ġaccompagner":12220,"affaires":12221,"Ġveiller":12222,"Ġremarquer":12223,"Ġmercy":12224,"ĠNon":12225,"Ġessential":12226,"ĠbÃ¢timents":12227,"Ġavocate":12228,"Ġavocats":12229,"ĠmÃ©rites":12230,"ĠsoupÃ§":12231,"Ġremerci":12232,"Ġjeudi":12233,"Ġtreats":12234,"Ġappelez":12235,"Ġrumors":12236,"berg":12237,"Ġfamilies":12238,"Ġgifts":12239,"Ġapplies":12240,"Ġconcernant":12241,"Ġdirections":12242,"Ġhopeless":12243,"Ġignorer":12244,"ĠÃītasun":12245,"Ġattentif":12246,"Ġsuspects":12247,"ĠrÃ©el":12248,"Comprends":12249,"ĠdÃ©clen":12250,"ĠdÃ©clara":12251,"Ġobjective":12252,"envie":12253,"Ġvolontiers":12254,"ĠprocÃ©der":12255,"ĠacquÃ©rir":12256,"Ġmemor":12257,"ĠpauvretÃ©":12258,"Ġnavig":12259,"Ġqualified":12260,"ĠsuicidÃ©":12261,"Ġceris":12262,"Ġlanded":12263,"Ġmorceaux":12264,"ruption":12265,"Ġaffecte":12266,"ursday":12267,"ĠdÃ©mÃ©nage":12268,"Ġbehaving":12269,"ĠverrouillÃ©":12270,"Ġprononciation":12271,"Ġcustomer":12272,"ĠÃ©veillÃ©e":12273,"Ġdomaine":12274,"Ġcitoy":12275,"Ġrepris":12276,"Ġallergies":12277,"Ġdingues":12278,"Promettez":12279,"Feel":12280,"Grand":12281,"GrÃ¢ce":12282,"Ġpoems":12283,"Ġcommerci":12284,"ĠdÃ©pourvue":12285,"Ġtechnique":12286,"Ġclimbing":12287,"ĠentraÃ®nÃ©":12288,"Ġdescription":12289,"Ġpoursuivre":12290,"ĠdÃ©cevant":12291,"Ġmeurent":12292,"Ġpretending":12293,"PrÃ©p":12294,"ĠcompÃ©tition":12295,"ĠnaÃ¯ve":12296,"Ġbecomes":12297,"Ġattempted":12298,"Ġlapins":12299,"Ġdiamant":12300,"Ġinsisted":12301,"Ġslightly":12302,"Ġraccour":12303,"Ġpermitted":12304,"ĠThursday":12305,"Ġdyed":12306,"ĠpropriÃ©taire":12307,"ĠincompÃ©t":12308,"Ġallumette":12309,"Ġcelebrating":12310,"Asseyez":12311,"Ġadults":12312,"Ġapproaching":12313,"amÃ©liorer":12314,"ĠÃ©crasÃ©":12315,"...":12316,"ĠbÃ©nÃ©f":12317,"Ġbruyant":12318,"Ġknocking":12319,"coat":12320,"Ġpyjama":12321,"ĠpersonnalitÃ©":12322,"ĠsupÃ©rieur":12323,"Ġcultiv":12324,"Ġmaterial":12325,"ĠdÃ©licieuse":12326,"cription":12327,"Ġsneak":12328,"Instead":12329,"Ġtiny":12330,"Ġprudemment":12331,"Ġfrozen":12332,"Ġexigences":12333,"Ġabattu":12334,"Commence":12335,"Ġaccurate":12336,"Ġtyphoon":12337,"Ġunderestimate":12338,"Ġmandat":12339,"Ġtunnel":12340,"riculture":12341,"Ġemotional":12342,"ĠaccompagnÃ©":12343,"Souhait":12344,"Ġskept":12345,"Ġappetite":12346,"Ġpregnant":12347,"Ġlaundry":12348,"Ġeighteen":12349,"ĠchÃ´mage":12350,"Ġcompassion":12351,"Ã®nmes":12352,"Ġcarrots":12353,"Ġacknow":12354,"Ġpneus":12355,"Ã©quemment":12356,"Ġlaptop":12357,"Ġdisobey":12358,"Ġsubscri":12359,"Boy":12360,"Co":12361,"DÃ©t":12362,"Dinner":12363,"Fortun":12364,"LÃ¢chez":12365,"Or":12366,"Pens":12367,"PrÃªte":12368,"Run":12369,"Red":12370,"Rel":12371,"Sau":12372,"Sud":12373,"Suivez":12374,"Words":12375,"corn":12376,"iance":12377,"iaux":12378,"jong":12379,"kward":12380,"lon":12381,"lers":12382,"place":12383,"ÃĶ":12384,"ĠThere":12385,"Ġtune":12386,"Ġtires":12387,"Ġtasted":12388,"Ġdinosau":12389,"ĠaidÃ©e":12390,"Ġpir":12391,"Ġpess":12392,"Ġpointed":12393,"Ġpounds":12394,"Ġsch":12395,"Ġsaint":12396,"ontez":12397,"enqu":12398,"eness":12399,"Ġlength":12400,"erland":12401,"Ġcerve":12402,"Ġmult":12403,"Ġnus":12404,"ĠnÃ©s":12405,"Ġwide":12406,"Ġwiped":12407,"oms":12408,"Ġfoir":12409,"Ġfooled":12410,"asure":12411,"Ġvig":12412,"Ġvends":12413,"Ġvari":12414,"ĠvÃ©cut":12415,"atte":12416,"atter":12417,"atoire":12418,"Ġyouth":12419,"Ġharv":12420,"ousse":12421,"entes":12422,"Jette":12423,"ĠgÃ¨re":12424,"eter":12425,"Ġol":12426,"Ġrede":12427,"Ġreven":12428,"Ġrevenus":12429,"rid":12430,"Ġmech":12431,"Ġinapp":12432,"ilton":12433,"imming":12434,"Ġbeef":12435,"Ġtrouvez":12436,"Ġtromb":12437,"Ġtristes":12438,"Ġence":12439,"ĠenlevÃ©":12440,"Ġrag":12441,"Ġrise":12442,"Ġrole":12443,"Ġramen":12444,"Ġracket":12445,"Ġraqu":12446,"Ġchoir":12447,"ĠchÃ¨vre":12448,"Ġprinc":12449,"auts":12450,"ald":12451,"Ġsection":12452,"Ġsevere":12453,"osÃ©e":12454,"tues":12455,"turÃ©":12456,"Ġpartes":12457,"Ġparaiss":12458,"Ġformer":12459,"Ġfortement":12460,"illages":12461,"amitiÃ©":12462,"ĠÃ©tonn":12463,"resident":12464,"Ġallant":12465,"Ġallumer":12466,"ĠallumÃ©e":12467,"urger":12468,"Ġstro":12469,"allai":12470,"ift":12471,"Ġdesire":12472,"Ġdanseur":12473,"Ġfrites":12474,"ĠfrÃ©quemment":12475,"Ġarrow":12476,"Ġsurmon":12477,"Ġalcool":12478,"Ġamends":12479,"Ġdevast":12480,"Ġusine":12481,"cieux":12482,"Ġpartiez":12483,"Ġgrav":12484,"ivered":12485,"Ġoutils":12486,"Compar":12487,"Ġrenouve":12488,"uish":12489,"uisait":12490,"Ġserrer":12491,"Ġclung":12492,"appareil":12493,"apprend":12494,"Ġshoulders":12495,"Ġnodd":12496,"ĠÃ©glise":12497,"Ġmarath":12498,"Ġcog":12499,"Ġbienvenus":12500,"ressing":12501,"Ġpensions":12502,"aido":12503,"Ġbron":12504,"Ġbrain":12505,"Ã©rÃ©es":12506,"Ġcontain":12507,"Ġcontains":12508,"Ġoffrit":12509,"Ġfined":12510,"Ġdemands":12511,"Ġdemanderai":12512,"Ġpeel":12513,"Ġpepper":12514,"Ġprec":12515,"Ġmule":12516,"Ġletting":12517,"Ġprennent":12518,"Ġblo":12519,"Ġblocked":12520,"Ġasks":12521,"Ġdrowning":12522,"Ġspilled":12523,"Ġspelling":12524,"isses":12525,"oleur":12526,"Ġtomates":12527,"Ġvenons":12528,"Ġprirent":12529,"Ġbackwards":12530,"Ġaccout":12531,"Ġregister":12532,"Ġregistered":12533,"Ġphares":12534,"Ġdivers":12535,"Ġdivert":12536,"aching":12537,"ĠguÃ©ri":12538,"Ġconserver":12539,"idents":12540,"Ġmoquer":12541,"ĠJust":12542,"ĠdÃ©sas":12543,"ĠdÃ©sag":12544,"ĠdÃ©sirez":12545,"Ġcared":12546,"actory":12547,"Ġawkward":12548,"Ġrestait":12549,"Ġhardest":12550,"Ġoverhe":12551,"Ġrepose":12552,"Ġrepouss":12553,"Ġrepresent":12554,"Ġflies":12555,"Ġinvinci":12556,"Ġsimples":12557,"ancier":12558,"Ġregardent":12559,"attendu":12560,"Ġgliss":12561,"Ġempire":12562,"ĠlaissÃ©es":12563,"ÃĬtre":12564,"Ġarriving":12565,"Ġremote":12566,"Ġavantage":12567,"Ġhurting":12568,"Ġendomm":12569,"Ġsensation":12570,"Ġpresents":12571,"ĠchaÃ®":12572,"Ġadvienne":12573,"Ġfund":12574,"Ġcherry":12575,"Ġvivants":12576,"Ġvolant":12577,"ĠvolÃ©e":12578,"gging":12579,"osses":12580,"Ġcoule":12581,"ĠrÃ©side":12582,"ĠrÃ©servÃ©":12583,"Ġcaptured":12584,"ĠstupÃ©":12585,"Ġfaibles":12586,"ĠnuclÃ©":12587,"Ġdormit":12588,"Ġfiles":12589,"ĠcommencÃ¨rent":12590,"Ġgenou":12591,"Being":12592,"Ġrencontriez":12593,"Ġsigns":12594,"Ġforgave":12595,"ĠChopin":12596,"Ġemplois":12597,"Ġsonge":12598,"Ġhorloge":12599,"Ġtrusts":12600,"Ġslipped":12601,"Ġbribe":12602,"Ġtyphon":12603,"Ġtemples":12604,"Ġutiles":12605,"ĠutilitÃ©":12606,"Ġstands":12607,"Ġclassical":12608,"Ġmena":12609,"Ġpublique":12610,"Ġadmir":12611,"ĠindiquÃ©":12612,"ĠprÃ©voit":12613,"ĠÂ».":12614,"Ġhumil":12615,"Ġtransf":12616,"Ġdessiner":12617,"Ġstepped":12618,"ĠgÃ¢cher":12619,"Ġvalait":12620,"Ġvalable":12621,"orthographe":12622,"ĠPresident":12623,"Ġtelephon":12624,"ĠGu":12625,"Ġouvriers":12626,"ctueux":12627,"Ġdelay":12628,"Ġdelivered":12629,"Ġsuggesting":12630,"Ġintelligence":12631,"Ġintelligents":12632,"Ġattrapa":12633,"ĠÅĵuf":12634,"Ġabandon":12635,"ĠbÃ©bÃ©s":12636,"Ġoppon":12637,"Ġmurdered":12638,"Ġimpressionnant":12639,"Ġperdez":12640,"Ġmodest":12641,"Ġurged":12642,"ĠprÃ©fÃ¨rerais":12643,"Ġvein":12644,"ĠdÃ©fauts":12645,"ĠorganisÃ©e":12646,"Ġ195":12647,"Ġatteignit":12648,"ĠrÃ©cente":12649,"ĠrÃ©comp":12650,"Ġsympt":12651,"ĠmangÃ©e":12652,"Ġcorrectly":12653,"Ãītant":12654,"Ġfonds":12655,"Ġfondu":12656,"exprimer":12657,"Ġrecherches":12658,"ĠcommenÃ§ons":12659,"Ġlocation":12660,"Ġconsideration":12661,"Ġtalentueux":12662,"Ġbathtu":12663,"Ã©viter":12664,"Ġwarmth":12665,"Ġapplied":12666,"Ġbalance":12667,"Ġconscien":12668,"ĠrÃ©gion":12669,"Ġouverts":12670,"ĠmÃ©tier":12671,"ĠimpliquÃ©e":12672,"ĠsauvÃ©e":12673,"Ġsurprend":12674,"ĠbrÃ»ler":12675,"Ġhorriblement":12676,"Ġsuicider":12677,"ĠarrÃªtÃ©s":12678,"Ġcerf":12679,"ĠrÃ©duit":12680,"Ġwelcom":12681,"Ġcooperate":12682,"Ġpierres":12683,"Ġplumber":12684,"ambition":12685,"ographie":12686,"Ġretrouv":12687,"Ġrejoint":12688,"Ġprincipale":12689,"Ġcabinet":12690,"Ġespoirs":12691,"lacÃ©":12692,"Ġencouraged":12693,"Ġfourni":12694,"accepte":12695,"rÃªtons":12696,"Ġraconta":12697,"Ġramener":12698,"Ġannoyed":12699,"Ġfrequ":12700,"Ġrompre":12701,"ĠdiplÃ´me":12702,"Franchement":12703,"Ġ70":12704,"ĠamÃ©li":12705,"Ġchauffage":12706,"Ġopposite":12707,"PrÃ©v":12708,"infirmiÃ¨re":12709,"Ġlabor":12710,"denly":12711,"ĠannoncÃ©":12712,"Ġinternational":12713,"Ġsurveiller":12714,"ĠcoopÃ©rer":12715,"Ġcirconst":12716,"Ġwhispered":12717,"ĠÃ©levÃ©e":12718,"Ġwebsites":12719,"Ġpousse":12720,"Ġbranch":12721,"Ġcelebrate":12722,"Ġcraig":12723,"alloween":12724,"Retourne":12725,"Ġseparated":12726,"ĠforcÃ©s":12727,"ĠtraÃ®ner":12728,"Descends":12729,"Descendez":12730,"ĠÃ©lÃ©gant":12731,"Ġdisputent":12732,"Cherchez":12733,"Ġmalchance":12734,"amÃ©liore":12735,"Ġvocation":12736,"ĠdÃ©cÃ©dÃ©e":12737,"ĠgÃ©nÃ©reux":12738,"Ġblanket":12739,"Ġinterrompre":12740,"Ġromantic":12741,"ĠShakespeare":12742,"ĠiPad":12743,"writer":12744,"Ġclaims":12745,"Ġluxe":12746,"Ġrailroad":12747,"Ġscolaire":12748,"ĠÃ©motions":12749,"enseignant":12750,"Ġbluffing":12751,"ĠrÃ©colte":12752,"Ġhamburger":12753,"Ġplombier":12754,"ĠIndia":12755,"ĠindiffÃ©rent":12756,"Italie":12757,"Ġpharmacie":12758,"Sooner":12759,"ĠrÃ©flexion":12760,"Conduis":12761,"Raconte":12762,"ĠemmenÃ©":12763,"Servez":12764,"hearted":12765,"Ġmanipul":12766,"ĠattaquÃ©":12767,"Disposes":12768,"ĠlicenciÃ©":12769,"Ġperplexe":12770,"Ġcordes":12771,"Ġmouvement":12772,"Ġunemployed":12773,"Ġinterpreter":12774,"ĠHawaii":12775,"Ġlinge":12776,"okkaido":12777,"Ġpagaille":12778,"Ġtolerate":12779,"Ġburglar":12780,"Generally":12781,"Soudain":12782,"ozart":12783,"Ġorteils":12784,"Ġfrigo":12785,"Ġresourceful":12786,"ĠTitanic":12787,"Ġprincesse":12788,"Ġintroduit":12789,"Ġincompetent":12790,"ĠtÃ©moig":12791,"Fortunately":12792,"Suddenly":12793,"Ġpessim":12794,"Ġharvest":12795,"Ġinappropri":12796,"Ġprincess":12797,"Ġwelcomed":12798,"?\"":12799,"?Â»":12800,"BI":12801,"Bad":12802,"Dad":12803,"First":12804,"Over":12805,"Ple":12806,"Pars":12807,"Portez":12808,"Stu":12809,"abli":12810,"cente":12811,"del":12812,"dies":12813,"four":12814,"hin":12815,"ham":12816,"hol":12817,"ju":12818,"mons":12819,"monn":12820,"nt":12821,"nette":12822,"pack":12823,"pendant":12824,"ties":12825,"yant":12826,"zil":12827,"ĠThis":12828,"ĠLes":12829,"Ġiv":12830,"ĠEn":12831,"Ġtache":12832,"Ġtiers":12833,"Ġtiennent":12834,"ouest":12835,"oupe":12836,"Ġpit":12837,"ĠpÃª":12838,"Ġpac":12839,"ĠsÃ©d":12840,"Ġloses":12841,"ĠcÃ©d":12842,"inÃ©e":12843,"Ġmai":12844,"ĠmÃ¢":12845,"Ã©chÃ©":12846,"Ã©lection":12847,"anim":12848,"itÃ©e":12849,"Ġwished":12850,"ĠfÃ»t":12851,"qua":12852,"ĠbÃ»":12853,"Ġbande":12854,"ller":12855,"Ġvom":12856,"Ġvides":12857,"Ġdeals":12858,"Ġhoc":12859,"Ġhib":12860,"Ġtore":12861,"orange":12862,"enter":12863,"unciation":12864,"Ġthieves":12865,"ĠgÃ©rÃ©":12866,"lete":12867,"Ġoys":12868,"Ġrene":12869,"Ġrevenue":12870,"Ġmere":12871,"owed":12872,"idy":12873,"iding":12874,"image":12875,"ĠhaÃ¯":12876,"cevoir":12877,"Ġtrag":12878,"Ġrage":12879,"outÃ©":12880,"Ġchers":12881,"aurez":12882,"auras":12883,"auraient":12884,"iciel":12885,"verrou":12886,"Ġplastic":12887,"irmÃ©":12888,"ĠparaÃ®tre":12889,"Ġparfum":12890,"Ġdonnent":12891,"Ġkar":12892,"Ġaudit":12893,"aving":12894,"avÃ©ra":12895,"illet":12896,"amus":12897,"ĠÃ©tant":12898,"nels":12899,"opÃ©ra":12900,"urt":12901,"Ġstays":12902,"Ġtuy":12903,"iges":12904,"Ġshade":12905,"Ġshaking":12906,"ustrie":12907,"Ġfrot":12908,"ĠMonsieur":12909,"ĠexÃ©c":12910,"ĠexigÃ©":12911,"Ġabol":12912,"Ġaboyer":12913,"Ġarna":12914,"Ġanytime":12915,"ĠalitÃ©":12916,"demain":12917,"Ġsachant":12918,"icians":12919,"impl":12920,"Ġpartent":12921,"ĠgrÃ¨ve":12922,"Ġpeuple":12923,"inded":12924,"industrie":12925,"Ġmanual":12926,"Ġrenard":12927,"Ġseraient":12928,"Ġclin":12929,"appart":12930,"apporte":12931,"Ġmarque":12932,"Ġmarron":12933,"assistance":12934,"ĠpensÃ©es":12935,"Ġimpoli":12936,"Ġload":12937,"Ġbesides":12938,"ĠcontÃ©":12939,"uding":12940,"Ġtomatoes":12941,"ĠFr":12942,"ĠFBI":12943,"Ġthoughts":12944,"Ġpriest":12945,"Ã¢ts":12946,"Ġpipe":12947,"Ġlottery":12948,"Ġpace":12949,"razil":12950,"Ġeurent":12951,"Ġjouet":12952,"Ġsmokes":12953,"Ġrecy":12954,"Åĵuv":12955,"Ġjustement":12956,"Ġsentent":12957,"Ġroommate":12958,"Ġoverc":12959,"Ġoverwork":12960,"Ġreplac":12961,"Ġflin":12962,"izon":12963,"ĠtÃ©lÃ©charg":12964,"Ġconfirmer":12965,"Ġscr":12966,"Ġarrivait":12967,"ĠarrivÃ¢mes":12968,"Ġremonte":12969,"ĠCol":12970,"ĠCong":12971,"Whenever":12972,"Ġenvy":12973,"ĠTw":12974,"ĠSc":12975,"clear":12976,"Ġcoupa":12977,"Ġessayait":12978,"Ġessayons":12979,"Ġassert":12980,"ĠdÃ©pl":12981,"ĠdÃ©place":12982,"ĠdÃ©placer":12983,"intim":12984,"Ġdurs":12985,"Ġrendons":12986,"Ġfaciles":12987,"riser":12988,"Ġcouler":12989,"Ġconseiller":12990,"estement":12991,"Ġquittez":12992,"insul":12993,"ĠproposÃ©":12994,"ĠtombÃ©s":12995,"Ġsolide":12996,"Ġrevue":12997,"Ġrevint":12998,"ĠfiÃ¨res":12999,"ĠfianÃ§":13000,"ĠfiancÃ©e":13001,"Ġswimmer":13002,"ĠintÃ©ressantes":13003,"Ġgagn":13004,"Ġtrib":13005,"Ġgenuine":13006,"Ġexpectations":13007,"Ġemboute":13008,"Ġowned":13009,"habille":13010,"Ġcria":13011,"Ġcrie":13012,"Ġgently":13013,"Ind":13014,"Ġforgetting":13015,"Ġattendais":13016,"Ġportrait":13017,"Ġportail":13018,"Ġhoraire":13019,"Ġbagu":13020,"Ġtempted":13021,"Ġstandards":13022,"Ġsuivie":13023,"Ġsuivrai":13024,"Ġsouhaitons":13025,"Ġrapid":13026,"Ġpianist":13027,"Ġpianiste":13028,"ĠreconnaÃ®tre":13029,"Ġfourmis":13030,"Ġdisposition":13031,"attendez":13032,"Ġfax":13033,"ĠLincoln":13034,"Ġsteps":13035,"ĠgÃ©niale":13036,"Apparemment":13037,"ĠgÃ¢chÃ©":13038,"Ġsemblables":13039,"grÃ©s":13040,"ĠÃ©changÃ©":13041,"ĠrÃ©veil":13042,"ĠrÃ©veille":13043,"Ġsunset":13044,"Ġstores":13045,"Ġlaughter":13046,"Ġsuitable":13047,"ĠprÃ©cÃ©d":13048,"Ġordinary":13049,"Ġpicking":13050,"Ġchoisit":13051,"Attache":13052,"ĠÃ©vitÃ©":13053,"Exp":13054,"Ġdealing":13055,"ĠzÃ©ro":13056,"Ġzero":13057,"Ġhitting":13058,"Ġdescends":13059,"ĠrespectÃ©":13060,"Ġperdus":13061,"Ġbottes":13062,"ĠrÃ©ponds":13063,"Ġaccompany":13064,"Ġapprove":13065,"Ġpossibles":13066,"ĠdÃ©faut":13067,"Ġremarques":13068,"Ġ193":13069,"Ġ198":13070,"ĠrÃ©clam":13071,"Ġfermier":13072,"Ġpanicked":13073,"Ġlessons":13074,"Ġpostale":13075,"Ġpostcard":13076,"ĠmÃ©ritÃ©":13077,"Ġconstru":13078,"ĠdÃ©gÃ¢ts":13079,"Ġhonneur":13080,"ĠhonnÃªtetÃ©":13081,"Ġrechercher":13082,"ĠcommenÃ§ais":13083,"ĠÃ©tranges":13084,"Ġsanglot":13085,"Ġsouciez":13086,"Ġcommunity":13087,"berries":13088,"Ġbordel":13089,"Ã©vanou":13090,"Ġdirector":13091,"ĠeffrayÃ©s":13092,"Ġfaults":13093,"Ġbreathing":13094,"ĠdÃ©butant":13095,"Ġpronunciation":13096,"Ġslee":13097,"Ġforeigners":13098,"Compared":13099,"Ġthrowing":13100,"Ġserviettes":13101,"Ġmemories":13102,"Ġbouteilles":13103,"Ġhyd":13104,"ĠennuyÃ©":13105,"Ġsuspic":13106,"Ġcultures":13107,"ennuis":13108,"ĠlycÃ©":13109,"Ġkilogram":13110,"ography":13111,"Ġaffect":13112,"Ġsoutiens":13113,"Ġvertige":13114,"Ġ80":13115,"Ġmarchant":13116,"Ġgenerally":13117,"Ġavoided":13118,"Ġamazed":13119,"ĠdÃ©marrÃ©":13120,"Ġanciens":13121,"ĠdÃ©Ã§us":13122,"Remove":13123,"ĠcensÃ©es":13124,"Surveille":13125,"Finissons":13126,"Ġdommages":13127,"ĠnÃ©goc":13128,"ĠÃ©chapper":13129,"Ġearned":13130,"ĠrÃ©vÃ©lÃ©":13131,"horreur":13132,"horloge":13133,"Ġshooting":13134,"Ġgamin":13135,"abandonne":13136,"ĠcoÃ»tent":13137,"Ġdetermine":13138,"Ġcollectionner":13139,"Ġrepeated":13140,"Ġcloudy":13141,"ĠpÃ©nÃ©trÃ©":13142,"Ġaverti":13143,"Ġposez":13144,"ĠamÃ©ricaine":13145,"ĠopposÃ©":13146,"Ġmicroph":13147,"ĠrÃ©glÃ©":13148,"Ġpriority":13149,"Ġpardonnerai":13150,"Ġsupplie":13151,"approcher":13152,"Ġinsecure":13153,"Ġdisponibles":13154,"Ġbottles":13155,"oxy":13156,"Ġsurveill":13157,"Ġcheerful":13158,"ĠÃ©coutez":13159,"ĠcoopÃ©ration":13160,"Ġpillow":13161,"ĠaÃ®nÃ©":13162,"ĠaÃ®nÃ©e":13163,"Ġremarkable":13164,"Ġrembourserai":13165,"Oubliez":13166,"Ġlatin":13167,"ĠAnglais":13168,"Ġscarf":13169,"Ġplaisanteries":13170,"Ġgorgeous":13171,"Ġpoign":13172,"Ġhiking":13173,"Ã©chec":13174,"Ġcrainte":13175,"Ġwealthy":13176,"Ġvocab":13177,"Ġmoustiques":13178,"Ġromantique":13179,"Ġpoursuivi":13180,"Having":13181,"Tourne":13182,"Tournez":13183,"Ġtitre":13184,"Ġdeceived":13185,"Ġindep":13186,"Ġassiette":13187,"Ġcroissance":13188,"Ġstylish":13189,"ĠaffamÃ©":13190,"ĠcollÃ¨ge":13191,"ĠBritish":13192,"ĠconsidÃ©rer":13193,"Ġmunitions":13194,"Ġtrousers":13195,"ĠrandonnÃ©e":13196,"Ġoutraged":13197,"Ġscandale":13198,"Ġhilarious":13199,"Ã©prouve":13200,"Ġsplend":13201,"Ġsushi":13202,"Ġfauteuil":13203,"ĠconsÃ©quences":13204,"ĠmÃ©chante":13205,"Ġunlocked":13206,"Ġfestival":13207,"Ġplaignent":13208,"Ġirrelevant":13209,"Ġbaignoire":13210,"ĠcapacitÃ©s":13211,"Ġatroce":13212,"ĠlittÃ©rature":13213,"Ġseventeen":13214,"Ġprefers":13215,"Ġtrumpet":13216,"ĠÃītasuniens":13217,"Ġskeptical":13218,"ĠfoirÃ©":13219,"Ġvigil":13220,"Ġtrombone":13221,"Ġenceinte":13222,"Ġsurmonter":13223,"Ġbathtub":13224,"delÃł":13225,"monnaie":13226,"Ġoysters":13227,"Åĵuvre":13228,"ĠfianÃ§ailles":13229,"\".":13230,"%.":13231,"Ache":13232,"Aussi":13233,"Bus":13234,"Buy":13235,"Desp":13236,"Drop":13237,"Grimp":13238,"Lire":13239,"Mus":13240,"Nul":13241,"Nice":13242,"Pa":13243,"Pick":13244,"Raise":13245,"Tokyo":13246,"ba":13247,"bons":13248,"burn":13249,"ceur":13250,"cÃ©s":13251,"dent":13252,"fle":13253,"gen":13254,"hon":13255,"iat":13256,"ipper":13257,"jo":13258,"ka":13259,"ku":13260,"lande":13261,"nois":13262,"oe":13263,"phere":13264,"sier":13265,"swer":13266,"tÃ©s":13267,"tier":13268,"uries":13269,"vitable":13270,"wh":13271,"Ġom":13272,"ĠAre":13273,"ĠDid":13274,"ĠNo":13275,"ĠDe":13276,"Ġtiss":13277,"Ġtaper":13278,"ouge":13279,"ouilles":13280,"Ġdried":13281,"Ġdining":13282,"Ġaida":13283,"Ġpoo":13284,"Ġpue":13285,"Ġpendu":13286,"Ġsank":13287,"ondre":13288,"isible":13289,"enger":13290,"ĠlouÃ©":13291,"erlin":13292,"Ġcage":13293,"invent":13294,"Ġmigr":13295,"anu":13296,"Ġna":13297,"Ġnoy":13298,"Ġwins":13299,"Ġwings":13300,"Ġfeux":13301,"Ġfries":13302,"Ġfaint":13303,"Ġbid":13304,"ĠbÃ©n":13305,"Ġbaisse":13306,"Ġbanged":13307,"Ġyog":13308,"Ġvire":13309,"ĠvÃ®mes":13310,"atmos":13311,"ĠdegrÃ©s":13312,"Ġquarre":13313,"entrez":13314,"unted":13315,"Ġthri":13316,"Ġgosses":13317,"Ġquere":13318,"ednes":13319,"Ġjunk":13320,"otel":13321,"Ġoxy":13322,"Ġoccasions":13323,"Ġreve":13324,"rirai":13325,"oix":13326,"Ġlevel":13327,"Ġladd":13328,"ilient":13329,"iders":13330,"Ġhaunted":13331,"ĠeÃ»mes":13332,"Ġtrade":13333,"Ġtract":13334,"Ġtrapped":13335,"ayÃ©":13336,"Ġronf":13337,"Ġheated":13338,"Ġpraise":13339,"aurons":13340,"Ġteens":13341,"Ġlien":13342,"verted":13343,"Ġpluv":13344,"ppe":13345,"Ġparais":13346,"Hello":13347,"Ġpourras":13348,"agan":13349,"Ġjewel":13350,"amÃ¨ne":13351,"Ġnoter":13352,"acer":13353,"ĠallÃ¢mes":13354,"Ġsoll":13355,"ĠdÃ©verrou":13356,"Ġmonument":13357,"Ġmonkey":13358,"erson":13359,"ureu":13360,"olve":13361,"Ġfrag":13362,"Ġfrost":13363,"Ġexe":13364,"Ġexempl":13365,"Ġriding":13366,"Ġmah":13367,"Ġamer":13368,"ulf":13369,"Ġdevrons":13370,"derer":13371,"Ġverte":13372,"ouves":13373,"cially":13374,"Ġdisant":13375,"Ġdisque":13376,"Ġcomport":13377,"pecte":13378,"pecially":13379,"Ġpartner":13380,"Ġgrounded":13381,"Ġgrotte":13382,"Ġappuyer":13383,"uised":13384,"Celles":13385,"Ġserra":13386,"Ġservent":13387,"Ġclo":13388,"appell":13389,"Ġresilient":13390,"proof":13391,"Ġespecially":13392,"Ã§ant":13393,"Ġlongest":13394,"Ġmarches":13395,"Ġmargar":13396,"Ġentends":13397,"assister":13398,"Ġparlaient":13399,"Ġbiens":13400,"ĠpensÃ©e":13401,"aidiez":13402,"ĠcarriÃ¨re":13403,"Ġcacha":13404,"Ġbrit":13405,"Ġbrushed":13406,"Ġpasserai":13407,"Ġpeinte":13408,"ormÃ©ment":13409,"Ġmutu":13410,"brer":13411,"ĠblÃ©":13412,"Ġsemester":13413,"Ġsemestre":13414,"Ġjusque":13415,"Ġspec":13416,"Ġfatter":13417,"Ġpostu":13418,"Ġcommets":13419,"Ġrights":13420,"ĠBrazil":13421,"Ġprim":13422,"Ġbacked":13423,"ĠpiÃ©g":13424,"Ġretent":13425,"Ġspeakers":13426,"ĠdÃ©ser":13427,"Ġcareer":13428,"Ġjouions":13429,"Ġrecond":13430,"iÃ©tez":13431,"redi":13432,"Ġproperty":13433,"ĠrestÃ©es":13434,"Ġterrain":13435,"Ġoverre":13436,"Ġreputation":13437,"Ġflam":13438,"ogue":13439,"Ġdiscrimin":13440,"Ġcompreniez":13441,"Ġlaissent":13442,"ĠlaissÃ©s":13443,"Ġscore":13444,"thirty":13445,"Ġbuys":13446,"Ġenvious":13447,"Ġenvoya":13448,"ĠTex":13449,"ĠTower":13450,"Ġtrouvaient":13451,"ĠSan":13452,"ĠSuisse":13453,"Ġpresse":13454,"bell":13455,"Ġconcur":13456,"Ġotherwise":13457,"Ġrefrain":13458,"Ġrestera":13459,"ĠprofitÃ©":13460,"Puisque":13461,"Ġshowing":13462,"ĠgarÃ©e":13463,"ĠcompliquÃ©e":13464,"ĠexcÃ¨s":13465,"ĠexcusÃ©":13466,"Ġvirent":13467,"Ġtrouverons":13468,"Ġcoudre":13469,"ĠrÃ©serve":13470,"Ġvoyiez":13471,"Ġsinge":13472,"ĠordonnÃ©":13473,"Ġcontrad":13474,"Ġcolors":13475,"Ġreviennes":13476,"Ġmisjud":13477,"ĠvÃ©ritables":13478,"Ġswims":13479,"Ġtricked":13480,"Ġcountless":13481,"ustroph":13482,"Parles":13483,"Ġdevenait":13484,"Ġappels":13485,"Ġresponse":13486,"Ġrespiration":13487,"ArrÃªtons":13488,"ĠrelÃ¢":13489,"Ġchauve":13490,"Ġforgetful":13491,"Ġrisked":13492,"Ġmessed":13493,"Ġexamine":13494,"Ġprendrais":13495,"Ġtroubles":13496,"Ġbagn":13497,"Ġsouhaites":13498,"ĠsouhaitÃ©":13499,"Ġservices":13500,"ĠirrÃ©":13501,"Ġcomptez":13502,"Ġregrets":13503,"Ġrobots":13504,"Ġheading":13505,"Ġhumili":13506,"Ġtransform":13507,"Ġtorture":13508,"Ġchaussure":13509,"Ġcasquette":13510,"ĠLatin":13511,"Ġstead":13512,"uyÃ©":13513,"Ġdauph":13514,"Apprendre":13515,"Ġredire":13516,"Ġbanjo":13517,"ĠsemblÃ©":13518,"Ġsupervis":13519,"ĠapprÃ©cient":13520,"Ġbasic":13521,"Ġsunny":13522,"Ġsunrise":13523,"Ġdelicate":13524,"Ġsubir":13525,"lette":13526,"Ġobligation":13527,"ĠprÃ©cieuse":13528,"Ġcuir":13529,"ĠHilton":13530,"ĠHotel":13531,"Ġgreedy":13532,"ĠimaginÃ©e":13533,"Ġchecking":13534,"ĠcoincÃ©e":13535,"Ġopposed":13536,"Ġmurderer":13537,"ĠparticuliÃ¨re":13538,"ĠimpressionnÃ©s":13539,"ĠarrÃªtÃ©es":13540,"Ġlistens":13541,"Ġrecev":13542,"Ġnerves":13543,"Ġwheat":13544,"Ġpuissant":13545,"Ġsatisfais":13546,"Ġsatisfactory":13547,"Ġrecommande":13548,"Ġdangereuse":13549,"odor":13550,"Ġfisc":13551,"Ġnettoya":13552,"Ġinquiets":13553,"ĠdÃ©licate":13554,"Ġlawyers":13555,"Ġtrompette":13556,"Answer":13557,"Ġrecherchent":13558,"Ġbankrupt":13559,"Ġconsidering":13560,"leva":13561,"annonce":13562,"Ġjaponaises":13563,"ĠentendÃ®mes":13564,"Ġsentiras":13565,"Ġressemblez":13566,"Ġdossier":13567,"Ġmajeure":13568,"ĠEuropean":13569,"Ġvictoire":13570,"Ġcomprendrais":13571,"Ġgrippe":13572,"Ġcurrently":13573,"Ġcousine":13574,"ĠtÃ©lÃ©phonique":13575,"ĠopportunitÃ©":13576,"viously":13577,"Ġconduirai":13578,"Ġblancs":13579,"Ġcherchent":13580,"Ġennuyeuse":13581,"ĠWednes":13582,"Ġscientists":13583,"Ġnavigu":13584,"Ġchores":13585,"Ġhundreds":13586,"ĠhuÃ®tres":13587,"ĠarrÃªtiez":13588,"Ġcharity":13589,"ĠdÃ©testes":13590,"ĠdÃ©testait":13591,"Ġbodyguard":13592,"Ġcompagnon":13593,"Retire":13594,"ursion":13595,"Ġdrawing":13596,"Ġmarchait":13597,"ĠannulÃ©e":13598,"Ġavoiding":13599,"Ġarranged":13600,"box":13601,"ĠvirÃ©e":13602,"Remets":13603,"Ġvolunteers":13604,"Ġexperts":13605,"Ġrecords":13606,"inviter":13607,"invitation":13608,"Ġthreatening":13609,"Ġhypoc":13610,"Ġdamaged":13611,"Ġautomatique":13612,"ĠmajoritÃ©":13613,"MalgrÃ©":13614,"Ġcounter":13615,"Ġcomptable":13616,"Ġargued":13617,"Ġresponsibilities":13618,"Ġsquir":13619,"Ġserveur":13620,"ĠÃ©conomique":13621,"ĠÃ©conomiser":13622,"Jouez":13623,"Ġressemblait":13624,"ĠprioritÃ©s":13625,"Ġincreased":13626,"Ġincreasing":13627,"Ġlabeur":13628,"ĠItalie":13629,"ĠItalian":13630,"Ġponctuelle":13631,"entraÃ®ne":13632,"entraÃ®nement":13633,"Ġinternation":13634,"Ġjugement":13635,"ĠfainÃ©ant":13636,"Ġfocused":13637,"Ġphotographie":13638,"Ġclaustroph":13639,"Ġwhisky":13640,"Ġdye":13641,"Ġjaunes":13642,"Ġbatteries":13643,"appelait":13644,"Ã©checs":13645,"Ġremarqua":13646,"Ġuniforme":13647,"ĠestimÃ©":13648,"Ġdragged":13649,"Ġconfondu":13650,"Ġhostages":13651,"ĠmaÃ®tres":13652,"atisf":13653,"Ġjoyeux":13654,"Ġvictims":13655,"Ġtemporary":13656,"ĠmenacÃ©":13657,"Ġreproduire":13658,"Clean":13659,"Ġtracked":13660,"Ġexigea":13661,"Ġcambrioleur":13662,"Prof":13663,"ĠmÃ©nagÃ¨res":13664,"Ġvarious":13665,"Ġblowing":13666,"Ã¨nerai":13667,"Ġchirurgien":13668,"Ġliterature":13669,"Ġdoucement":13670,"Ġtrembler":13671,"Ġstylos":13672,"Ġbrosser":13673,"Ġcontagious":13674,"Ġreconsider":13675,"Ġdeclined":13676,"emprunter":13677,"ĠNagoya":13678,"Ġirresponsible":13679,"Buvez":13680,"ĠaperÃ§u":13681,"Ġarchitect":13682,"Ġinterrupted":13683,"ĠglacÃ©e":13684,"ĠrÃ©vÃ©ler":13685,"Salut":13686,"Ġdefeat":13687,"Attrape":13688,"Ġknitting":13689,"Step":13690,"ĠHowever":13691,"prints":13692,"ĠoffensÃ©e":13693,"Ġguarantee":13694,"ĠidÃ©al":13695,"Ġpunishment":13696,"Swimming":13697,"obligez":13698,"Ġitems":13699,"Ġsiffler":13700,"Ġrotten":13701,"Remplissez":13702,"bÃ©cile":13703,"Ġcauchemar":13704,"Ġinevitable":13705,"ĠinquiÃ©tez":13706,"Ġconsommer":13707,"Ġnightmare":13708,"Judging":13709,"ĠcramponnÃ¨rent":13710,"Ġpuppy":13711,"Ġcommerciale":13712,"Ġsubscribe":13713,"Ġdevastated":13714,"Ġmarathon":13715,"ĠdÃ©sastre":13716,"Ġtelephoned":13717,"ĠamÃ©liorer":13718,"Ġhockey":13719,"Ġscratch":13720,"Parents":13721,"atmosphÃ¨re":13722,"Ġmisjudged":13723,"ĠWednesday":13724,"14":13725,"Bel":13726,"Car":13727,"Cows":13728,"Correct":13729,"Emm":13730,"Faut":13731,"Gl":13732,"Jouer":13733,"Long":13734,"Leurs":13735,"Nap":13736,"Nett":13737,"Pose":13738,"Posez":13739,"Som":13740,"Such":13741,"TÃ´t":13742,"War":13743,"Wake":13744,"arently":13745,"back":13746,"bib":13747,"cil":13748,"cieuse":13749,"gue":13750,"lait":13751,"minded":13752,"niques":13753,"oons":13754,"sol":13755,"tion":13756,"vin":13757,"vÃ©es":13758,"ĠDis":13759,"Ĭtes":13760,"Ġtank":13761,"Ġtiendrai":13762,"ĠtÃªtu":13763,"Ġdawn":13764,"Ġailes":13765,"Ġpend":13766,"Ġpile":13767,"Ġpulse":13768,"Ġsen":13769,"Ġsaine":13770,"Ġsamp":13771,"onym":13772,"isons":13773,"enveloppe":13774,"ercer":13775,"Ġcic":13776,"Ġcouvre":13777,"Ġcueill":13778,"inn":13779,"inu":13780,"inez":13781,"Ġmans":13782,"Ġmeurs":13783,"Ã©quip":13784,"anji":13785,"Ġnause":13786,"Ġniche":13787,"ĠfÃ©ri":13788,"Ġfoyer":13789,"aste":13790,"Ġbak":13791,"Ġvrais":13792,"Ġventre":13793,"ĠvÃªtu":13794,"atures":13795,"atles":13796,"atifs":13797,"Ġhant":13798,"ously":13799,"arres":13800,"arpe":13801,"ortu":13802,"orient":13803,"orking":13804,"unition":13805,"ĠÃĬtes":13806,"Ġgonna":13807,"Ġgossi":13808,"lept":13809,"ĠneigÃ©":13810,"Ġunbe":13811,"Ġunknown":13812,"Ġreci":13813,"rict":13814,"Ġleather":13815,"anta":13816,"Ġsueur":13817,"Ġinch":13818,"Ġiniti":13819,"idÃ©rÃ©":13820,"Ġbeans":13821,"Ġbeers":13822,"celle":13823,"Ġtrace":13824,"Ã¨g":13825,"Ã¨nent":13826,"Ġruth":13827,"Ġrushed":13828,"Ġhel":13829,"Ġheater":13830,"ĠprÃªtre":13831,"aul":13832,"audit":13833,"Ġange":13834,"ĠIs":13835,"aliste":13836,"ican":13837,"Ġlips":13838,"Ġselected":13839,"Ġsepte":13840,"Ġplair":13841,"Ġplates":13842,"Ġpluies":13843,"ield":13844,"Ġparag":13845,"Ġparvenues":13846,"Ġaudi":13847,"acu":13848,"neau":13849,"utÃ©":13850,"opter":13851,"Ġstain":13852,"Ġstink":13853,"Ġstade":13854,"Ġstab":13855,"Ġstric":13856,"Ġstones":13857,
[...]
